[PAD]
[UNK]
[CLS]
[SEP]
[MASK]
!
"
#
$
%
&
'
(
)
*
+
,
-
.
/
0
1
2
3
4
5
6
7
8
9
:
;
<
=
>
?
@
[
\
]
^
_
`
a
b
c
d
e
f
g
h
i
j
k
l
m
n
o
p
q
r
s
t
u
v
w
x
y
z
{
|
}
~
¡
¢
£
¤
¥
¦
§
¨
©
ª
«
¬
®
¯
°
±
²
³
´
µ
¶
·
¸
¹
º
»
¼
½
¾
¿
×
ß
æ
ð
÷
ø
þ
đ
ħ
ı
ł
œ
ƒ
ɐ
ɔ
ə
ɛ
ɪ
ɴ
ɵ
ʀ
ʃ
ʔ
ʛ
ʻ
ʼ
ʽ
ʾ
ˆ
ˈ
ː
˙
˚
˜
΄
α
β
γ
δ
ε
ζ
η
θ
ι
κ
λ
μ
ν
ξ
ο
π
ρ
ς
σ
τ
υ
φ
χ
ψ
ω
ϕ
ϟ
а
б
в
г
д
е
ж
з
и
к
л
м
н
о
п
р
с
т
у
ф
х
ц
ч
ш
щ
ъ
ы
ь
э
ю
я
є
і
ө
א
ב
ג
ד
ה
ו
ז
ח
ט
י
כ
ל
ם
מ
ן
נ
ס
ע
פ
צ
ק
ר
ש
ת
،
؟
ء
ا
ب
ة
ت
ث
ج
ح
خ
د
ذ
ر
ز
س
ش
ص
ض
ط
ظ
ع
غ
ـ
ف
ق
ك
ل
م
ن
ه
و
ى
ي
ٹ
پ
چ
ڈ
ک
گ
ں
ھ
ہ
ی
ے
۔
आ
इ
उ
ए
क
ख
ग
च
छ
ज
ट
ड
त
थ
द
ध
न
प
फ
ब
भ
म
य
र
ल
व
श
स
ह
ा
ि
ी
ो
ॐ
।
ং
অ
আ
ই
এ
ও
ক
গ
চ
ছ
জ
ট
ড
ত
দ
ন
প
ব
ভ
ম
য
র
ল
ষ
স
হ
া
ি
ী
ে
ৗ
ಂ
ಅ
ಈ
ಕ
ಖ
ಗ
ಟ
ಡ
ತ
ಥ
ದ
ನ
ಪ
ಮ
ಯ
ರ
ಲ
ಳ
ವ
ಶ
ಷ
ಸ
ಹ
ಾ
ು
ೂ
ೕ
ං
අ
ඇ
ඉ
ක
ග
ච
ට
ණ
ඬ
ත
ද
ධ
න
ඳ
ප
බ
භ
ම
ය
ර
ල
ව
ශ
ස
හ
ා
ැ
ෙ
ก
ข
ค
ง
จ
ช
ณ
ด
ต
ถ
ท
น
บ
ป
ผ
พ
ม
ย
ร
ล
ว
ส
ห
อ
ะ
า
ำ
เ
แ
ใ
ไ
ᄀ
ᄂ
ᄃ
ᄄ
ᄅ
ᄆ
ᄇ
ᄉ
ᄊ
ᄋ
ᄌ
ᄎ
ᄏ
ᄐ
ᄑ
ᄒ
ᅡ
ᅢ
ᅣ
ᅥ
ᅦ
ᅧ
ᅨ
ᅩ
ᅪ
ᅬ
ᅮ
ᅱ
ᅳ
ᅴ
ᅵ
ᆨ
ᆫ
ᆯ
ᆷ
ᆸ
ᆺ
ᆻ
ᆼ
ᇀ
ᇁ
ᴀ
ᴅ
ᴇ
ᴛ
ᴬ
ᵣ
‐
‑
‒
–
—
―
‖
‘
’
‚
“
”
„
‟
†
‡
•
‣
…
‰
′
″
‴
‹
›
※
‼
⁄
⁎
₂
€
№
℠
™
⅓
⅔
←
↑
→
↓
↵
⇀
⇑
⇒
⇓
⇱
∅
∆
∈
∏
∑
−
∕
∗
∘
√
∞
∣
∼
≃
≈
≡
≤
≥
⊕
⊙
⋅
⋯
⏩
ⓒ
─
│
┃
┏
┓
┗
┛
├
┬
╮
╱
╲
▀
▄
█
░
▓
▔
■
▪
▬
▲
▶
►
▼
▾
◀
◆
●
◣
◥
◦
☀
★
☆
☐
☕
☘
☠
☮
☺
♀
♂
♕
♠
♡
♥
♦
♪
♫
⚔
⚛
⚡
⚫
⚽
⚾
✅
✈
✉
✊
✋
✌
✓
✔
✖
✨
✮
❀
❄
❍
❖
❗
❤
➡
➤
⟨
⟩
⩽
⩾
⬚
⭐
、
。
「
」
あ
い
う
え
お
か
き
く
け
こ
さ
し
す
せ
そ
た
ち
っ
つ
て
と
な
に
の
は
ひ
へ
ま
み
め
も
や
よ
ら
り
る
れ
ろ
わ
を
ん
ア
ィ
イ
ウ
ェ
エ
ォ
オ
カ
キ
ク
コ
シ
ス
セ
タ
チ
ッ
ツ
テ
ト
ナ
ネ
ノ
ハ
ヒ
フ
ヘ
ホ
メ
モ
ヤ
ュ
ラ
リ
ル
レ
ロ
ン
・
ー
ㅤ
一
丁
三
上
个
中
之
九
了
事
人
今
付
代
以
伝
体
作
修
写
出
別
力
動
化
取
受
号
合
吳
和
問
回
団
型
場
境
売
変
大
天
女
娘
子
容
小
属
巴
年
式
形
復
心
念
性
感
憲
所
指
換
搭
政
文
方
族
日
明
春
是
時
暴
更
月
有
期
本
李
来
東
棘
業
様
機
次
此
比
氏
水
法
波
浄
物
特
状
猫
玉
環
生
用
画
畫
発
的
知
短
移
章
米
級
終
組
続
維
考
能
臂
船
花
菇
行
衣
表
製
要
見
解
話
語
謝
車
転
載
辉
通
部
間
関
鹿
ﬀ
ﬁ
ﬂ
ﬃ
！
（
）
，
－
２
：
？
￣
￼
𝐞
𝐥
𝐫
𝐬
𝕒
𝕖
𝕟
𝕠
𝕣
𝜽
🅱
🇦
🇨
🇩
🇪
🇫
🇬
🇯
🇰
🇳
🇵
🇷
🇸
🇹
🇺
🌈
🌊
🌎
🌴
🌸
🌹
🌺
🍋
🍾
🎃
🎄
🎉
🎶
🏳
🏻
🏼
🏽
🏾
🏿
🐘
🐚
🐨
🐶
👀
👇
👊
👋
👌
👍
👎
👏
👑
👯
👸
👻
👼
💀
💃
💅
💋
💎
💔
💕
💖
💗
💙
💜
💥
💦
💩
💪
💫
💯
💷
💸
💻
📀
📸
📺
📻
🔥
🔴
🕊
🖕
🖤
🗓
🗣
🗽
😀
😁
😂
😃
😅
😇
😉
😊
😍
😐
😑
😒
😓
😔
😘
😜
😝
😞
😠
😡
😢
😤
😥
😩
😪
😫
😬
😭
😰
😱
😲
😳
😷
😻
🙀
🙂
🙃
🙄
🙌
🙏
🚀
🚨
🤔
🤘
🤙
🤣
🤦
🤷
🥀
🥁
🦃
🦋
🦖
##n
##o
##r
##k
##e
##l
##s
##1
##°
##5
##3
##i
##d
##w
##g
##h
##t
##m
##a
##u
##p
##c
##f
##4
##0
##z
##v
##b
##y
##x
##9
##7
##±
##2
##6
##j
##q
##8
##π
##€
##™
##ʻ
##ح
##ر
##ي
##ك
##а
##л
##и
##ш
##у
##½
##−
##т
##р
##я
##н
##е
##к
##ы
##с
##ا
##س
##م
##ی
##ﬁ
##א
##י
##ר
##ן
##ł
##®
##ب
##ʼ
##හ
##ා
##ය
##ව
##ම
##ว
##บ
##ค
##ม
##ต
##ห
##ร
##อ
##า
##ก
##ข
##ง
##😍
##ل
##ة
##☀
##🌴
##ら
##れ
##ま
##す
##б
##щ
##ධ
##ක
##ර
##ණ
##ෙ
##ø
##♀
##ᅡ
##ᄃ
##ᅵ
##ᄂ
##👇
##🏼
##ಳ
##ಯ
##ರ
##ð
##з
##ь
##ス
##タ
##ー
##ト
##さ
##せ
##た
##о
##ц
##´
##¹
##🌈
##💕
##ತ
##ನ
##ಸ
##ೕ
##ಕ
##ල
##ස
##こ
##と
##は
##て
##き
##ん
##し
##😒
##├
##🖤
##ﬀ
##エ
##コ
##な
##д
##в
##🇺
##🇸
##ß
##²
##😷
##😔
##⁄
##¤
##¦
##ن
##æ
##⚡
##𝕠
##𝕣
##𝕖
##🤣
##ে
##া
##গ
##ق
##ہ
##っ
##い
##る
##か
##×
##ᅪ
##ᆫ
##ᄉ
##ᆷ
##η
##ρ
##ι
##ο
##ν
##👯
##κ
##п
##м
##¬
##ش
##ж
##ю
##ں
##ᅩ
##ᄐ
##ᆼ
##ᅳ
##ᄅ
##ᅥ
##ᆸ
##ᄀ
##ᅦ
##ᅬ
##₂
##↑
##β
##و
##¾
##ম
##ा
##त
##ח
##ד
##ש
##ו
##ת
##ᄇ
##ᆯ
##г
##х
##🚨
##œ
##र
##⇓
##ත
##ට
##ς
##😲
##ز
##ষ
##ট
##🤔
##න
##σ
##🇪
##⋅
##ಪ
##🙏
##🏿
##😢
##ন
##😫
##प
##च
##🙌
##˙
##ف
##う
##👑
##ล
##ท
##ะ
##เ
##ย
##น
##ه
##ो
##ᄆ
##ᅮ
##¨
##¥
##¢
##τ
##ε
##μ
##😜
##🏻
##≤
##￼
##∗
##ᴬ
##ع
##ت
##د
##न
##ी
##δ
##α
##υ
##ω
##λ
##👻
##ס
##ב
##ק
##∑
##ʃ
##ː
##🏽
##💋
##😂
##ส
##ج
##є
##¼
##ᄋ
##🏳
##シ
##リ
##³
##ɐ
##ˈ
##ə
##ン
##ᄌ
##🐘
##ᅢ
##ᆨ
##😊
##を
##め
##に
##★
##º
##ං
##ශ
##👌
##©
##ـ
##˜
##ह
##ک
##ﬃ
##ג
##ネ
##ク
##ч
##γ
##ם
##↓
##נ
##⚫
##ה
##❗
##і
##❤
##ذ
##พ
##💀
##ע
##ט
##お
##り
##🏾
##ち
##⇑
##😁
##ı
##😑
##ल
##ब
##♪
##℠
##✓
##φ
##ඬ
##く
##の
##ɪ
##あ
##ᅧ
##ᄒ
##♦
##イ
##ප
##ラ
##フ
##ใ
##ช
##ป
##แ
##ಾ
##ಮ
##💗
##✌
##צ
##ᅱ
##µ
##🇷
##म
##👏
##¸
##😝
##よ
##😭
##ア
##ﬂ
##स
##🗽
##ग
##つ
##や
##☺
##💫
##レ
##✨
##ッ
##ェ
##ᆻ
##ض
##🤦
##♂
##ħ
##📻
##┬
##බ
##💙
##ด
##░
##█
##カ
##セ
##ھ
##ट
##💔
##ැ
##🍋
##🌊
##ᇁ
##ද
##ত
##র
##ভ
##ক
##භ
##ච
##ォ
##ೂ
##ಡ
##😘
##ᴀ
##ᴅ
##ᴇ
##ᴛ
##オ
##ナ
##ই
##ณ
##┗
##┛
##┃
##▔
##ಷ
##ಟ
##ು
##द
##প
##व
##ि
##ヤ
##ハ
##ひ
##ロ
##ड
##🌹
##ʀ
##→
##ڈ
##✊
##≥
##🦖
##🇵
##گ
##ড
##ি
##😥
##श
##ヘ
##ホ
##メ
##क
##🚀
##♠
##ф
##ى
##🇨
##🇦
##ไ
##🇹
##ל
##モ
##ュ
##ル
##👍
##🕊
##😳
##𝐞
##𝐥
##ব
##♥
##🎃
##❄
##✖
##ග
##˚
##ʾ
##ˆ
##╱
##┏
##┓
##╮
##ط
##ء
##ध
##🦋
##⅓
##ও
##य
##𝕒
##ٹ
##פ
##ث
##ᄎ
##ज
##מ
##►
##❍
##😻
##ী
##চ
##फ
##ᵣ
##ɴ
##خ
##🇬
##⚛
##🎉
##√
##כ
##ז
##🌺
##𝕟
##😱
##🌸
##⚾
##チ
##∼
##স
##য
##ے
##ƒ
##わ
##ʔ
##🎄
##⬚
##ল
##💩
##🍾
##🐚
##ɛ
##⭐
##💻
##£
##╲
##🇫
##پ
##¯
##𝐬
##𝐫
##│
##👼
##đ
##▀
##จ
##ص
##θ
##غ
##テ
##ィ
##🔥
##ᄑ
##ɔ
##ผ
##😰
##も
##ए
##ᅨ
##💖
##ө
##ವ
##ಂ
##💯
##😓
##΄
##χ
##ख
##😅
##ノ
##ヒ
##ᄏ
##ᆺ
##▼
##ψ
##ろ
##🤘
##ং
##😇
##😐
##ª
##😡
##ದ
##ಗ
##２
##ಲ
##ъ
##💃
##🙄
##💸
##😩
##🌎
##▓
##⚽
##ඳ
##👸
##छ
##▄
##◣
##◥
##چ
##🥀
##💜
##ᅴ
##🎶
##🦃
##ظ
##🇳
##🙀
##ᇀ
##ಹ
##ᅣ
##♡
##👋
##÷
##ಶ
##み
##ツ
##ถ
##◆
##⚔
##🐨
##þ
##ำ
##💪
##👊
##─
##भ
##▬
##✮
##キ
##👎
##අ
##💥
##ϟ
##💅
##ζ
##💦
##ৗ
##ছ
##🇩
##🇰
##☠
##ㅤ
##☕
##😀
##ξ
##💎
##💷
##😤
##😞
##￣
th
##er
the
##in
##on
##at
##ed
##en
##es
##or
##an
##ing
##ar
in
an
to
##al
##ou
##it
of
##is
##as
##ic
and
##om
##ion
##il
##re
##id
##ent
##el
##ot
re
##le
##ay
wh
be
on
##st
##ut
st
that
##ol
##ur
##ac
##et
for
##ad
##ve
##ow
pr
##ig
##ly
##am
##ers
is
he
##ec
it
##im
##ir
sh
was
##ter
##ation
as
##os
##ith
at
al
sa
##ver
##th
##ch
with
##us
##ce
##ld
con
fr
##ere
##ill
##est
##op
ch
ne
said
##em
##ess
##ul
##oun
tr
ha
##ts
com
##ag
we
##um
##un
##ate
##oc
##igh
his
##iv
##ak
de
##pp
##ear
##and
un
##od
##ain
##ct
not
##if
from
##ore
by
ex
are
su
have
se
or
##our
##ould
ab
##ity
##se
this
##ort
##ment
##ist
sp
but
rep
##art
has
##ies
##ial
le
##ab
##ive
they
##all
20
##ap
##ud
##ie
##out
##ok
who
her
##gh
##ack
##ust
##ight
ar
##ice
go
af
she
##ast
en
##ant
new
##day
off
##ect
##ell
##ost
##ard
ad
##end
##ome
cl
##her
wor
br
had
##ia
pl
ac
you
were
##ich
##ib
res
year
##og
##ated
##ound
ag
out
will
am
pol
say
about
cr
gr
##ide
##ik
all
##ip
more
been
me
tw
##ans
up
##ough
##ong
##ub
their
##ge
after
one
do
##tr
pe
##ob
us
##one
##ally
##age
can
##ous
##ov
im
##der
tim
##ine
201
man
##ence
##ary
comp
inc
would
##ident
ph
##ions
dis
exp
##iz
##ople
when
##ian
people
dr
acc
ev
##ther
##ose
##ue
which
int
app
there
##own
##ace
##ff
##av
##pt
##ail
so
##ure
pres
##ign
##aw
##ord
##ely
per
##lic
sc
##ake
##act
no
mar
##ook
##ire
##ame
##ber
what
car
##so
##ile
than
##ations
##ite
##ass
##ind
##ied
some
##qu
also
rec
lik
##ors
##ump
over
just
bl
part
##ks
inter
##ach
if
kn
mon
rel
##uc
##ical
##00
em
its
bec
##ase
att
coun
fir
him
##aus
##ish
##ents
other
fe
ass
##orm
##ict
two
any
inv
dec
offic
time
fl
comm
act
str
pre
##ey
##ens
qu
##ates
##ree
##ild
##ublic
president
trump
##ory
##ance
co
sec
get
how
##orn
##able
##ep
work
##itt
##int
##oll
could
says
##amp
cont
##ater
did
day
##ath
them
te
ob
into
may
##oss
my
##ond
##ick
police
ser
like
##man
call
##oy
##ause
our
##ood
first
##ang
report
##ings
##ty
##enc
par
##ink
don
##ade
ind
##hing
##orts
##ry
ever
##ult
##ition
19
years
news
##ress
##fer
##lud
##other
law
phot
wr
##iss
##ious
state
told
add
##reat
cons
sch
show
fam
now
hel
med
under
back
imp
sy
last
##ily
##urn
col
##eric
##ock
##ery
includ
##uring
because
rem
##ug
wom
inf
##ement
##fore
ear
stud
##ek
##ues
dep
des
americ
found
##ove
thr
op
##ouse
most
##ational
again
##ons
##oup
before
high
##ife
##lect
cour
##are
##ra
##arg
where
only
sur
bel
##way
##old
ap
bet
##iew
cap
even
##vern
supp
old
dem
##anc
##wn
##ual
min
while
##uct
govern
know
pro
gu
##ating
##erson
##ert
invest
your
official
##we
jo
contr
##ities
aut
##ah
po
sen
during
##ton
##ited
##ft
every
form
##ording
##oth
house
##ased
##earch
##eral
sm
reports
##hn
reg
lead
down
being
way
war
resp
then
##aking
child
according
##ork
##illion
ins
those
##uss
long
det
ro
these
gen
##au
ve
##ama
##ince
##uch
many
def
200
made
mem
##ked
##olog
ter
through
nor
post
stat
##cc
want
10
look
##oot
##ier
world
##les
##ful
##elf
family
##ise
week
cent
end
investig
disc
press
##ivers
public
##vel
##az
##oci
##ting
000
##air
camp
id
##ible
##ool
##pl
air
##ved
##ather
##ote
kill
three
##led
bu
##atch
mil
##ash
month
see
##ning
make
##istr
plan
help
government
##son
compan
##ific
sub
very
think
##alth
fin
own
sign
##ward
mr
though
##ives
countr
well
##ected
going
##ether
group
conf
person
prot
##ro
need
still
should
##gan
bo
home
##io
against
inst
##ix
##med
##ph
arr
auth
near
prov
play
##ative
republic
spec
eff
school
since
##ogr
##ists
##als
spe
such
court
##urr
support
read
does
face
ann
obama
city
##xt
##urs
ed
##und
##ody
##lear
##ics
leg
elect
bus
##ren
##land
loc
##ently
including
##ope
##ri
##ages
life
##ying
attack
take
polit
##ned
health
much
##cr
##irect
prob
##ged
##ween
el
dif
##ollow
##rat
between
##ee
happ
conc
tal
associ
national
white
follow
##min
direct
around
called
belie
rele
times
another
##ange
bre
bar
##view
right
ret
sou
##atur
serv
contin
##ital
fil
##ants
sl
##omet
death
ma
##ave
put
hand
women
ke
set
case
##its
##artment
##ered
iss
del
##ull
york
##br
vide
##ime
author
million
##ale
states
char
research
tell
here
##ret
both
cond
##ision
##ency
officials
##ecut
##ene
miss
##ility
head
##ms
chr
##bers
sim
##nes
capt
north
##ank
good
##cent
##ular
##ient
##augh
##ys
har
run
night
intern
sun
##ually
##ower
met
##ott
##ived
##att
start
num
univers
##ior
former
trans
##ets
##ened
find
##ments
##ount
inform
appear
wed
democ
used
story
##ized
##hip
use
prod
##let
##ner
##aign
hum
pat
country
cal
gl
campaign
sex
##per
##ief
american
cor
let
pass
expl
never
big
ref
##ines
##iving
##ina
company
##ness
##uck
four
spok
russ
quest
somet
adv
didn
far
later
reported
tues
tuesday
##ained
photo
##iday
monday
children
sever
##ew
##over
percent
fri
same
##ention
photos
prev
test
statement
democrat
##ven
friend
##ling
prop
mus
es
##osed
doc
##ced
##app
john
tak
secur
today
beh
turn
left
##read
department
media
##ald
##gest
care
12
commun
sk
##aim
11
##ins
fed
mov
washing
##osp
##ism
##ont
days
##red
##iver
##ution
sus
##ax
university
15
sw
poss
##itter
requ
team
washington
hour
##aff
vict
real
mark
vi
##ger
gre
##ified
star
alle
video
office
##ric
##ern
##ights
##res
##iel
##ving
##nesday
wednesday
stand
information
##bs
cre
red
security
differ
south
men
##lish
##ains
fire
got
next
milit
##ures
friday
##ney
second
##ately
##ces
30
##ued
##king
aff
##ection
la
conv
woman
united
wal
associated
prof
##ister
##ison
##ised
##erg
claim
rest
##line
sent
##ices
whether
vis
exper
thurs
thursday
##ember
##iness
##ience
##ize
##ason
##ele
shoot
##book
fac
point
##str
mod
##ead
bill
##ever
##ony
record
win
art
took
##iting
##erv
come
few
##yp
ra
fact
susp
asked
av
pay
pa
watch
clear
##stem
twitter
rece
gun
jud
##ared
clint
hist
really
too
stre
party
##crib
##con
meet
several
##ially
est
study
##ically
charg
water
##up
##ided
top
county
vot
opp
might
clinton
pop
why
deb
without
place
system
won
killed
came
least
##ined
dat
##thing
##enn
##aring
each
viol
allow
##idence
ste
ir
##ects
partic
##ames
terr
federal
##ety
prom
proc
saying
lot
something
##els
syr
maj
##ute
##ley
##co
among
eng
sug
youn
ris
##tern
hosp
facebook
##form
18
crit
##ject
rob
members
black
ext
went
##irl
number
##til
business
seem
less
##used
great
##ured
##gress
republican
ident
main
dead
incre
##ittle
invol
sunday
##ogram
best
sour
image
sn
##oney
il
major
##ators
little
human
##ploy
##ases
caption
##inal
##ark
##iam
##ended
##gr
##ator
san
five
months
oper
order
##bc
early
saf
##ird
##pr
##cept
##aph
past
##ional
taken
admin
##side
girl
arrest
away
##rem
mich
soc
sit
##ury
13
hard
known
keep
job
military
twe
stop
deal
ant
##ves
program
christ
interview
mid
##ense
open
##ech
##self
area
##ann
##une
build
##ending
data
move
power
##ral
until
announ
secret
##wh
mean
based
jour
##eng
seen
polic
##iven
morn
however
val
list
##iff
victim
proble
view
##atter
##velop
political
hospital
curr
spokes
cand
mother
shot
things
tax
kore
investigation
##ology
administr
##ails
distr
pos
ge
##ought
organ
inj
mur
sal
morning
suggest
ang
return
likely
develop
##nn
employ
earl
##ox
##ipp
drug
center
jan
wrote
consid
occ
14
hol
mom
chang
small
##ides
##gin
ll
##nal
##ands
##unch
##uary
##ians
##by
##ering
boy
mo
net
hal
##orney
six
attorney
died
money
committ
pot
16
199
threat
##ush
##ired
dev
##ones
##ike
##acy
##icle
rom
25
released
##ready
using
hours
social
2016
authorities
added
##ield
general
protest
##ably
already
mc
##ways
ago
class
50
body
fund
son
dav
sol
sing
must
##akes
ju
march
mass
cover
##oad
full
earlier
execut
describ
service
close
den
2014
believe
##thers
priv
anal
search
import
free
exc
question
level
fight
making
step
17
local
acr
chief
colle
congress
change
food
interest
feel
working
##ences
others
##aining
hold
young
book
##urch
##aged
kid
##iously
calif
activ
along
##ane
mess
satur
journal
different
doesn
name
candid
event
across
##te
econ
lib
word
##sh
live
econom
evidence
##uction
hill
##oub
election
lar
saturday
##mer
refer
once
##ature
control
arg
vir
cop
outside
better
yet
pub
produc
fre
director
##oved
##ults
trying
kind
ple
pet
history
able
2015
##port
america
##par
##amed
senate
thought
cost
father
ent
2012
administration
fun
recent
process
2013
##ico
dam
##less
hom
officer
decision
west
cnn
shooting
officers
##ees
fall
coup
short
confir
always
thing
reach
international
having
##aughter
arch
ide
decl
rul
age
conn
friends
medical
##ten
eas
##echn
tweet
eur
##oke
sand
give
##my
##ising
hit
cut
special
##lex
##stand
leaders
rad
crim
pros
super
docum
pal
##ted
fur
grow
larg
donald
cert
continue
tex
late
treat
wife
perform
cust
lim
incident
bas
following
er
given
100
typ
##lished
civ
##for
techn
repres
foot
strong
rights
street
respond
vote
##ape
comment
enough
di
possible
ban
staff
imm
began
##ination
hide
##inc
community
fig
wee
##rop
sum
##igr
##aper
agre
trav
doing
##itor
speak
ur
canc
relations
within
important
##ried
fail
room
film
laws
##ril
love
lear
oct
##uit
republicans
land
sept
emb
weeks
line
##ively
wall
behind
##utes
policy
held
##sel
22
tog
prison
himself
##empt
scient
aug
legal
taking
##af
park
civil
##ential
prosecut
mag
led
notes
issue
40
wa
fore
##ites
enter
caus
risk
cam
alleged
flor
##ilar
tells
lab
##ler
##ograph
##itch
april
brit
russia
become
bab
##tt
someone
site
started
21
non
##na
unc
californ
bad
orig
##sy
##ars
24
saw
bur
share
mill
agency
los
shows
##ida
meeting
equ
parents
##ivid
meas
low
done
##ances
getting
alm
addition
##cement
complet
yes
half
wanted
california
hot
page
##gy
third
##ented
famil
deter
nearly
judge
side
lat
bor
inside
together
presidential
##eck
students
effect
wasn
link
heart
often
related
profess
port
discuss
tre
anim
##bi
looking
host
##ault
july
##atic
actually
nation
board
##ference
##aps
terror
guard
discover
##ulation
stay
sure
##ories
je
##lin
##ization
##ibut
happened
neg
##iter
fut
##vert
large
review
##medi
murder
wind
june
email
lost
front
dist
##ening
billion
phone
ep
##itions
hope
foreign
researchers
russian
respons
aw
##ission
hop
##ither
##itive
##ium
##irc
simp
americans
sexual
similar
##uation
further
address
paul
var
ey
force
##den
targ
uk
##ption
certain
gener
##ana
mcc
suff
expected
pict
almost
town
init
foc
david
ground
##ats
conserv
daughter
##ael
europe
anything
##work
pain
individ
immedi
##ify
result
##ighb
neighb
mal
manag
committee
mot
scre
justice
romney
##rael
account
##que
democratic
mis
personal
israel
images
texas
china
2017
fel
##gn
leader
involved
##go
syria
circ
tot
game
##imate
##sw
##oon
rev
individual
nothing
div
design
tem
collect
##umb
online
secretary
future
##aily
clos
##ped
charges
##ows
source
nom
lawy
compl
minister
mor
korea
democrats
market
##erc
action
lives
glob
##berg
vol
enc
##get
coll
ger
resident
angel
##ring
couple
announced
rich
cho
deep
release
received
geor
##ai
veh
##be
bom
##lam
webs
daily
whose
light
sold
hu
rock
hus
##lement
##yr
succ
##ades
doct
district
##thern
signific
instead
particular
hun
upd
florida
building
aust
appro
poll
##ming
blood
dom
ver
mult
reason
heard
##ored
cases
cele
arrested
access
2011
##uters
published
problem
break
bank
questions
victims
##ode
lo
##use
michael
bir
tv
const
##ients
advert
understand
isn
matter
spokesman
repl
##onse
cred
trial
comes
weap
##ne
##hood
became
quick
desp
23
success
##uce
protect
##band
response
toward
travel
reve
fell
key
##dle
bring
internet
grand
dise
obs
church
prim
##por
##iod
##uel
recently
sher
request
##ental
coming
jack
esp
described
##aced
##oid
##ps
##ibility
attempt
##ints
alth
role
alleg
enfor
fem
although
cell
launch
##ters
htt
##ij
makes
avail
##rew
##uz
road
conference
##ample
contact
anyone
relationship
##ett
talk
scene
consum
##yan
##aster
surv
chall
defense
race
term
period
leave
soon
bene
safety
broad
##anger
##fic
earth
shar
tom
##ru
##ift
phys
vers
gold
series
final
surve
fbi
##eal
concern
reb
env
198
indust
appar
dog
represent
private
island
calls
issues
groups
celebr
trad
##acter
everyone
significant
fox
##ench
gave
cle
tried
speech
location
hon
worked
phil
kim
member
turned
visit
attacks
27
express
minutes
course
##ellig
##yn
##ounds
##ards
anti
##ipt
results
thous
iran
##ham
##oud
answ
##ball
dest
##ots
financ
college
custom
##atives
emerg
king
##ival
due
husband
executive
crime
adm
william
##ality
##itness
conduct
remains
2018
file
despite
try
services
target
running
gop
franc
instit
plans
forces
##lus
ms
indic
##ensive
##ops
workers
mart
space
##ortun
available
mex
ce
chair
cause
intellig
pick
sil
wrong
specific
countries
showed
26
##oint
website
common
##ugg
else
debate
##istan
cit
everything
##iec
##attle
charged
baby
critic
pen
idea
tur
pred
immigr
deliver
ira
pract
probably
appeared
letter
##oo
self
january
##uty
middle
candidate
fear
fav
miles
##eth
aud
##ender
2010
28
violence
##inks
afric
means
##oming
living
assist
impr
reuters
ah
details
bi
current
entire
##body
che
east
web
companies
flight
august
iraq
##orr
posted
movie
particip
ran
cancer
##isl
begin
seek
reveal
senior
##ada
include
cann
##enced
doub
##eter
knew
assault
potential
music
islam
medic
##ocked
abs
##icted
behav
crash
latest
sell
tele
criminal
pan
oh
sat
birth
##0s
##lim
student
##wood
surpr
##ston
rac
##iron
provide
##ober
ball
##lu
apple
camer
esc
##ask
claims
drop
leav
##iple
investigators
voters
##owd
legisl
kids
seven
message
moment
diffic
sle
scr
##mber
accused
##ille
##selves
##asing
##reme
nove
##ological
##ogn
german
november
##arr
intelligence
heav
##ability
##uff
proper
##ogle
james
single
spent
##kn
nbc
field
missing
##itting
via
contribut
enforcement
immediately
syrian
track
forward
september
29
families
cult
environ
##oph
separ
rather
confirmed
storm
extr
situation
either
squ
eight
pret
##itted
educ
comb
##ondon
project
bal
hund
disease
##ago
nuc
london
ill
hundred
brown
##ips
analys
identified
disp
##ule
brain
comments
carry
included
governor
##itten
pur
aver
bit
##orter
whole
##iding
words
october
vo
wild
total
cross
##action
##ished
hear
serious
continued
##ex
compet
dan
intr
effort
##omm
##ends
angeles
thousands
ca
cast
google
mater
##overs
appr
flo
fat
##aur
brother
##rect
nov
amaz
approach
central
condition
expect
witness
##ster
plane
mind
norm
##cil
resc
insp
green
unf
mos
hearing
walk
financial
oppos
sheriff
border
longer
##atory
sym
network
god
disapp
##epend
35
brought
##ste
nuclear
##ke
records
relig
advertis
##hol
push
bud
independ
deg
##fully
ben
environment
francis
##ude
##ecess
believed
needed
december
sup
marri
science
##uth
reporters
demon
sources
ok
##bed
pers
neighbor
##oken
higher
##bo
citiz
##yc
true
british
tour
##isc
##esh
below
loss
amb
piec
##omp
killing
ham
difficult
wants
attention
accept
coast
provided
31
bush
197
experience
getty
position
employees
treatment
fair
base
seems
calling
decided
et
buy
global
espec
problems
award
##akers
##ado
##ams
##cript
suspect
especially
##imes
45
mayor
danger
##ergy
##aine
wood
cur
benef
article
##ino
paper
changes
gar
##back
prime
felt
##ners
season
safe
example
##icide
scientists
born
popular
text
focus
##olution
##istic
commission
destr
capital
emergency
present
hands
efforts
pack
areas
check
ov
filed
##ength
prep
##ateg
army
fly
##yl
lad
hillary
remain
##apan
subs
##ounded
alex
crowd
500
communic
60
mount
cris
residents
gas
soci
brief
##ma
peace
##ging
chic
consider
weapons
previously
##ibly
mel
##ays
quickly
japan
chem
creat
appears
recover
previous
uns
council
impact
analy
station
created
exam
##leg
repe
##ron
##of
themselves
hall
mer
drink
female
##ghan
ul
respect
industry
##ores
##dr
carol
bey
##where
allowed
spoke
doz
date
austral
##hen
teen
bomb
points
estab
dig
model
majority
please
##ural
patients
documents
george
door
##iation
color
##yle
constit
die
lower
estim
##fl
##stein
swe
unl
needs
talking
named
##ung
paid
economic
##izing
##idge
rub
reading
##itz
burn
feet
##ville
regard
##ider
##aint
sens
issued
nav
marriage
van
union
und
##etic
store
##aces
hur
##ky
febr
##ounts
telev
insur
favor
caused
february
doll
##iction
above
##ession
##oom
sched
jobs
mic
##ements
2008
##atures
advertisement
opt
##oper
rate
jail
lawyer
average
##ceed
2009
mad
adding
material
pages
written
exact
increase
multiple
meth
character
studies
prior
##ya
pretty
##iers
bed
leading
kel
##ges
aftern
os
##uing
conservative
sea
##ction
analysis
ten
chicago
shut
afternoon
professor
energy
helped
##ises
##aging
french
##ae
##han
happen
bul
version
http
scott
accident
draw
convers
##gypt
technology
tro
##ilt
sel
##eed
currently
mexico
sleep
discovered
ask
##estern
apparently
price
snow
region
primary
##room
bbc
allegations
##off
sense
injured
worth
egypt
ber
events
##bur
decades
##la
occurr
abc
guy
vehicle
additional
##ancy
reached
##unt
##sych
rap
##rel
fired
weekend
pregn
prec
crisis
##ara
bott
ele
oil
gov
##iana
finally
ens
afghan
airport
pul
histor
card
table
cruz
hundreds
exist
virgin
hou
changed
roll
surr
sett
##tain
cannot
influ
natur
prevent
chance
sanders
speaking
recogn
##aker
couldn
##erved
tit
itself
gone
lawsuit
ryan
##asc
organization
opportun
fa
##ris
trib
muslim
ken
##ole
determin
##rec
sant
arm
smith
##ping
considered
amount
##ona
block
figure
psych
trip
johnson
moved
lou
beach
products
illeg
raised
bag
##owing
simply
behavior
gather
stories
lack
robert
##while
photograph
##aught
##reg
stock
offer
##uries
gay
regul
##tim
matt
##ches
writes
ahead
looked
##phone
experts
passed
box
##apped
##oman
remember
maybe
surf
hotel
advis
biggest
declined
##mit
bost
television
largest
wouldn
france
population
ice
##ese
failed
##haps
played
development
crew
##ford
original
aren
thank
song
conditions
##he
users
works
lang
pil
touch
arrived
##cohol
size
##essed
necess
restaur
korean
perhaps
summer
boston
##mp
hy
##dd
terms
jew
allegedly
takes
subst
click
claimed
##ki
alcohol
european
din
freed
leaving
trade
##iet
girls
supreme
196
32
levels
##ander
planned
sometimes
##iest
strugg
broken
avoid
demand
stage
ukr
noted
##ugh
kept
followed
supporters
##ropri
##ev
note
drugs
editor
career
houston
challen
goes
emot
rules
##inated
lif
oce
meanwhile
offered
rout
protesters
abuse
bid
negot
turk
prosecutors
agreement
concer
type
##mar
ways
traff
charge
sad
##iar
##ipped
numbers
jeff
credit
exch
happy
ended
correct
arab
spending
evening
pressure
river
doctors
##sequ
extrem
eth
##ague
vac
path
tweeted
videos
##arily
troub
document
chris
##woman
charl
alone
firm
propos
range
require
giving
particularly
looks
patr
##ilities
princ
##ipl
blue
association
agreed
frank
##lant
mary
demonstr
brand
recall
controvers
##inary
floor
mob
fill
yester
growing
attr
##entially
damage
seemed
mach
senator
yesterday
grad
##raft
carolina
beyond
dark
fort
species
southern
hers
economy
repeated
##uced
product
usa
radio
##xim
##erve
trust
male
##ny
quite
##aming
##oyed
##oyal
counter
pray
content
ship
mission
ut
driver
##ground
paris
##down
que
actions
closed
engine
picture
education
##inese
society
applic
concerns
barack
mail
defend
eventually
chinese
##hib
vice
##lines
huge
hack
##eless
asking
poor
cat
##fri
bod
##bol
##mine
##iant
##encies
nine
battle
cook
##unk
mike
goal
##erry
whom
create
negoti
##ls
bea
returned
##jects
penn
driving
explos
parts
revealed
reportedly
learn
chairman
##ding
##ram
fast
chemical
animals
drive
lived
cbs
##rupt
##icles
fle
log
##come
mist
##ification
restr
kelly
wonder
deaths
anth
contributed
cooper
ful
jim
western
citizens
inn
immigration
talks
veter
fish
##any
##emb
performance
reporting
accus
wil
subject
williams
century
##ously
holly
##ica
defin
labor
displ
##ania
origin
contract
budget
virginia
increasing
property
animal
eye
fix
##makers
compared
jon
craw
shop
langu
##za
politics
purp
sites
customers
opened
guil
copyr
sam
flood
overs
##arm
ital
opposition
telling
gets
minor
vill
newsp
reporter
forced
candidates
##istry
##isions
served
includes
gall
spread
##ique
ord
measure
copyright
natural
##agn
##uled
sales
occurred
sister
clean
martin
match
throughout
effects
spot
climate
moving
training
archive
religious
magaz
##astic
responsible
detect
##ocks
suggested
suicide
weather
##owled
##ez
count
##arter
apartment
fighting
ohio
upon
##iles
fans
increased
33
ii
transport
##wide
37
##wor
fal
prog
reform
##airs
guilty
millions
ackn
exactly
prem
acknowled
showing
lee
pun
individuals
imag
device
answer
##to
bay
married
recomm
club
##friend
##ortion
receive
islamic
piece
playing
connect
##ires
##bing
institute
blog
tradition
ther
attend
richard
dre
mac
der
injuries
teach
section
ww
complete
##vin
##asons
##tained
learned
ready
li
ocean
responded
seeking
##oes
debt
36
##onym
abd
spr
northern
##ume
ceo
required
shared
comput
denied
isis
detail
voice
##resp
movement
hurr
##onn
tel
income
screen
except
hollywood
constr
dism
##elling
##lor
method
70
atlant
independent
##sa
experi
feed
flag
##nel
regular
sound
louis
positive
send
ability
putin
##uk
stopped
dipl
sar
##venue
##onald
built
wel
survey
train
purch
join
##fort
extra
constitution
##amb
schools
##light
clin
freedom
##ument
hous
appeal
progress
##eg
watched
coverage
jump
rh
speed
critical
square
diplom
##ota
ly
legislation
writing
introd
34
conflic
##ersey
##los
thanks
complex
foundation
agree
mention
beg
lic
jones
wearing
operation
ton
tick
aid
temper
nature
apolog
ess
findings
wid
##ius
herself
bow
aim
degree
##ayed
starting
hurric
deputy
##uana
dangerous
nob
rescue
doctor
item
standing
55
horr
cub
francisco
rates
games
amazon
unit
pow
authority
hopes
choice
obv
jersey
##iance
insurance
armed
activity
mix
frequ
normal
##hold
##wise
thom
##acts
manager
rod
opportunity
##set
shown
corn
opin
encour
bodies
nearby
lay
rule
owner
hair
oly
wat
pictures
directly
lake
ros
homes
troops
wait
##aked
corpor
olymp
cos
##time
african
rand
certainly
christian
pic
ones
weight
nomine
comed
sud
grant
resour
resign
guardian
haw
heavy
mat
anc
##bit
holding
treated
38
canada
annual
removed
##ban
names
eyes
80
advoc
raise
status
operations
##adem
illegal
##ijuana
amp
ordered
##uf
##cast
##going
perf
suit
##me
micr
nations
broke
spokeswoman
##iring
##rim
ash
2007
##engers
clim
plant
magazine
ec
highest
saud
physical
value
language
##others
signed
pac
management
soft
jose
slow
meant
standard
##iny
neighborhood
worst
suffered
disappear
actor
mu
##jected
##omes
cab
##uge
joe
stone
jackson
modern
##ulated
confirm
update
academ
##igan
##ha
clearly
growth
##arian
alb
smart
bern
caught
steve
breaking
partners
pulled
scheduled
concerned
traffic
absol
las
##ologist
##aft
43
beat
players
trail
marijuana
leadership
pull
tough
ruling
publicly
##eller
muse
tra
finding
instr
rat
##oms
entr
sort
pap
kh
##och
##ctions
bob
protection
carried
www
rise
##oma
##ropriate
germany
##11
##ustr
##olf
ath
practice
mort
sports
memor
completely
##ression
thinking
cath
chann
rally
lawmakers
##oz
kar
kr
42
cars
cold
sentence
determine
##ifying
convention
##eline
##ube
willing
chron
save
signs
costs
##ware
anonym
meaning
monitor
newspaper
older
appl
##rich
carr
linked
decade
surg
spring
90
##ension
afghanistan
mand
restaurant
thomas
beginning
chec
hurricane
mental
##aves
rare
accounts
300
organiz
reality
emails
##aries
epis
##oval
pak
##ette
rid
fine
continues
reflect
various
protests
culture
diagn
believes
rose
##uses
band
struct
politico
passengers
production
##iled
fellow
powerful
48
initial
syn
##oted
truth
easy
camera
shel
purs
suggests
knows
museum
##arks
##anch
##estic
parent
2006
##field
##iety
sor
##isted
quarter
ign
computer
convicted
moon
##cing
cash
##aks
intended
round
##elled
##ikes
##gg
ach
perm
limit
launched
nas
seat
wish
winning
supposed
tor
highly
measures
rain
analyst
ol
##ror
cere
##ador
code
votes
wide
44
none
enj
tow
##ena
refuge
afp
##agues
challenge
harm
bloom
policies
##ef
rough
hurt
amend
47
employee
seeing
liter
lawyers
##osh
determined
ukraine
pakistan
limited
register
##ols
saudi
##craft
improve
exchange
lines
cas
adds
refused
sem
experim
##aded
larger
##iling
eastern
haven
minute
ariz
##inger
committed
fully
mir
honor
unp
prince
49
placed
agent
custody
britain
opening
##oles
greater
##agon
establish
explained
##ront
andrew
##gl
victory
jury
loved
hasn
conversation
00
estimated
##town
warned
congressional
##apt
du
supported
profile
##aud
##da
lu
remained
agencies
affected
football
africa
separate
shock
boys
massive
##atively
shortly
neur
owners
otherwise
capit
plat
eat
conducted
##men
brad
appoint
investigating
cities
##ager
tests
dropped
faces
75
##oving
peter
##acher
agents
soldiers
reasons
wein
spir
waiting
pope
designed
##iate
expand
mont
plus
bird
systems
boe
mostly
proced
australia
counsel
daniel
perfect
scen
shall
colleagues
lind
iow
skin
chap
tweets
gal
dad
pair
feb
truck
##ero
ensure
##elle
mcd
benefits
consist
##itude
responsibility
dollars
##bre
##ato
warning
narr
##essions
##hner
serve
ministry
aware
stars
spl
audience
##oking
assess
option
usually
stra
conclud
commerc
##ounding
programs
environmental
carrying
admitted
joined
##erts
coal
controll
commit
tay
prompt
iowa
struck
expos
expert
necessary
39
rape
##anda
stuff
##acted
actress
places
dna
eric
41
watching
observ
tab
tear
##ucky
adults
initially
false
##amples
style
occup
##lv
humans
jul
partner
evac
resources
nominee
parties
aircraft
sitting
##ids
##ledge
ultim
##aped
##iced
##ih
originally
bond
focused
##burg
announcement
##bert
expressed
domestic
##kin
emer
statements
quality
##ze
suspected
##irt
##ano
##anced
##iot
##uate
unclear
org
acqu
funding
achie
##erate
scand
coff
christie
##house
participants
active
messages
parl
affect
occas
kick
fif
##ios
cuts
##ests
challeng
spend
iphone
hero
glass
##cription
strength
window
##atever
write
##azi
politic
whatever
colorado
asp
##ulate
champ
turkey
extremely
famous
exclus
surveill
adop
##iat
crimes
surface
overall
##ictions
span
sale
critics
52
elections
46
appearance
fresh
contain
bail
coach
ford
presence
assad
drinking
familiar
speaker
connection
zim
privacy
##owed
writer
commercial
surveillance
athlet
authors
65
walking
delivered
rubio
divers
##ansas
2005
collection
sought
mobile
crack
minim
sick
unus
dogs
ultimately
helping
##iful
##mas
surgery
strike
features
penal
worse
identify
onto
explain
object
patient
##utions
healthy
##vey
polls
categ
michigan
bridge
ram
putting
complaint
terrorist
strateg
lady
lock
circum
everybody
knowledge
##night
proceed
##oned
parliam
##ca
gender
##enty
books
royal
command
israeli
twice
autom
rick
dismiss
opinion
repeatedly
steps
facility
wer
miller
##ills
sac
covered
lose
davis
updated
##ales
influence
channel
##west
jenn
parliament
assistant
dozens
##rant
possibly
criticism
violent
##rey
rog
largely
navy
hyp
ts
##ivity
happens
declared
jr
##oe
feeling
kat
items
tun
exerc
joint
##pts
obtained
##ingly
planet
argued
shares
hang
brook
voting
testing
##oul
difference
altern
ped
cy
fourth
founder
taxes
cool
links
tech
##ois
eating
##orted
##kins
discovery
##oses
campus
faith
diet
planning
yout
facing
##ining
walked
developed
51
involving
##utely
streets
interv
vehicles
##iger
nut
##outh
cerem
harass
sudden
bure
astr
fuel
rang
amid
arms
laugh
potentially
liberal
##otten
farm
belong
ongoing
marine
##eland
remarks
simple
##cher
communications
straight
lew
sav
views
guns
deleg
deadly
aggress
possibility
##otted
machine
##icks
rush
##mates
##itation
arizona
wedding
cells
proposed
##reek
##dom
incred
selling
produced
kil
lie
length
consult
moore
##icop
pregnant
subscrib
adj
##20
hor
scale
##ien
indeed
player
alive
elected
strate
prosecutor
strategy
##car
breath
##izes
acting
winter
bloomberg
outr
##sylv
complic
internal
threats
divor
##ucks
##ba
##ushing
negative
myself
prepared
palest
pennsylv
dozen
les
iv
##eted
confident
wounded
conflict
taylor
##more
195
##enses
##olic
successful
##pm
##zz
regarding
sanctions
##etts
https
##ufact
grab
indian
columb
pennsylvania
manufact
youtube
mile
keeping
absolutely
capitol
mosc
##iated
witnesses
##utiful
proposal
wealth
consequ
gives
##aska
tens
trig
sides
catch
adult
odd
##oring
400
sequ
background
seriously
##board
##pper
##lying
afford
nomination
##uated
lob
weak
##sey
##enger
magn
pattern
compr
##ibution
younger
moscow
serving
cry
valley
ty
pra
approved
bear
wake
explains
failure
##arters
bin
##vant
##gas
sarah
hate
diss
##unte
offers
identity
##ipping
activities
##ble
effective
##eled
compar
offering
##isher
motor
stress
##gu
entered
talked
volunte
helicop
bath
nasa
ox
voted
beautiful
pin
thinks
neither
##abor
title
##ordan
tempor
regime
recorded
canad
reduce
nick
professional
punish
##well
memorial
rum
conclus
##uted
ancient
ded
fash
##ifer
##encing
georg
reaction
##apping
##agram
gon
cia
ted
tonight
emotional
obam
2004
factors
comfort
doubt
businesses
##ament
abortion
becoming
singer
row
weren
flu
moments
trouble
##iami
interp
##onom
footage
##actions
attempted
surprise
faced
india
attacked
attended
cd
league
injury
##respond
giant
pilot
cyc
##iber
deeply
sentenced
double
correspond
terrorism
promot
located
na
##ini
fashion
##ker
alert
mountain
53
##umn
platform
resist
whe
##othes
guys
hell
manh
##achus
54
charles
dar
sympt
##ias
##amm
captured
fan
severe
##antly
princip
activists
perry
##aled
speaks
##uties
communities
christmas
owned
##works
##ighter
values
generally
##oked
earn
##bon
braz
user
eu
holiday
##inate
##wr
devices
miami
sky
massachus
function
embass
massachusetts
bought
scientific
suspic
surviv
england
quiet
scandal
mitt
sect
##ective
ruled
medicine
panel
english
kenned
##load
##ican
pu
slight
remove
weapon
##lec
##aza
cup
notice
##add
core
jay
dall
bell
migr
stores
involve
figures
palestin
newslet
pled
jur
consumers
pip
zimmer
paying
##ulations
devast
jordan
##ashed
threatened
gang
ip
episode
kennedy
stab
##pped
unable
2000
##idel
emp
heat
enjoy
##ulf
specifically
pointed
##erous
nfl
bottom
suspects
teacher
harv
##ula
rank
##lets
instagram
village
flow
roughly
##mark
fol
inqu
##aling
fake
nice
##ym
assemb
##ka
traditional
circumst
discrim
understanding
qual
vul
banks
gh
ble
##icip
bol
digital
dram
egg
decisions
broadcast
awards
skip
##onents
sessions
unusual
##egr
cohen
ambass
proud
stood
adviser
craz
missile
cham
retr
transfer
assum
plastic
calc
##acare
immediate
somebody
tree
##ester
spect
jewish
allowing
vegas
##ta
obamacare
standards
happening
dur
194
grew
dun
established
##osis
ic
thus
mccain
personnel
breast
stands
##rest
barb
funeral
##eas
##abeth
unkn
gard
fatal
interested
liber
typically
##xic
filled
tru
##iev
95
worker
dream
considering
funds
prices
performed
depl
dress
##awn
feature
smaller
condem
##mann
sharp
widely
urged
traged
argument
dallas
confront
theory
airlines
benefit
suppl
##inct
##onnell
era
boat
treas
raising
fraud
contest
stephen
georgia
picked
display
eliz
album
##ici
ren
amendment
embed
swim
##itely
autop
##aham
##wards
kidn
nobody
anthony
unfortun
controversial
ceremony
dim
virus
basis
retail
boehner
ging
gray
santa
exposure
swed
worried
##gen
dub
brian
providing
entertain
##bl
##usted
obviously
##tered
native
##ologists
qa
##adel
sorry
estate
firef
pent
supporting
##ga
##omb
testim
presented
pushed
lands
affairs
embassy
56
unless
cosby
batter
relatively
targeted
produce
##east
generation
py
noting
suc
eval
turns
sending
##odes
math
equip
##lig
complain
canadian
cart
allies
pacific
ho
##reh
resol
laur
pm
girlfriend
##person
buildings
##isters
recommend
underst
reference
jess
warn
libya
hamp
##arant
##alf
investigate
finish
seattle
symptoms
sust
##gment
gingrich
dinner
##lah
##uts
actual
gain
passenger
coffee
innoc
ties
termin
electric
##anic
##agan
weigh
closer
cauc
facts
disaster
##do
barr
##usion
archae
memo
endors
runs
uses
unknown
kent
coc
managed
causes
increasingly
suffering
queen
##mate
forg
appropriate
bureau
##roit
maxim
##asts
##iders
advance
smoke
elizabeth
decide
jer
wisc
disappoint
consp
ambassador
##coming
accur
illness
harry
##isan
assistance
escape
intention
task
australian
comedy
resolution
setting
vent
palin
ring
##ews
mans
mech
causing
imagine
adam
numerous
luc
transition
##oves
backed
oklah
destroyed
memory
element
interesting
##ries
57
interviews
closely
provides
favorite
summit
##erse
tested
secure
unique
belief
detroit
advant
##inn
defe
construction
hoping
##water
##hab
organizations
prohib
cabin
recovery
regional
gathered
dou
relatives
##acing
integr
direction
honest
##ari
wik
##born
spotted
rebels
towards
traum
harris
teams
prove
changing
##onsin
58
aband
ven
winner
artist
angry
differences
wisconsin
clar
equipment
oreg
spokesperson
controlled
flying
bringing
pregnancy
drew
oregon
2001
##rees
letters
journalists
wing
feels
spons
shots
oklahoma
da
discussion
hawai
##kel
movies
##life
##gar
##athan
testimony
print
bigger
gunman
visited
##outs
waters
italy
##istics
virt
yell
route
warm
samples
shr
warrant
unlik
academy
##fire
amazing
options
walker
losing
##ched
tend
99
earthqu
##mond
listed
##itory
wilson
bat
rising
##ete
rein
division
duty
tragedy
150
##ogen
ny
##entr
counts
##itors
##sp
rapid
load
frustr
##esus
tea
representative
chain
##ography
directed
gallery
alt
attorneys
bull
utah
consumer
unlikely
##illy
approval
##head
emerged
zone
celebrity
circumstances
operating
japanese
revenue
kevin
holds
truly
##eld
acknowledged
##adelph
sandy
choose
##shire
nev
software
##cl
blame
allows
tall
philadelph
retired
listen
spirit
switch
purpose
##order
implement
creating
matth
mall
worry
shift
comey
ray
exposed
##active
stated
philadelphia
risks
stick
promised
surprising
surprised
lit
mitch
sexually
atlantic
symbol
wear
jet
promin
copy
electron
ride
stol
brothers
forest
investment
##ella
highway
headqu
joseph
publish
apparent
instruct
batt
referring
ell
eld
stret
isol
threatening
boost
prefer
winds
interests
markets
substant
easily
silver
experienced
behalf
##uments
fest
##illing
shouldn
neighbors
mut
alab
imposs
jam
drove
##igned
##aid
##ucc
journalist
2003
suspended
mcdonald
matters
mouth
master
install
requires
josh
finds
turning
pel
youth
##racy
##mon
heads
depart
01
##pet
ale
senators
scar
jac
brazil
##ucker
crazy
justin
variety
entirely
##bor
##aze
estimates
wire
vess
types
##aire
mueller
receiving
cited
##inating
##inder
prize
milk
surrounding
prosp
vacc
fit
##bola
leaves
##ani
##cer
##omed
blast
shooter
vulner
beij
withdr
citing
sounds
myst
64
##anged
rene
sharing
harassment
column
leads
genetic
##urd
worldwide
##ship
allen
##hal
beijing
ing
fighters
pist
sample
historic
##emen
controversy
weinstein
catholic
##ils
immigrants
##eness
##iable
therefore
hid
advice
solution
distur
micros
subur
claiming
extreme
coord
connected
##icient
guess
##eda
##oria
tast
##uster
inspect
mechan
marsh
concentr
##how
##using
stun
schol
meat
subsequ
##isa
upset
retire
split
investors
zero
instance
##enda
bacter
##ading
yah
interpret
##idency
seconds
destroy
alabama
##illed
perman
ebola
pit
pitch
bon
va
ideas
license
penalty
impossible
tight
affil
forec
marc
##otic
significantly
##ua
solid
fo
tan
tol
##annon
corporate
800
##licit
criticized
random
murd
alaska
##lights
rejected
discl
600
##cious
bright
encoun
libr
coalition
##atically
jong
factor
negotiations
divorce
rif
headquarters
vig
##aly
torn
##sen
rebel
##ext
##ancing
introduced
bound
##mes
##afi
##lyn
satell
challenges
questioned
consequences
ads
continuing
sweet
hen
map
combat
emph
biden
mun
bills
stolen
foods
atm
exercise
911
error
##ouri
charlie
ye
ba
headed
requests
todd
definitely
dating
centers
##ola
birthday
##ika
mcconnell
acts
##apher
concluded
##ogue
vast
accomp
advantage
graham
conservatives
approxim
achieve
##ounced
observed
mistake
oak
engaged
developing
predict
59
cru
##whel
veteran
entertainment
models
veterans
##hr
relief
referred
malays
ru
##dy
inquir
session
explan
conce
##phere
golden
describes
85
pounds
sir
relevant
##orum
##icts
porn
##eman
cloud
confidence
##orders
radar
##rial
pool
context
films
regulations
newly
discussed
illin
corp
crawls
##usal
##empts
initi
globe
##equ
plot
##inson
italian
detailed
1996
killer
ow
basic
militants
slightly
jason
##iner
explosion
housing
suggesting
petition
illinois
learning
greg
revolution
greatest
competition
##isf
dial
remaining
infection
apart
damaged
comprom
##astr
##amin
transl
kerry
thoughts
tm
hampshire
mexican
bang
surge
ticket
##hone
trag
appe
completed
physic
applications
##orrow
gm
tiny
patrol
jennifer
##thy
##iences
investigations
mrs
##apol
pieces
longtime
unrest
swift
temp
##eme
neck
##aa
##apy
writ
2002
politicians
attempts
bes
buzz
kir
vision
##ario
subm
##ographic
iraqi
##itals
buck
repr
##iking
minimum
overwhel
searching
consistent
shocked
jesus
kas
kiss
remark
##opher
anton
survived
pentagon
stan
relative
fifth
##oft
##ita
updates
chronicle
fewer
buried
contacted
maryland
##roll
disney
avenue
positions
##ington
indicated
debr
babies
elim
answers
enem
olympic
wave
motion
minority
wildlife
fer
harvey
##ibuted
##ruption
arabia
cow
##attan
##lo
inches
193
##ached
centre
##uits
talib
lam
hadn
compens
indiana
courts
falling
percentage
tower
nato
edge
commissioner
##ala
terrible
driven
##lan
anonymous
lying
taliban
##izz
atlanta
mentioned
researcher
unlike
kate
##icated
apprec
anybody
parking
citizen
gotten
strongly
approximately
promise
recalled
colon
classified
laden
warren
incidents
recon
fred
informed
firing
motiv
cha
existing
upper
opposed
blow
weekly
merc
helicopter
distance
disag
superv
downtown
practices
patrick
insisted
tort
province
anger
replace
oscar
##lad
##esy
accepted
spar
producer
stew
orders
settlement
wine
missouri
##itzer
collected
61
##igar
##avan
journey
contained
civilians
meetings
replay
##care
telep
sight
##okes
egyptian
alternative
poison
strikes
iron
jun
draft
supply
##rep
manhattan
fled
locations
mars
infr
profit
elev
methods
anderson
racial
yahoo
ending
structure
##win
exhib
summ
pence
tip
recovered
hawaii
wrec
passing
possession
reduced
boyfriend
##greg
smoking
diplomatic
infect
##ographer
uber
##ko
transportation
##fall
trees
pushing
hook
ron
dollar
chick
presidency
heavily
##ept
misc
kansas
##iqu
describe
boss
##aver
michelle
registered
72
becomes
depression
concert
roberts
santorum
welcome
windows
gulf
equal
##ables
probe
posts
qaeda
till
shape
##ahu
disorder
apply
verd
woods
teachers
emphas
highlights
debris
zimmerman
anx
conspir
appeals
mas
asia
exclusive
banned
temperatures
62
columbia
sport
##box
crashed
outrage
sed
##acters
remind
yourself
represents
projects
characters
patri
height
##road
tar
kilomet
maximum
tob
spanish
racist
cultural
materials
hired
degrees
tap
##gers
religion
handed
muslims
lev
iranian
territory
##illa
client
firefight
democracy
##ompl
grown
basically
67
##ionally
##timore
elsewhere
nic
##nam
courtesy
##nbc
##ni
minnes
carson
islands
empt
solar
tenness
tribune
##acity
baltimore
##idelines
totally
##bel
ages
analysts
shif
household
handle
stem
offensive
spoken
joke
domin
aides
abb
harvard
tied
austin
ali
hung
deputies
rival
inspired
66
##under
##po
##era
hat
drivers
funny
lt
contrast
execution
shirt
##icul
impress
mystery
fisher
68
liqu
bever
carbon
personally
02
fisc
rice
amy
tact
##point
flights
stewart
references
flash
##place
dealing
kentucky
buying
interviewed
pod
matthew
##oral
argue
##uous
prominent
visitors
cameras
evolution
##utch
##ucing
##acle
repeal
tmz
lav
wash
dol
expensive
spain
outcome
##exp
intent
delay
hug
rail
select
survivors
sugar
##row
##hi
##ties
reid
accompl
earned
christopher
77
greek
reads
novel
minnesota
prevention
crawl
complaints
heading
##ardash
editorial
commander
##wal
250
charlott
refugees
realized
withdraw
##anna
targets
anch
diego
frag
files
depend
##erties
mol
shootings
balance
granted
##iser
customer
##utation
quot
##issions
louisiana
chamber
##irty
package
commitment
tragic
finger
musc
representatives
frequently
metal
officially
alexander
mamm
jen
om
drag
dismissed
puts
drunk
epa
scenes
prost
temperature
orange
alongside
index
ech
pleaded
cdc
decline
filing
knowing
purchase
suddenly
score
gross
relationships
##ece
survive
lunch
prompted
activist
carter
hay
##tv
kardash
tony
dispatch
##mo
maria
missed
accusations
bask
nevada
##arch
unn
couples
moham
cair
plants
##ocol
airline
facilities
fiscal
loud
networks
embarr
##owski
bach
joy
indicate
preserved
embarrass
guarant
advertising
hunt
react
library
locked
entry
rolling
shopping
ment
constitutional
revel
protected
extended
viewers
wheel
assembly
tennessee
brut
guide
palestinian
cigar
bones
icon
violation
denver
cops
newsletter
annivers
fundra
returning
##pread
blind
mour
##ouch
##oster
recording
##ilton
marked
discrimination
63
defic
tomorrow
noticed
##veland
falls
##eding
cleveland
recip
##lands
clinical
aimed
cable
extraord
disclos
aggressive
punch
easier
krist
nur
##etime
##imer
gaza
struggling
marks
embr
74
essentially
papers
##standing
delegates
plays
substance
##stone
yellow
05
increases
agenda
sensitive
experiment
apology
finished
visiting
judges
hoped
hole
npr
theater
##aken
##aughters
anniversary
ire
wides
strip
gab
agric
huff
rig
##oner
unfortunately
presum
legit
distribution
earthquake
finance
circuit
deals
satellite
voc
excess
marketing
prote
hospitals
extent
helps
lan
plenty
##mad
73
moves
haz
bathroom
nsa
##iform
scot
closing
ark
##ogan
forms
sees
phones
yemen
interior
application
morgan
depos
soldier
cutting
addressed
##atured
historical
highlight
vlad
##onent
chose
widespread
lean
habit
dyn
desper
satisf
outbre
lots
optim
##uations
fears
vet
ga
accompan
##acco
dry
powers
dc
disappeared
hits
##oh
##erto
transform
invited
bars
communication
alter
leon
proof
maintain
implic
aside
concept
nurs
toll
##iment
bullet
##apse
stayed
fet
toxic
drawn
forth
##yang
##idem
flat
viral
conviction
combined
##acement
##apper
institution
turkish
stuck
involvement
assert
clothes
diagnosed
hong
##athy
##onto
ends
##gun
traveling
tape
behavi
agricult
cul
estimate
##rators
waste
clark
begins
festival
sons
anticip
charity
nar
##ulty
700
##oric
collaps
escal
loyal
pump
bron
strange
firefighters
inapp
consumption
##omen
eru
daughters
occur
houses
saved
graph
studio
beer
governments
rocket
shark
frame
##ppo
testified
pig
som
roof
##inations
##ream
intens
##iffs
theat
wars
1999
prayers
##ords
transm
inmates
drama
investigated
cairo
##ito
executives
cyber
prisoners
felony
##elson
holl
ward
##erves
category
aged
buff
lies
##har
payments
calm
ramp
##key
chuck
shutdown
##osphere
amounts
overnight
fla
zoo
basket
quant
ster
detained
##ears
breach
greece
folks
cruc
featured
terrorists
ballot
ross
oblig
failing
shout
hunting
##chester
zucker
orland
blamed
prosecution
monitoring
aleppo
max
mothers
##feed
sean
tobacco
fda
steven
69
aide
howard
soph
procedure
conspiracy
hills
##uctive
scientist
dispute
intense
decre
explanation
captain
punishment
tools
incor
gift
bernie
foss
outl
unw
conversations
telephone
##abet
realize
trading
##upp
collabor
epidem
prepar
##athon
##ora
##employ
homeland
mete
obvious
vatic
wolf
##icut
cameron
writers
cards
##maker
dump
pyong
corner
mine
seats
grass
tool
robber
recognize
formed
portr
clot
vatican
opponents
##onduct
##apolis
fallen
unemploy
enh
##ucture
##ahl
assessment
##agement
enl
uncert
delivery
connecticut
##de
##eds
infant
veget
reward
gap
lane
rar
reputation
blank
containing
rating
approached
regularly
literally
announce
##abilities
flee
##flix
olympics
affair
excited
##gb
reaching
innocent
compreh
diseases
vulnerable
pyongyang
detectives
netflix
bannon
##itution
golf
signal
importance
elder
radical
resulted
microsoft
##hs
bombing
toronto
##raid
applied
teens
##rig
##taining
##osa
polling
hidden
forget
quoted
##ennis
##pa
gene
hann
##imir
songs
seized
reagan
anywhere
caucus
##ss
pharm
formal
datab
dramatic
lewis
throw
founded
contains
bacteria
tamp
trend
laid
urban
tiss
gi
##itarian
##ctic
handling
complained
asks
capture
ferg
technical
76
doors
blocked
readers
waves
advanced
paint
limits
schedule
hiv
regardless
jonathan
persp
diam
##aware
represented
tum
tears
kardashian
manner
battery
fant
##ibute
landed
##andez
genes
explo
crews
capacity
clinic
pleas
bombs
overt
requested
struggle
carl
conclusion
tag
guidelines
##uzz
misconduct
##math
dish
mit
scrut
orlando
##osen
puerto
yeah
##mart
##umer
jumped
ta
desire
promote
maine
ky
athletes
netany
temporary
vladimir
##enders
dick
permanent
legs
precise
annot
replied
friendly
permission
valid
establishment
tas
##olved
clock
salt
burning
71
thor
##uson
##imp
slam
verdict
pron
phen
indict
healthcare
headlines
hart
nich
marathon
roman
##ela
tes
toy
gonna
usual
snowden
wreck
netanyahu
bone
##enez
afraid
staying
residence
outs
clash
nationwide
reasonable
raw
##arms
resort
stronger
innov
##esa
toler
##otyp
##can
guests
actors
harder
##hd
jimmy
hisp
ukrain
##nic
effectively
bip
kong
wis
offices
checks
infrastr
##acc
##antic
photographs
##phy
##gi
regions
pending
##argo
starts
begun
##osing
illustr
serge
baseball
fought
uniform
donations
remote
empty
##rah
entering
##shot
kingdom
##ippi
conservation
ratings
viet
responding
units
wage
procedures
lyn
subscribe
grav
entit
documentary
thick
legend
gib
flooding
wy
mississ
anonymity
clients
##pping
defendant
aer
##pass
tank
##orage
consent
##arge
fab
demands
##enth
##isms
interst
##stream
##olit
exit
assets
stepped
fields
industrial
infrastructure
returns
riv
crown
dw
##wan
reviewed
cabinet
jacob
bash
whit
follows
78
dance
cuba
succeed
##bridge
holmes
##oen
yard
delete
##icial
scores
extensive
tornado
##70
##alia
typical
trained
1998
elementary
studied
palm
grounds
elements
mixed
gut
##cy
##yer
grade
arrests
collins
ak
nazi
##oration
renew
judgment
landing
uncon
donors
celebrate
abandoned
publication
kavan
##iy
chest
eleph
associate
chapter
portion
strang
##ulating
pock
advocates
passion
gest
##itable
combination
flint
representing
encounter
dod
telegr
restrictions
##ashing
payment
extraordinary
mississippi
susan
populations
arguing
nancy
defended
necessarily
philipp
##gt
feat
examined
bible
inch
shelter
stad
forever
trem
##nc
##ghazi
##10
##pro
legally
complicated
briefing
##oard
traveled
##azz
tack
stim
narrow
03
medicare
preparing
cruise
lord
branch
benghazi
dying
##ati
beast
##ilit
gad
burned
##inals
symp
ferguson
lights
somehow
gary
fees
killings
visible
az
intel
##iveness
uncertain
##een
reun
##ounting
##away
persons
analyz
weird
regret
bowl
electronic
##ardo
capable
editing
moderate
cave
##eration
neut
photographer
download
rhet
henry
gathering
kavanaugh
civilian
inappropriate
adopt
hud
##eling
belg
tone
forb
detention
purposes
auction
berg
ax
deadline
attempting
psychiat
desert
silence
incredible
zuckerberg
theft
##acks
drawing
gate
invas
questioning
222
brooklyn
anymore
fame
trigger
basketball
confirmation
roy
insist
cardi
speculation
voter
bedroom
disappearance
##what
legislative
palace
appointed
larry
apologize
guest
scholars
##sc
corruption
predicted
tesla
##uls
grave
temple
homicide
adopted
upcoming
##va
arrive
authorized
dave
visual
recognized
affordable
understood
fasc
likes
signing
cogn
viewed
mate
rab
##oli
##ns
##jo
##anne
priority
cu
stead
initiative
enth
meteor
ukrainian
84
graduate
stadium
##tery
companion
snap
casual
hitting
assass
trapped
employment
somewhat
##ensus
organized
incredibly
malaysia
childhood
volunteers
##usalem
gill
wins
jerusalem
skept
shad
edward
legacy
ambul
intervention
##gs
##stal
##ucted
insider
normally
plaint
shell
##rete
##aug
herald
guards
rushed
##ii
schumer
dedicated
##ifications
unpre
gained
##ateful
gil
##atern
restaurants
anyway
##ours
perpet
##ishing
electr
teenager
##xual
unexp
destruction
ireland
##phones
objects
vigil
##cience
depth
phr
resulting
experiences
##lay
jane
bib
priest
chosen
##oded
sued
sev
disrupt
##laim
apologized
roads
86
plea
##rence
bears
compensation
biological
##mont
##cedented
aboard
teeth
musk
thin
lux
faster
unprecedented
enorm
walls
##fast
bags
checked
subsid
mh
##izon
campaigns
120
encourage
demonst
##tle
##artisan
dece
##bn
mortality
##ileaks
hub
probation
posting
missiles
collapse
##ompson
slowly
nutr
praised
stretch
tam
arguments
rural
##rets
overd
gear
##izza
covering
lisa
hern
fruit
simon
canceled
nurse
##ila
lucky
forecast
lin
escaped
rifle
applause
unexpected
liked
southwest
##etta
##news
oldest
independence
retirement
thompson
transpar
lung
stable
dressed
castro
pier
##fe
somewhere
defined
institutions
scan
sin
horse
odds
homeless
wonderful
overwhelming
everywhere
flew
convin
atmosphere
cav
domain
wikileaks
gates
description
1997
registr
properly
requirements
principal
##ingu
therapy
clothing
classic
discussions
deficit
provision
##lings
outc
birds
eggs
ws
##zy
participate
oakland
moral
##ophy
jessica
antonio
trick
myster
infected
1990s
elig
twin
simpson
roger
mood
##usting
protecting
venez
followers
awa
chase
deem
comfortable
ka
pill
##mother
forum
asian
drone
lobby
##abled
kasich
##fit
treasury
kitch
##bucks
supports
script
champion
inquiry
cord
rico
cra
forens
hood
##boy
spin
knife
uncover
resignation
enroll
cous
kinds
settle
busy
sweden
##tha
referenced
supplies
##iro
reviews
violated
parks
articles
##rell
supplement
outbreak
rely
beck
gor
##eston
##burgh
od
peaceful
creative
sov
iii
venezuel
##ata
aftermath
funded
purchased
convinced
garden
infl
sets
describing
reduction
measured
crying
airstr
dak
expans
violations
##iti
andre
peak
ethics
recommended
indones
starbucks
opposite
awar
laboratory
##lers
surrounded
##agers
explicit
rodrig
jews
trillion
partnership
nose
caution
threw
nat
briefly
distinct
essential
prelim
vessel
tail
pink
websites
audio
compos
chees
hunter
fairly
##bell
##ova
mcm
cliff
outlets
narrative
midnight
##orius
##isation
sweep
jerry
sparked
km
beauty
cock
##12
saving
stream
vs
shore
drinks
dust
steel
tensions
exceed
reprod
awareness
stup
##umm
tips
seal
##heimer
sits
discip
handful
tourists
visits
craig
pour
brings
marco
sleeping
dear
smell
##opez
controls
mice
##ifies
reserve
deploy
universal
##osi
targeting
transpl
musical
prepare
scared
rarely
screening
overseas
dict
##bury
keeps
massac
gig
answered
pursue
collapsed
rescued
trop
engineering
##pay
grace
enthus
proved
##ussels
successfully
pistorius
ranking
fighter
glad
gag
##wa
champions
tatt
luck
pointing
ethnic
ipad
barbara
taste
kenn
##ali
topic
resigned
lawrence
cycle
divided
proceedings
rumors
jere
replaced
hob
##gel
##roph
cease
survival
trauma
striking
subjects
engage
suffer
han
philos
berlin
lor
desk
murphy
lopez
hey
##ibr
wound
politically
inaug
##arak
deliber
preliminary
corps
devastating
disappointed
declar
shame
salv
sod
griff
expression
thousand
creation
wealthy
whales
warner
subsequent
phase
edition
jean
volume
cocaine
comprehensive
apps
accurate
kurd
##elet
manning
thrown
tracking
demanding
murdered
pover
rot
feelings
##rd
##arre
strict
##agger
detective
rosen
dougl
reven
um
attending
antib
damasc
bie
##icious
##oln
zeal
1994
diversity
fert
responses
bankrupt
unve
bottle
brussels
##ressed
rivers
patterns
dean
damages
vacation
##esty
contem
echo
09
04
cob
latter
rocks
trials
aar
mast
sgt
##fund
rebu
diagnosis
damascus
vital
##esc
smile
demanded
prayer
cain
ceiling
liquid
crucial
goods
poverty
##unes
lifetime
mub
sisters
herit
chronic
##die
grateful
aqu
##father
chances
performing
goldman
resistance
defeat
telegraph
circle
database
equival
79
gym
constant
feeding
robbery
walks
suspicious
rehab
skills
opportunities
comparison
barely
perspective
phill
planes
sib
##rid
##iere
universe
arkansas
##ahr
reveals
struggled
scrutiny
gent
ally
conscious
fate
flav
diabet
##afe
kitchen
##isons
##com
mccar
unsupp
advent
searched
anxiety
nelson
inher
##olds
biz
margin
chicken
demonstrators
abu
rent
tiger
arrival
strategic
routine
kilometers
spy
exped
choices
##erce
syndr
manufactur
bruce
dates
advisers
outp
shocking
liberty
hernandez
sector
kal
##here
##bus
tracks
md
harr
unfair
wore
linc
backing
cort
mah
stake
plate
evil
sony
sciences
illegally
unemployment
##nd
playback
encouraged
shoes
timing
parker
substantial
rach
holy
unsupported
erupt
tissue
broader
arts
carefully
texts
ships
##urray
concrete
personality
dynam
##irts
mubarak
##say
soul
tillerson
jol
naked
##inem
painting
screaming
ay
##anted
firearms
walmart
deny
bish
niger
contam
imper
arrang
roles
##mel
andy
stom
alliance
##iped
##issa
tickets
##ivan
bou
yield
##pers
jav
loan
##bal
owns
lap
##uable
taxpay
bart
departure
froz
ker
##hy
courtr
lincoln
ultr
courtroom
rud
wounds
leaked
##attered
losses
##rian
##cia
##ested
talent
gif
chen
hosted
syndrome
##icing
correspondent
##etr
##igation
alan
fires
appearing
selected
##berry
mohammed
mccarthy
pad
08
urg
hanging
landsc
diabetes
ronald
lowest
expenses
auto
soviet
pure
##ura
##thr
presidents
enormous
hem
raped
premium
robot
prol
##once
loans
preced
skull
advised
properties
stupid
dil
vowed
dakota
heritage
82
flynn
rapidly
##aying
exempt
northeast
##ihad
uc
##itis
##amental
permit
medal
compound
raid
por
##gle
##auer
83
stations
opens
katie
grabbed
clip
engagement
accord
##ixon
cooperation
classes
cambridge
existence
sacr
thorough
87
##thouse
aviation
bold
##armed
detected
passage
seemingly
##ja
##oca
abroad
demonstrations
kicked
1995
tie
acted
pose
sink
##rog
thumb
artists
extend
argent
bump
hash
challenging
commerce
studying
burns
hiding
##vens
urging
badly
##atherine
##icking
edit
maintained
bieber
twins
courage
boot
manip
explaining
promises
chaos
breaks
fatally
fu
##affe
wright
##roid
frequent
compromise
fault
##ima
turner
quotes
pizza
accel
hamas
ingred
alz
wells
fundamental
1980s
fishing
stamp
hugh
separated
quit
anthem
submitted
sustained
##ignment
stephan
absence
douglas
penins
packed
disturbing
##bul
detain
northwest
medicaid
operate
##hdad
nutrition
##igen
orient
holder
selection
reserv
runner
cosm
tsar
manage
phoen
kidnapping
##real
##iration
towns
primarily
rhetoric
deserve
sentencing
autopsy
billionaire
##angel
sweat
##che
jokes
mountains
enemy
##ials
##lical
string
##agr
directors
revers
pd
##aved
franch
##intend
explore
msnbc
joining
marg
solve
ranch
oxy
rounds
arrives
psychological
scotland
##endum
##ologies
southeast
couch
eag
ranging
cleared
rou
portland
alzheimer
deployed
indication
baghdad
hacking
vietnam
mph
imposed
##riers
producers
sadd
advocate
stomach
orle
addiction
cass
##estyle
ourselves
chat
congressman
portra
settled
##inction
assange
grandmother
counties
recognition
adams
privile
generated
academic
rooms
##gered
currency
hackers
underground
refugee
peninsula
forcing
##iques
improved
mitchell
exclud
pelosi
hispanic
##olas
craft
isolated
bipartisan
nerv
##unction
lindsay
khan
murray
ups
condemned
obtain
soccer
closest
bunch
##anny
orleans
cant
##omfort
tourn
indictment
gord
vit
computers
blocks
announcing
neutral
legitimate
##idal
##eli
nin
rio
##acked
painful
assaulted
patch
marry
94
manaf
elabor
##ami
archived
creek
##eb
affid
attacking
swing
##kyo
affidav
##anes
remarkable
soil
phoenix
bald
##pal
tokyo
throwing
profession
93
kany
##ipe
gamb
signature
immun
hearts
notor
defence
pronounced
humanitarian
bias
perce
delayed
defendants
##oola
pipeline
err
definition
##obi
disg
sket
examine
expanded
kath
touched
manafort
##50
russians
raises
##ports
88
investigator
protein
bizarre
fi
percept
horrible
taboola
engineer
pulling
referendum
protective
schw
discussing
astronom
resemb
interf
physically
persu
forensic
nest
expectations
proposals
fried
meg
teaching
dawn
pledged
genu
pound
whale
##ds
1993
accompanied
impl
similarly
flowers
amanda
addresses
attached
spotlight
autoplay
loving
shield
mainly
benj
jihad
##ria
##urt
donor
flowing
celebrities
98
##anor
warming
tribute
equivalent
careful
bug
endang
debut
##orse
riot
humor
voices
##aping
factory
okay
comedian
##rum
jar
statistics
awarded
resolve
reass
hospitalized
bench
authent
loves
rav
ridicul
##atar
mud
libyan
bernard
bub
##ache
goals
##naev
huffington
tsarnaev
81
unh
latin
rall
plain
immune
volc
lov
phenomen
zealand
##elli
brands
conducting
transferred
transg
##strong
fortune
##iano
magic
entrance
evacuated
viewing
192
crossing
accusing
##inely
##ira
uncle
borders
##erm
regulation
reducing
involves
indicates
kay
##ocking
hatch
lists
repair
flaw
harsh
06
fier
shed
##ushed
beneath
expansion
toil
##uez
defending
shoulder
coroner
misd
springs
rome
inbox
listening
nba
welf
polar
cruel
backl
removal
edwards
silent
sull
executed
cellphone
breathing
diamond
##alid
seoul
##apers
electoral
biblical
assigned
literature
si
statue
taught
journalism
naval
welfare
pace
##py
##uten
reck
##ettes
implications
massacre
##endous
morris
holland
eligible
##athers
##aki
##uctions
superior
##rick
prospect
##oker
radiation
frozen
##osaur
magnitude
lgb
benn
dy
chemicals
cognitive
##wich
##child
dialogue
featuring
signals
useful
zika
racism
guid
lohan
lgbt
espn
virtually
sheet
handled
130
kanye
dutch
baker
##oop
##force
crossed
respectively
drown
##eria
cler
##osexual
404
cong
adapt
intim
sixth
hydr
scenario
tu
inner
triggered
##pe
storage
victoria
sustain
ambulance
##udes
volunt
pakistani
deemed
serves
insurg
motive
horn
##oning
metro
judicial
administrative
vaccine
waited
charlotte
##oat
##bits
##keep
pas
teenage
dies
##sters
hopeful
nash
underw
valuable
aaron
fuck
registration
caps
twenty
sole
argues
lion
recre
trailer
brew
infections
transgender
##ahn
emotions
brutal
recru
meters
vocal
cheese
propag
knox
nonpro
hamilton
beyonce
dor
tac
##alo
##encer
tropical
upr
integrity
pere
##mun
moder
##utical
parade
ordinary
fossil
arctic
1990
feared
##ahah
beliefs
chip
tourist
bm
alerts
param
seed
cheap
ancest
duke
torture
##giving
cole
recommendations
oxygen
eve
##ibilities
assume
desc
statist
russell
curt
ast
theme
squad
championship
ott
supervis
nervous
##oga
excav
benjamin
##ules
opio
carrier
promoting
tri
##ieve
keith
ignored
1992
persist
jurors
naz
prescription
witnessed
merely
swedish
##umes
reserved
lethal
replacement
femin
imprison
##rene
maker
knight
wrest
agriculture
##iary
nap
employed
alleges
migrants
robin
madison
affidavit
diver
documented
franklin
irish
situations
1970s
label
beating
stroke
server
hip
oversight
##fc
##erald
philip
expecting
dancing
beloved
excell
producing
confidential
swimming
elderly
##ione
attract
krem
unders
provisions
camps
tunnel
sterling
##olitan
##ello
stressed
analyses
welc
episodes
archit
lawsuits
crowds
farmers
rivals
jeremy
fence
kl
##ooth
skelet
artific
##vers
vari
proven
contributions
murders
07
firms
nik
suspicion
disclosure
inmate
##omo
whis
overl
armstrong
clashes
##oto
##lee
mosque
explosive
##bow
##aca
suv
##17
tired
##bar
reop
##storm
merkel
enable
colleague
##anded
leak
humanity
liver
verify
2020
##othy
##western
tries
requiring
disclosed
emissions
parole
donated
cannab
##vere
donating
insult
89
ug
ps
button
flags
posed
tai
pressed
##hart
stevens
foster
##enz
##iani
volunteer
covers
multi
demonstrated
buzzfeed
sinc
partly
copies
tub
##identified
reject
conver
examples
commonly
hitler
staffers
sail
rodriguez
myth
principles
##bour
meal
mosqu
##holders
bund
underc
investigative
letting
dated
lift
justices
##urred
emerging
structures
##inge
alarm
catast
phrase
syd
examination
treating
competitive
sr
##ded
##inity
##acking
groc
safely
lifestyle
hire
##illo
aspects
##addafi
desperate
metrop
consideration
uncovered
202
formally
appreciate
redd
dign
campbell
rachel
##lessly
breakfast
riding
coastal
barry
pollution
##itated
##amo
afterward
nobel
mandate
warnings
cm
murdoch
intellect
notion
deport
elite
solo
remembered
examiner
eager
streaming
92
notified
nominated
compete
assumed
sponsored
wet
expects
courthouse
irs
identification
automatic
vert
2019
lun
sie
testify
##aving
aired
gunfire
openly
weiner
politician
timeline
adjust
dolph
hed
ku
##usive
noise
au
laura
pictured
screens
##gage
supporter
exha
burden
##worth
licens
vermont
fixed
##hl
serial
mainstream
mm
pitt
brid
91
nu
debates
earnings
default
pants
unt
montana
##list
temporarily
bankruptcy
depending
poster
mode
entitled
tons
##sea
inclus
removing
exclusively
businessman
##eva
troubled
devastated
gains
deleted
delta
exciting
rex
usat
memories
enterpr
overturn
dot
##chi
aggr
constantly
addressing
bashar
ist
invent
contribute
distributed
equality
periods
empire
gian
hiring
mug
sullivan
97
cream
spic
etc
races
ult
recalls
pledge
##ortions
storms
##iciary
ferry
beef
interrog
developments
ultimate
bless
judiciary
karen
##uration
garcia
connections
pitts
demonstrate
princess
winners
pear
trash
##40
heb
##bean
processing
hostage
treatments
fiance
##iller
managing
carries
##iah
promising
annotations
chocol
titled
##ctional
visa
medication
julian
franchise
tent
anne
releasing
handgun
males
cousin
ware
##icate
militant
dropping
citizenship
##rae
embry
pastor
denies
##ycle
iconic
fing
inev
quote
restore
1991
heroin
##omy
uncons
lag
oppose
burst
generations
stabbed
bottles
enjoyed
sydney
poly
fee
coinc
horror
##feld
isa
conven
manufacturing
outcomes
kremlin
dyl
samp
sperm
focusing
##inez
conclusions
ghost
abused
opinions
##esville
alg
arriving
##eting
inters
hardly
mistakes
##terest
unac
fulf
bitter
##nell
theor
carib
techniques
disagre
ridiculous
chel
versus
arena
bapt
##onia
schm
pilots
jeb
##ylum
guarantee
oral
certific
hopefully
cats
dose
stal
billions
reforms
hypothes
stall
prescrib
autonom
minds
venezuela
unaccept
embargo
inspector
##awa
identifying
islamist
premiere
horrific
disclose
tale
preval
##ateral
opponent
butter
constitu
diplomats
##ji
sue
erd
##ullah
equally
accomplish
cum
reilly
machines
theories
trends
##umph
christians
chef
giul
##walk
saint
brains
##don
##post
headline
gordon
dang
horm
noon
obes
solutions
freez
transplant
dal
brady
stance
unidentified
spencer
outdo
contrad
providers
obser
boxes
catal
asylum
irre
##print
wallace
thanksgiving
deeper
##dale
##auk
##thur
ri
##jection
helm
antibiot
encouraging
aster
##asy
celebration
##apes
progressive
ib
kidney
slammed
butt
operated
##uther
190
scheme
glenn
challenged
##hand
##uating
##ocation
millenn
wrapped
correl
movements
immigrant
##ught
epidemic
##gate
##asty
flooded
obesity
disorders
acknowledge
len
##bie
newt
eman
flames
gunshot
exchang
affiliate
dian
kus
regulators
experiments
evacuation
colbert
fundraising
util
##mons
fract
confusion
corporation
nico
manchester
legislature
endorsement
anchor
nonprofit
dens
sheen
disch
excessive
rip
slate
juven
tournament
phenomenon
dennis
climbing
intake
##teen
regulatory
900
lifted
graphic
bot
##anka
martinez
alph
alien
celebrated
abdul
daniels
perfectly
20th
concerning
condemn
##obe
brill
##rians
publishing
gaw
vary
employers
##iece
ecl
tremendous
##lick
belt
teenagers
luxury
liv
topics
neil
loose
cigarettes
##aternity
unacceptable
##ml
revol
associates
antar
invasion
dent
approve
savings
tampa
##ck
##acon
grief
attackers
archaeologists
authentic
padd
unrel
criminals
reactions
trips
formation
monthly
palestinians
bp
ric
##aho
displayed
newsletters
96
transported
holoca
jackie
holocaust
privately
nether
android
behaviour
competing
loaded
shan
trucks
romantic
reviewing
cinem
sab
slide
appointment
spac
juris
landscape
backlash
lem
oz
molec
jeffrey
mack
charging
climb
analyzed
lindsey
orbit
seeks
gabri
mini
pinterest
parked
##ieved
terry
berry
demonstration
pir
##ighth
wayback
subway
frequency
dubbed
tactics
burger
panic
explosives
sentences
motivated
fool
flex
preserve
classroom
##ommod
##tag
modest
juan
yards
##ruit
##hum
aggrav
dirty
electricity
spots
incomp
condol
##etically
refusing
obsc
parenthood
tumb
bry
popularity
engineers
confronted
tooth
grim
taiwan
ownership
lip
accommod
tourism
hint
toss
singing
admit
hyper
lengthy
stocks
gonz
##fish
knocked
tyler
bog
##yard
##itious
municip
ranked
contributing
technologies
mysterious
guidance
##pton
muscle
interpretation
lynch
chocolate
hij
thail
##oyd
1989
##oping
occasional
donate
discour
partisan
gw
shaped
offense
gram
hosts
thailand
stern
root
pocket
congrat
nerve
burgl
##icon
shake
philippines
pride
angela
cannabis
cem
##orous
appropri
##rett
mirror
airpl
poland
damaging
sufficient
collective
kle
exists
recount
peters
##ken
passw
boeing
calculated
bachmann
##abe
presentation
mg
sams
stanford
gentle
##ecraft
netherlands
##organ
gofund
siblings
salary
barn
misdeme
##anz
clay
securities
##ternal
sketch
boom
maps
##uded
whenever
semi
acquired
distress
architect
##ucci
underlying
bread
125
alexa
barg
hav
tang
leban
retal
searches
mosul
sophistic
fever
longest
indicating
jefferson
affecting
reliable
shipping
robinson
pittsburgh
upgr
disabled
endangered
refr
ranks
bullets
huck
##30
##front
picking
checking
gofundme
wages
epic
occasionally
artificial
caribbean
##orate
outstanding
barrel
diverse
ank
reiter
uncomfort
pediat
workplace
profits
ashley
sacram
jaw
##burn
colomb
starring
labour
brig
keys
##opard
navig
carn
credible
naturally
helicopters
enlarge
profound
absolute
rogers
acid
queens
##star
bru
elaborate
##lie
stir
underwater
puzz
##etics
evans
##oulos
##agen
suprem
experimental
consistently
smooth
anna
dominated
physician
rend
rib
obst
ht
pale
sid
##agraph
portrait
mason
fleeing
##icting
praise
brun
grandfather
##ento
peterson
indonesia
sounded
extension
##weight
cheer
pedest
hors
##rist
interference
superintend
accountable
cuban
subsequently
relax
programme
euro
##yder
vin
##week
educational
bleeding
hearings
##hafi
##yon
scope
respected
junior
summary
airstrikes
nicole
##held
smugg
unfold
intercept
impressive
jurisd
dreams
##enna
prisoner
impression
districts
brows
differently
youngest
celebrating
accidentally
uncertainty
metropolitan
momentum
stages
##ader
lasted
bitco
holes
endorsed
##cott
stopping
responders
preventing
albert
##struction
dup
##onic
actively
rapper
comic
frustrated
cox
wayne
vessels
ratio
postp
submit
administer
employer
rescu
smartphone
prompting
survivor
##abee
##ipts
ideal
welcomed
##mans
aging
proportion
rolled
qatar
suspension
neighborhoods
##osc
stops
negotiate
##instein
arn
doug
rated
amn
lesb
##omin
launching
recruit
drought
chelsea
roots
donation
lon
plun
##rane
##izer
oprah
interstate
kab
##assion
organic
versions
organizers
frustration
cov
##lev
reluct
tweeting
determination
exception
perez
samsung
##artz
##bart
monument
ci
##ikh
brotherhood
spreading
beverly
wol
newtown
processes
##iac
trace
meets
##onda
stein
pleased
besides
chan
revealing
amendments
seasons
cree
geographic
verizon
hannah
##itar
gren
kurdish
toilet
coh
chanc
brist
briefed
suburban
watson
johnny
facial
painted
alexand
advocacy
galax
stunning
##16
kidnapped
tong
reed
beth
centuries
concentration
suing
kushner
nam
patt
strongest
trafficking
jolie
gawker
##ouring
harper
significance
astrona
agrees
delivering
duties
crow
##oko
impair
##370
surfaced
weighed
abbott
perceived
huckabee
superintendent
##chez
strategist
hend
##criptions
quietly
anticipated
cinc
distingu
consultant
dj
rit
##omic
median
appearances
friendship
suburb
##esth
scary
quake
refuse
mandatory
tanks
##eastern
leaning
specialist
marshall
hazard
nyp
stored
consumed
instructions
condolences
##irm
##ups
mck
wishes
propaganda
##net
shi
##opoulos
pete
##lamm
scramb
giuliani
1980
burr
dug
adequ
infam
180
absor
##opes
resume
140
awful
expanding
asteroid
engaging
mathem
shadow
hoff
proph
grey
castle
impose
filmed
firearm
beaten
gaga
kenya
dramatically
bent
comply
monkey
straw
convince
sanchez
designer
surveys
motorc
stability
ammun
medium
archives
moh
communicate
stole
qualified
gadhafi
duck
halt
blunt
ease
honey
cargo
delaware
possess
stunned
##respons
ate
meals
unconscious
secrets
##ultz
ministers
allegation
dylan
##fr
protections
mors
prevented
confrontation
ammunition
##15
contrary
uncomfortable
ont
participation
declaration
specim
heaven
incorrect
oun
##oa
##14
##play
swept
##iture
reh
filming
females
categories
conway
partially
transit
sharks
repeat
premier
bradley
##keley
confused
departments
creates
##elihood
improving
pupp
clues
bike
interim
contacts
cape
conventional
##isive
parad
speeches
flown
##lett
##avery
jared
##aro
unions
passes
devoted
breit
berkeley
##lects
nowhere
wanting
editors
attracted
fern
operator
poses
1988
mh370
erupted
##stage
reverse
occupy
intellectual
dispar
convictions
occurs
technique
cincinn
##shots
burial
lapt
##km
lesson
confirms
borr
plaintiffs
##bound
segment
publicity
hbo
thresh
eliminate
mild
##itivity
orch
functional
##inel
##aya
stimul
bennett
ml
inequ
accum
bio
bee
safer
publ
homosexual
credits
predecess
chancell
transcript
administrator
wsj
nypd
jets
clown
midter
physicians
instant
walter
stealing
nickn
hind
##itr
overcome
accepting
deceased
spacecraft
##13
incent
violating
observers
cincinnati
sty
##iang
advisory
##asm
amber
designated
##yrus
corrections
3d
sympath
metab
advances
requirement
athlete
lobb
sacramento
idaho
affects
tracked
fluid
aur
blaze
norway
wider
switzer
managers
pard
facilit
installed
reel
seiz
lottery
container
breitbart
patriots
replic
excuse
##hran
incorpor
pomp
##fol
principle
cemet
kyle
reyn
##ailed
collecting
participating
scratch
kirk
cemetery
cod
stranger
professionals
##the
cher
singap
embrace
cyn
110
criteria
emerge
terminal
yan
zh
##gom
abund
tsun
aggravated
cbc
undert
separately
philosophy
contempor
avo
residential
expressing
troop
newspapers
thumbn
##ran
remem
spicer
minne
investments
reflects
climbed
occasions
##laimed
hr
##raham
115
attributed
furn
infants
1986
organs
hans
corr
tradem
customs
singapore
##etary
assassination
dow
##eo
##aires
confed
crimea
virtual
excellent
garage
sudan
intimid
tehran
bened
brett
melissa
##err
convey
recession
undated
barrier
brilliant
##etz
bite
overha
inflamm
protocol
sne
benefic
enemies
##osaurs
rescuers
gaddafi
nights
julie
sob
##cel
inflic
hunger
inauguration
##mare
##vi
margar
osc
oliver
unfortunate
nixon
exploded
suggestion
memoir
battles
mp
##asse
disgr
160
##ported
bloody
notably
neglig
attacker
oxford
elephants
bun
##inter
##acent
newborn
tomb
achieved
rah
##onna
impacts
explosions
##vereign
tension
##itudes
sovereign
phillips
micro
frankly
laughing
surprisingly
eb
underway
autism
##ascular
toys
stones
menu
mcg
leaks
disagree
attitude
##estr
paragraph
improvement
evaluation
##uan
awk
columbus
##guard
minneapolis
gors
mash
##cs
brow
reminder
deserves
extrad
montgom
tattoo
reddit
##ecca
urls
floating
mechanism
belgium
liz
consensus
##ranean
montgomery
industries
admits
unnamed
##sky
traumatic
nursing
intentionally
unveiled
##frey
##ede
knee
merch
coins
alexis
exchanges
rats
##18
whist
jewel
vel
ruth
##icides
contracts
missions
harbor
deadl
candy
garb
utter
ignore
mansion
##aukee
sophisticated
chancellor
##yt
boun
chart
rebuild
credibility
crystal
nod
##aceutical
##asses
insists
biology
vest
##ulu
omar
##vy
evan
figured
seventh
spill
thanked
shower
universities
tripoli
misdemeanor
lod
entrep
gibson
hes
koch
##ication
nightmare
##uccess
awkward
severely
lump
aims
veto
cot
compare
irr
defect
unsuccess
conflicts
griffin
bust
billy
wondering
parall
thirds
##waukee
glac
switzerland
entreprene
fraternity
transmission
juice
hashtag
##iors
##enh
##osy
incumb
backp
##breaking
lone
nj
##rov
##gie
grat
renewed
expedition
evangel
invalid
hosting
surely
basement
gmt
revelations
yale
sanct
bombings
hacked
adoles
1960s
venture
defeated
##ioc
milwaukee
difficulty
anthrop
powell
cigarette
ritual
mog
neighboring
fiction
calories
recordings
manus
scored
treaty
equity
recovering
brandon
dimin
perception
opioid
thumbnails
bil
components
drones
avoided
schultz
kiev
mull
makers
##bin
transparency
reynolds
gorsuch
##dog
insight
governors
##tenance
florence
generate
stumb
doi
interrupt
contents
intrig
gifts
counting
absent
350
harmful
pand
##ili
lawmaker
poet
tablet
hunts
reflected
mum
##xit
##itic
whereas
contractor
telesc
poisoning
optimistic
grocery
rear
pean
cooking
offsh
stark
influential
swiss
charleston
retailers
steady
skeptical
##ensions
boats
##roper
corporations
ingredients
fold
triple
reception
ballistic
touching
aids
cafe
laughter
1984
oversee
charlottesville
juvenile
marines
##ultane
simultane
sandwich
furious
kimmel
participated
blocking
spectrum
##club
ais
vand
warri
instances
solic
powered
##oni
##anim
forbes
aven
joked
##kamp
interaction
sunni
certificate
catherine
##19
inacc
marie
automatically
presumably
vp
stating
bran
clicking
understands
preferred
##isely
grants
twist
lightning
municipal
amnesty
bros
##avez
lied
circles
economics
characteristics
evolved
negotiating
mentally
fare
asc
spider
agreements
powder
meaningful
occasion
chavez
improper
mineral
submar
surviving
##case
urine
21st
logo
aspect
complications
unnecess
dignity
candidacy
##online
##umin
intend
everyday
ivanka
hollande
estr
##mph
##anth
neglect
jenner
preparation
##through
##trump
practical
prohibited
dire
kit
mt
patent
banking
pharmaceutical
##rophic
sew
lever
sentinel
preca
ft
compliance
jailed
cleaning
##children
fingers
steep
membership
casualties
cad
##zman
explor
petrae
buyers
limb
graduated
dirt
sque
partial
detection
approaches
microb
gregory
bishop
loot
##entions
acute
pickup
petraeus
lyr
woke
drum
presents
palmer
hudson
sorts
##ipse
nightclub
ahmed
tunis
sections
pills
##eters
##agu
upload
##ouses
timothy
considers
booked
fortun
emanuel
##idi
acres
carlos
intoxic
urge
equipped
reckless
fitz
sul
sized
upst
undersc
seas
mediter
snip
threshold
cyp
evident
robust
strategies
enterprise
mere
shah
unch
permitted
isolation
fug
silicon
intensive
##ptive
relation
contrace
reader
separation
nominees
overhaul
stere
carpet
emily
helpful
snyder
choosing
wondered
porter
rage
comparing
maintenance
accessible
miracle
jake
##auth
19th
lieuten
cuomo
fright
resolved
##gregation
sier
##ige
examining
indicted
rocky
diana
nra
brexit
jumping
introduce
penalties
##cts
unity
permits
revelation
tsunami
nun
distribut
pursuing
revenge
##itively
yorker
indianapolis
blew
innovation
publisher
cel
incoming
monster
stranded
depr
nationally
reef
destination
correction
spiritual
##stitution
salmon
sha
##udeau
##enson
breakthrough
##roc
##eded
##una
connor
misle
psychiatric
bitcoin
sang
##uting
confessed
slides
creator
hughes
wag
airports
behavioral
mistaken
fabric
enthusias
mediterranean
dumb
wals
##fare
stunt
##aven
earliest
doubts
heights
canyon
parish
bother
carc
##iley
strain
closure
ballots
bos
ze
travelers
lucas
wisdom
clerk
consulate
spaces
shaking
nepal
quarterback
dietary
infamous
eighth
##vo
infer
compelling
##ontin
sequence
benedict
##asia
tray
standoff
lessons
accidents
secured
rockets
wreckage
gaz
xi
##jud
##aches
annually
independently
casino
observations
archaeological
rallies
brave
identical
emotion
steal
christine
monica
happiness
artif
channels
genuine
##60
trudeau
gunmen
sweeping
prie
precisely
fleet
bobby
nazis
eclipse
##otype
notable
victor
##zai
##abad
lasting
guitar
defensive
bullying
objective
exhibit
erect
nass
pione
##iciency
forgotten
##ser
betr
define
critically
cubs
heather
##estone
secondary
threaten
glasses
mammals
uprising
priebus
##rator
handc
1979
mask
arthur
##astics
relating
accountability
richmond
favour
tenure
unconstitution
baptist
##68
crop
noah
delight
##otta
approaching
revised
resource
outrageous
manufacturers
bind
arsen
dealt
functions
restricted
experiencing
rings
##enter
counted
retreat
neverth
township
electrical
projected
broadway
categor
nevertheless
mick
##iker
##aching
vanished
belonged
deliberately
evol
filib
seth
drives
throat
cancel
melania
narc
elephant
overdose
jab
##dling
##tains
knock
paramed
governing
federation
aerial
hoax
##zi
bergd
nebr
orth
homet
territor
extinction
disputed
battling
errors
cens
##aria
##ando
psychology
layer
synth
lauren
bare
lect
compassion
##eryl
wrongdo
acceptable
unlaw
stanley
detainees
hometown
crude
expense
##lington
wales
greatly
importantly
treasure
dangers
##fers
provoc
enforce
matched
duration
trusted
supposedly
nurses
inequality
smiling
spray
##hydr
##icism
spo
honestly
##owitz
deciding
noneth
consulting
mi
##lock
##mod
studios
mining
banning
nonetheless
aunt
cs
interactions
contribution
executions
1985
absurd
notorious
thirty
seaw
resur
disresp
denmark
##osystem
jill
##acles
moreover
chambers
morsi
plaza
supportive
##appy
winfrey
theresa
blake
pole
mansl
pyr
##ener
##umber
hostile
theatre
stephanie
caller
consol
subscribing
handcuff
nebraska
garner
priorities
manslaughter
cake
assured
commentary
inflation
ugly
dys
blown
##icked
10th
taxpayers
kin
##ref
sic
farms
crackdown
ski
##prints
photographed
walsh
mes
##okers
##asted
maintaining
snake
favorable
evacuate
erdogan
dement
external
violate
##grad
rans
paras
mul
##mm
##reen
##iaz
casey
manhunt
gosp
kris
##akh
jacket
goss
##bish
lawn
rises
developers
portray
sierra
arranged
refers
popul
awes
honored
adjusted
shy
quarters
##ockey
luke
discount
haley
jeopard
purchases
introduction
gam
prisons
audiences
wooden
fights
lions
whoever
weekday
inspiration
brooks
scholarship
eagle
wend
##xx
arbit
cure
##arming
depends
collections
ja
scalia
blas
##ennan
dispos
alerted
jesse
tolerance
tsa
deer
mortgage
daw
morm
unaware
enrich
dinosaurs
caffe
heels
gran
solely
acceler
nashville
ian
oc
##hop
bomber
historically
bearing
deterior
crowded
divorced
supervisor
##eries
stakes
communist
casting
sharply
harrison
##oos
##zh
limitations
iceland
scout
oval
observatory
bronze
protester
declaring
dnc
tuc
undermine
investor
##lon
homeown
licenses
##rie
isil
sham
releases
denying
processed
households
bases
##ture
manif
appla
warehouse
gps
##xy
shin
spark
grid
incons
likelihood
bulk
unanim
portug
textual
behaviors
cnbc
##opic
orb
marvel
simmons
respondents
ethical
occupied
als
mann
##achment
broadc
curious
##von
planets
dependent
whites
transactions
performances
additionally
primaries
melt
dragged
discipline
mounted
vegetables
bergdahl
fitness
##far
##oped
mario
undergo
printed
tackle
ditch
nude
##uces
locals
yelling
##isk
chop
divide
applies
pepper
alf
flip
khash
pornography
##col
##atoes
hein
1981
lined
wise
##24
liberals
evaluate
litigation
kenneth
##kov
##onies
defer
##acting
statute
measles
wrongdoing
bour
##oons
##pit
##enko
##ascript
abn
##oggi
ethan
meantime
paddock
##amine
prosper
alleging
1987
admission
creatures
jamie
encountered
makeup
giants
unconstitutional
shorter
placing
subpo
poorly
ecosystem
sergeant
javascript
rational
##losed
##iology
joan
linda
withdrawal
wow
##long
##usky
aclu
tribe
routinely
caucuses
baldwin
prevalence
nathan
thunder
comet
abrupt
posing
##orated
emailed
telec
kristen
rever
pc
roth
##orable
##uro
signatures
stepping
hostages
shouted
dash
lakes
##sl
diplomat
accuracy
shifted
oscars
khashoggi
abortions
plag
associations
sentiment
observer
cp
foul
declare
tablets
gast
heated
##ocum
sandra
sensitivity
occurring
emphasized
intensity
fals
ios
witch
##arity
capabilities
morph
invitation
derived
belonging
urgent
##etical
component
##ensen
##ahi
##roe
sometime
considerable
parliamentary
##enberg
##aka
educated
weakness
privilege
contemporary
receives
##adesh
digest
struggles
adoption
statistical
catastrophic
autonomous
pets
joshua
bic
info
blacks
contractors
brazilian
faculty
landmark
purple
##written
nyc
##van
shirts
habits
assessed
playboy
ot
passport
buffalo
gravity
lyrics
##ean
##vis
reset
prey
induced
valent
airplane
##imb
##opol
worn
incar
founding
##alez
campaigning
hardware
abnorm
graves
physics
habitat
awaiting
margaret
cents
mails
##eu
altered
inspection
lieutenant
ore
clo
brag
labeled
embarrassing
heroes
bailout
##leep
offs
decent
famously
technically
ellen
rut
vom
surgeon
##uder
emma
conclude
competitors
instructed
highlighted
##author
##rics
commented
horses
##59
##mers
corrupt
toddler
malaysian
mend
formula
promoted
chemistry
mohamed
##tress
attractive
tumor
census
ig
##ads
raf
sponsors
enhance
garbage
##oline
simpl
dealers
angle
##quez
extremist
export
caring
innocence
agricultural
##aults
##elly
sting
declining
speakers
precious
premature
scholar
##bourne
quinn
substances
promotion
orientation
##dam
attendance
oliv
warns
lebanon
accounting
fantasy
fierce
awesome
arra
digging
evolutionary
galaxy
tennis
##uto
##etti
antiqu
influenced
theaters
bristol
tyr
##lr
slaughter
delays
clem
mant
tib
##watch
troubling
accomplished
offshore
organisation
fundraiser
andrea
saddened
disgusting
tube
##pin
##omon
everest
earning
mills
reminded
dana
ling
##ws
##ista
medications
therap
fueled
neph
##antan
osama
tribal
implemented
affiliated
hebrew
chant
##ieving
colors
189
##beat
##ses
retaliation
aurora
##pec
thread
unse
geneva
##ologically
columnist
tasks
lets
barred
oceans
willingness
mandela
gir
haiti
offenders
brien
assisted
dinosaur
##azeera
unarmed
peer
dut
##irs
disl
sworn
voiced
caut
pipe
scroll
resistant
aol
##ifice
shep
colin
committees
encry
successor
reald
obligation
ripped
sends
##pat
20s
##iox
swat
distant
analyt
jazeera
##iya
tract
##arded
selfie
istan
supremac
nc
rup
sf
##lined
##22
asleep
##uma
immin
deton
credited
##ares
exploring
rebecca
cardinal
bernardino
lynn
unrelated
unnecessary
duch
suits
carney
##otherapy
array
penis
doubled
musician
budd
recommendation
##erie
blond
##arged
pressing
1983
istanbul
hicks
tut
secretly
logan
measurements
realdonald
##endar
gras
carp
extremists
troubles
grande
confederate
##lif
##eton
ensuring
shouting
gonzalez
bend
##vas
##abil
aggressively
volcano
outdoor
lenn
##aqu
disability
##ugs
churches
cookies
fragments
realdonaldtrump
vic
##eff
interc
modified
packages
decrease
##gue
##urity
bra
acquis
jenkins
inaccur
escorted
solidarity
aus
pont
boycott
colombia
##rus
##wall
##itary
insert
barnes
keen
pays
countless
literary
revolutionary
nigeria
pix
##ancies
bangl
##ospher
hotels
restrict
trademark
dorm
ridge
##leen
operational
infectious
levin
accidental
existed
determining
weighing
rampage
nons
##mouth
guantan
charter
inject
##ovascular
acceptance
wyoming
freeze
hopkins
ambitious
liu
tables
dementia
##000
gesture
explicitly
giff
jung
worries
drilling
##ratic
##olester
tabl
remembers
guantanamo
##80
topp
allerg
##eps
slipped
particles
purported
rivera
monitored
elevated
washed
adventure
fails
ni
hass
developer
liberties
trooper
ordeal
peru
justify
##itty
generous
vanity
paraly
##retion
characterized
strengthen
mourning
##itute
cried
talented
transaction
sacred
cartoon
##hist
spell
##weg
pursuit
contaminated
brennan
demographic
representation
greenhouse
thai
ears
rubble
bonds
provider
taxi
earnest
cyrus
hipp
##li
##dp
assuming
tense
##mal
statewide
denial
chiefs
##iosity
athletic
shrink
isaac
cz
mock
##rod
potter
concentrations
portrayed
mouse
##drop
sealed
polish
cooperate
arnold
tabloid
##yers
bryan
donnell
indef
maintains
praying
bailey
##arez
laying
whistle
rented
tune
##adi
ecu
coordin
framework
sank
zach
##tz
carey
nominations
crypt
wireless
imperial
antibiotics
##reach
##terror
dealer
aisle
kc
##anium
##usc
guilt
staffer
avoiding
clouds
incumbent
fathers
warr
efficient
matching
collaboration
underwent
vanc
##anmar
subd
cf
imagery
##auc
myanmar
##ipedia
jurisdiction
turnout
1976
bak
tide
exploration
programming
maternal
stabbing
strangers
prescribed
gore
##ouver
operates
euros
bombers
muham
counseling
mutual
##hire
##linary
complaining
crashes
racing
worthy
duncan
shifts
belgian
trains
herman
##ante
##quer
##parts
venue
giz
shit
##aman
enhanced
gro
imaging
##borne
satisfied
supplementary
inevitable
algor
inconsist
replacing
earthquakes
freezing
disrespect
rash
scul
slavery
platforms
accordance
kabul
algorith
von
anat
meter
specifics
counterterror
reiterated
brick
reson
mainland
argentina
britt
intimate
cannon
opposing
simultaneously
##idt
##otes
outlet
respir
destroying
legendary
joel
barric
##lete
injection
prospects
achievement
voy
mead
viruses
sandusky
marriages
samuel
##writer
natal
filibuster
pi
rih
romance
eyew
observation
freshman
dominant
hypothesis
browser
laptop
rs
##no
seals
operators
steph
costa
abandon
fantastic
lunar
lesbian
hoffman
##isp
prest
intact
verified
##backs
richardson
licensed
chains
##ogether
colored
fallon
migration
dynamic
deck
travis
historian
broadcasting
transparent
##bab
verbal
wikipedia
##believ
sacrifice
resid
metres
ern
breakdown
retailer
patriot
enthusi
underne
kelley
underneath
bould
sach
##ippers
madonna
occupation
beside
nationals
typh
subsidies
dental
fior
refund
wang
healing
advers
julia
pistol
bans
hs
##low
##mat
##acies
backs
difficulties
watts
##chat
genius
locate
decreased
voluntary
##iki
valued
regarded
prolong
flick
thrilled
colleges
sampling
imminent
vancouver
##zo
reign
shk
identities
macron
hungry
deportation
ontario
##earing
appall
recyc
undermin
risky
darkness
rihanna
cage
piv
offender
apoc
excer
##reli
nicholas
precedent
dolphins
##len
coin
mercury
fascinating
breathe
##val
shook
##occ
impe
guzman
fines
kend
##aters
spike
plaintiff
danc
gly
hilton
ana
##erte
pleasure
fertility
arbitr
##dled
energ
peers
endorse
volat
dunham
intersection
##acular
mccl
undocum
1969
sponsor
overturned
undocumented
vend
hef
traditionally
luther
rug
##qq
1982
##ophob
ought
zones
##fires
continent
irma
reaches
variation
hatred
telescope
jama
goodby
suggestions
echoed
hike
##loe
killers
rifles
compromised
furthermore
shakes
bride
norweg
reconcil
impressed
gymn
kings
moss
##lements
phd
flies
flesh
clubs
##aul
formerly
trek
tougher
akin
asset
subjected
surrog
delegation
expose
appealed
gust
##function
participant
counterparts
blogger
mechanisms
composition
##alt
##ooked
subsection
athens
cv
commem
misleading
curb
hallow
dair
##kes
refusal
penetr
controlling
prostitution
undercover
unbeliev
fireworks
utility
holidays
eg
##uity
hammer
fifty
mtv
monarch
economist
livescience
dumped
caffeine
hick
##erb
##olo
banner
laughed
enjoying
pediatric
unlawful
kurt
lamb
##uitt
##odox
croc
quad
permanently
paintings
diane
mim
yelled
##gments
chin
unle
origins
curiosity
altogether
bachel
reproductive
density
junk
##25
emir
grandchildren
vincent
staged
balls
settings
locker
##igenous
dive
appreh
assaults
elevator
shkreli
kg
sd
wi
bland
ladies
mobil
aspir
midterm
jin
##emia
infring
delegate
warrants
sof
carriers
consecut
breed
disturb
lava
arrangements
joking
pp
risen
mornings
latino
wildstein
abdullah
picks
substantially
tongue
believing
challenger
gospel
##elt
fertil
persistent
sara
cancers
carrie
atmospher
cardiovascular
barriers
disputes
franken
dubai
##boro
toyota
artifacts
blaming
defam
chairs
alice
coron
steen
html
##bag
fry
indigenous
entities
filling
corey
hp
laz
##itement
abuses
##abouts
intends
##aux
calendar
170
sells
impacted
improvements
tariffs
ko
##bank
##edral
shops
insiders
triumph
northwestern
overwhelmed
shifting
bryant
interactive
indo
##rin
qualify
evangelical
feud
102
displaced
hayes
ninth
counterterrorism
##ateur
servers
greeted
committing
titles
exercises
francois
lobbying
deadliest
pension
ral
tul
##iments
##udge
noaa
feinstein
listing
minorities
ct
heal
pulse
correctly
surveyed
karl
hello
sizes
vik
##xon
leaf
mcl
clarify
submarine
halloween
hilar
##gio
##eta
abed
abstr
claire
##berger
genome
michele
hamm
appealing
chile
seated
plug
##ibutes
invested
janet
curry
predecessor
reelection
dairy
bureauc
blasted
consciousness
hod
alike
abraham
answering
harvest
poured
squeez
hos
##stock
##urer
prank
preserv
excluded
bridges
cites
kam
arc
relied
widow
muscles
burglary
retwe
threatens
protesting
criticizing
melan
ordin
passionate
megan
assaulting
digit
matches
astros
dissent
altitude
##itate
enqu
supermark
##mingham
feedback
neuros
ferr
fict
reacted
issuing
haram
steam
insurers
unusually
cattle
sheer
martha
swall
certified
collision
abducted
cathedral
ailes
wings
##aba
sooner
magazines
lamar
skeleton
offended
doe
cooperating
essay
electronics
embraced
trayvon
vib
sculpt
scal
priests
cork
gaining
attends
slim
patric
laser
deployment
paramedics
mig
stap
##cripts
delhi
moms
concealed
giffords
fcc
##fect
defender
delivers
watches
laughs
manufacturer
muhammad
respiratory
fiorina
nag
##ux
shaw
raj
koreans
1970
colonel
pam
brush
drops
probable
slave
birmingham
href
hockey
ousted
troll
consecutive
pile
##acious
whereabouts
scottish
##space
pdf
bachelor
##eh
chal
respects
hardest
photography
itunes
transmitted
sympathy
bass
overr
barcel
restored
boulev
resum
raids
easter
intentions
siege
1st
monetary
chrom
rhy
abbas
lanes
loyalty
mogul
eyewitness
nasty
##uates
reply
centered
ahmad
routes
sadly
1950s
danny
olds
101
rhode
shelters
captive
geological
eaten
pyram
##olics
##essa
spears
teammates
##ipper
1978
baton
manifest
##aser
fraction
neal
illnesses
ave
##ais
inhab
sanford
midst
prosecuted
separat
undisc
pt
haul
discretion
elon
testament
salman
1975
punished
raz
##rad
unst
sharon
mounting
bystand
strat
adverse
restoration
leonard
taxpayer
sanctuary
dv
lac
slept
wives
abr
concuss
cheaper
stabil
ace
adap
ordering
shareholders
consolid
lauer
libert
foley
barcelona
cec
hailed
##auss
invite
retain
boring
predomin
structural
tier
##ocated
convinc
belongs
sticking
fargo
##irer
atomic
unint
scattered
guine
##inski
##erving
onset
mayer
insects
hurting
expertise
norwegian
##oured
clause
relent
##strom
jeans
eyed
hunters
##ophys
shoppers
surgical
qaida
whitney
insurgents
inclusion
##wick
rect
bez
abe
##ogs
teresa
edt
towers
empower
##olesterol
oath
lex
radaronline
punched
interrogation
steenkamp
thorn
appet
recreational
curtis
tiff
shotgun
panama
boulevard
pine
pond
offenses
commons
listened
administrators
socialist
correctional
languages
nutri
reinfor
backpack
bunk
inp
##omez
compounds
televised
instrument
##borough
##ema
abusive
placement
##ogy
##urring
directions
christina
produces
damn
intervene
masc
wand
##nered
##zer
##izable
cared
edited
focuses
##otypes
##keeper
goodbye
##atal
##ecurity
cares
newsweek
borrow
proceeds
aggression
nad
##35
fruits
nationalist
fallout
balanced
ain
bast
105
instantly
buses
emotionally
catching
##sein
cheating
minded
liability
podcast
bets
confer
decides
denounced
intelligent
microp
firmly
layers
spectacular
insisting
bangladesh
##met
credential
gradually
luis
##tering
cholesterol
plague
##ikers
dispr
##itters
lanza
til
grip
minors
idol
costume
mercy
contamination
ultra
eis
lis
suite
##pless
steele
snakes
broadly
riders
mormon
fm
##hill
##zb
rey
postal
probability
188
paltr
villages
somalia
sustainable
reluctant
mathemat
dm
nh
pause
##ulates
##usters
plates
gunshots
consuming
opted
##anche
ransom
##icz
##andowski
unre
outer
snapped
beverage
desperately
ai
tenn
capability
##ernick
horizon
symbolic
obligations
cotton
kut
ratt
##ching
185
verge
traits
disappointing
outlined
sacrific
pompeo
##45
workforce
lloyd
kathleen
aston
##iman
sexy
michel
foreigners
accuses
metabol
spinal
sadness
hedge
comcast
manuel
##ollah
dayton
1977
creature
spirits
carlson
dishon
gomez
hollow
lith
rt
whip
sidewalk
paula
societ
saman
cornell
karzai
tapes
mammal
parallel
##pot
##eny
##oven
emmy
subtle
salon
responds
corrected
hannity
enthusiasm
starred
##gyn
screw
1968
forbid
furniture
jewelry
##iates
##idy
##igg
heck
timber
blowing
remed
franco
embarrassed
klein
atmospheric
fec
##unted
coordination
##aneous
freeman
filmmaker
surrender
implementation
arrangement
rouge
divid
iq
##uously
arabic
initiatives
toggle
spacex
nuts
cohort
##36
slain
exchanged
comparable
emphasis
assertion
administered
tire
##32
tox
drill
recons
backyard
stef
shiite
duchess
ki
outsp
##avel
clearing
terrifying
boards
katy
schmidt
paus
vas
##war
##hot
ingest
trap
stripped
##atorial
graduation
attendees
meyer
skill
responsibilities
loading
disciplinary
fucking
yank
butler
usage
backers
wherever
kills
farmer
mush
baseline
subscription
recipients
abnormal
duterte
##igma
##attering
measuring
##page
failures
sexuality
outraged
breastfeed
##hem
marking
aj
##gets
atop
leap
billboard
neurons
miley
switched
jazz
fron
amph
homs
specialists
##hard
##iler
##ailing
##ahan
observe
launches
hammond
incarcer
##urance
grind
pew
directing
adequate
ecuador
guinea
drain
eddie
faa
fatalities
interpreted
mashable
blasio
fond
##eon
##ho
##lem
compiled
wildfires
psychologist
catholics
pursued
feminist
hover
litter
sina
##bec
maid
recept
translation
gur
wint
yoga
exagger
demol
slip
travelling
kicking
##iciently
bonus
fossils
enrollment
mn
tat
##wald
##orph
dragon
booth
limiting
globally
favored
constructed
firefighter
prospective
sinking
reversed
##awi
midwest
persuade
gossip
fog
spat
middleton
1973
750
sporting
##kowski
commence
filings
winn
sanction
portions
hyd
imagined
exhibition
cautioned
pardon
##chen
depp
##awl
confirming
##hani
flavor
boots
imprisonment
accuse
applying
animated
neighbour
lifting
##ozy
enrolled
unhappy
fitzg
codes
lanc
##wrec
pruitt
grows
pageant
accompanying
convenience
cind
lover
ry
##right
##cation
##ounters
adjacent
cb
forming
endured
lesser
wu
helen
fragment
gol
roose
boarding
encounters
##tic
##comm
profiles
legitim
immunity
mish
rim
wired
##acht
schne
extending
randy
heightened
##arium
##opy
##unting
draws
beaches
landsl
embryos
specimens
##anthrop
ou
pse
vag
##jan
methane
attendant
functioning
gilbert
anytime
debbie
anxious
cheney
##esp
##icia
shattered
scans
137
devil
entity
initiated
1972
boundaries
motivation
blanket
chimp
unauthor
##asters
meghan
delib
lighting
reflection
alexandria
2nd
##iating
##tor
##oust
myers
runway
sword
##onnie
peanut
##ilation
coma
drank
justified
famed
instruments
cups
interstit
##mith
##osity
##think
clue
engines
messaging
ideology
annotation
##part
##arians
marit
circulated
disappr
minimal
supplied
coordinated
unsuccessful
deliberate
pf
##ulous
coral
accounted
accurately
inquiries
boulder
fitzgerald
##fk
irrespons
##iffe
denis
inspire
##offs
speeds
##losure
rnc
##rina
##piece
amended
verb
umb
80s
daca
##eem
crushed
allied
injuring
fundament
samantha
dock
vine
##enza
##urg
##urry
schiz
soda
chew
scouts
metaph
civic
displays
shallow
rupert
bout
##ounce
hast
newark
acre
negotiated
intentional
doses
##bach
chim
unear
watchdog
cheers
acquisition
##aj
##atz
leaking
megyn
shap
chad
##ctica
predators
clinics
rosa
reunited
password
nephew
nec
naming
##wart
##owned
depress
format
angelina
samar
kaep
cockt
drowned
otto
adolesc
patricia
##ourse
adul
allig
##achi
##minster
tours
hagel
sochi
prejud
warfare
##broken
malley
availability
goldberg
traditions
1967
dismant
disclosures
degr
breeding
contentious
coaches
mechanical
mint
##ido
flower
allege
burke
revenues
voluntarily
traces
worship
monroe
##velt
##struct
coleman
antarctica
sway
##orah
##irmed
contempt
joh
insect
1971
settlements
jup
##eur
flan
##holder
450
consequence
##asha
deepest
cheek
gasoline
microsc
suburbs
interstitial
caf
nan
rapp
##nut
##ysis
regulate
dining
memorable
magnetic
evaluated
lens
##rs
##oux
spare
106
##insky
recruited
##ych
forests
insights
sunset
operatives
excitement
##recy
1965
manuscript
pivot
euth
relieved
proxy
affirm
rogue
imprisoned
kaepernick
jind
nca
brib
peg
resting
exceptional
pseud
llc
1974
##fs
##inform
crust
##ubs
attitudes
wrap
11th
violates
##liner
chapel
rosenstein
cope
niel
pon
wade
wield
sake
greene
consume
financing
gardens
bubble
alarming
courses
marched
precip
nord
spouse
heartbreaking
traded
sensation
bits
cer
gum
grain
secrecy
##uala
loses
paperwork
pleasant
exhaust
alpha
kan
notification
travels
smartphones
disappointment
robertson
indefin
##nik
##las
shaken
captivity
possibilities
186
richards
jacqu
reunion
descend
##gart
##hift
inhib
untr
##ieves
append
seniors
##pring
lungs
##ilitation
sticks
##aco
spends
##ostic
##ovich
snl
economists
petty
tommy
sprint
reflecting
zimbab
ipo
extradition
##aha
aval
solved
uranium
problematic
hacker
mohammad
euthan
zimbabwe
kau
preference
admitting
legislators
merit
blessing
fiancee
roosevelt
seeds
backup
blackberry
leslie
guaranteed
bmi
gabriel
edu
skr
contracted
diplomacy
bowie
outright
vandal
hogan
##alous
grieving
humil
introducing
noble
batteries
preservation
fitting
wes
##enne
makeshift
silly
audit
eleven
lacking
cartel
outlook
bc
rides
shelf
uphold
syrians
linking
envoy
establishing
concludes
subscribers
lavrov
kob
lamp
advertisers
1963
acknowledging
##uum
##ensively
insane
erin
labels
admir
jupiter
##itative
quint
thrones
authorization
glimp
shootout
cancelled
misunder
hussein
abstract
deen
exec
##endered
princeton
dynamics
interrupted
glimpse
rous
##just
##eno
leather
maneu
##brid
glam
organizing
accusation
olive
lewandowski
contempl
reacts
##ensible
undergoing
descent
leverage
maritime
stu
##terior
poised
captures
northeastern
uncomm
marcus
##gal
scare
indirect
speculate
technic
chaotic
natalie
heter
##witz
##chair
brink
reconciliation
##sons
contests
obese
##riage
realistic
##grounds
thoroughly
sincer
##nels
##inging
##imm
tracy
unr
##orton
contributor
destructive
unspec
madd
chapo
cortex
aub
batch
fits
##kley
shoe
preview
serb
clearance
assumption
overwhelmingly
cantor
##power
##thal
troy
enabled
conscience
finances
waist
predator
fastest
ignor
sergei
hormone
molecular
entrepreneur
subpoena
sachs
schneider
ncaa
dere
lips
holdings
collar
celebrates
danish
cardiac
provocative
convincing
##38
##ghai
slams
careers
ranged
snapchat
variables
ces
##look
##orie
##icidal
surpass
poem
singh
tribes
reservo
underwear
cautious
schizoph
##kk
##esis
propose
balc
definitive
freddie
masters
petersburg
estranged
tina
doj
monitors
themes
runners
greens
freak
apprent
bronx
tumblr
schizophren
pest
sark
vander
##ski
##chin
deaf
beta
designs
unfav
ss
viv
##aton
stairs
##acey
blessed
courtney
inspectors
kissing
recipient
troopers
fatig
chapman
cycl
pockets
inability
uss
coat
speculated
archbish
distinction
##oids
bolton
broadcaster
paltrow
diox
wond
##inery
trending
donna
rubber
apartments
connecting
comparisons
prone
incon
crem
prosecute
fulfill
inflicted
unpr
assail
lacked
accusers
acquitted
grabbing
innovative
ceasefire
bands
clips
obstruction
abduction
tuition
inaccurate
enquirer
4th
rains
##bu
##isers
##reated
##iked
publications
magistr
stays
hawking
belongings
vitamin
shanghai
prolonged
signaled
financially
##ugging
##hea
detailing
##ieval
wrestling
unspecified
alv
sheikh
blair
##ausible
rover
collusion
rolls
climbers
seizure
branches
orthodox
##arz
assign
##phis
charities
viable
cait
transformed
inflammatory
exxon
genre
terrified
freely
reopen
beings
##illery
##umental
cran
##rystal
depressed
boo
suspend
effectiveness
malicious
pund
##ulent
crops
##awling
interact
provinc
payroll
obsessed
wilder
huntsman
slideshow
rhyth
exports
lowered
circulating
letterman
hir
rider
topped
outf
mega
migrant
assembled
livest
typhoon
cough
jal
kyl
hew
##guards
cindy
balcony
kos
colony
104
confession
assure
continuous
ideological
miscar
##limited
presumed
succeeded
valentine
gins
pne
conj
##esta
offset
scor
costly
katrina
shepher
credentials
dk
lance
pairs
##ellation
grams
upheld
insuff
shoulders
visitor
biography
drunken
extinct
buyer
montreal
eruption
##ulsion
interfere
newest
halted
logic
lately
pes
##bled
unlimited
wors
interfer
lockdown
commanders
wendy
unauthorized
hi
tig
##inos
chlor
##oding
petro
clever
independents
1945
cruelty
bore
boko
cou
vague
ende
systematic
coca
pigs
lapd
abundance
kaz
##igious
frances
##ulin
##ierre
borough
grandpar
daddy
eliminated
constituents
motorcycle
unbelievable
ralph
pneum
tends
##di
##ationally
demonstrates
deposition
crocod
unearth
##ongh
sci
parental
declines
acknowledges
illustrated
dioxide
##rix
##orth
memphis
terrain
parenting
pbs
une
##izations
mcch
archbishop
taped
##iri
chry
inspiring
lovely
converted
lemon
fictional
katherine
##ci
chand
tres
ampl
commod
deported
tunnels
dictator
das
##arked
visas
18th
eagles
gizmod
dual
##ei
##opath
colour
smokers
specify
mcn
classmates
argu
murderer
misch
lacks
dui
dispatched
nickname
tucson
kap
seize
##iston
##anton
reserves
escort
gizmodo
judy
##holm
rangers
randomly
owen
tactic
flawed
nassar
endeav
peng
wald
##bird
##sten
prediction
gallons
ashamed
andrews
liberia
jpm
uter
inning
alumin
##usk
##ulative
turmo
turmoil
eug
nike
##ingham
flour
joins
mckin
fetus
lub
##erable
inade
beard
crush
canal
robots
thankful
shelves
scandals
jenny
mammoth
deposits
90s
cun
##elve
heidi
wears
##ensual
conting
##issance
arrow
continental
webb
stuffed
beneficial
undisclosed
inadequ
mik
##roy
dea
composed
flake
cola
##ogenic
chatt
trophy
##ainted
blo
ashton
rumor
rehabilitation
homosexuality
intoxicated
ink
chips
newman
proving
grandson
applicants
linkedin
objections
altercation
marginal
jp
pg
vamp
onstage
##estation
chasing
trio
disruption
genetics
israelis
requesting
abdel
nicolas
tempt
scam
regrets
charitable
owed
distinctive
kad
nab
##dles
##daughter
##hu
##ben
14th
ignoring
cracked
beverages
sinai
##imeter
slowed
harassed
fragile
tossed
uncommon
diving
lomb
neo
racially
premiums
binge
thir
amateur
##berman
earhart
doctr
philanthrop
speeding
skepticism
ingredient
ced
shipped
atroc
seism
resil
##ipher
swath
performs
gardner
discharged
skrip
cute
ineff
weed
deserved
militia
historians
reinst
abruptly
70s
hott
lovers
tended
aggreg
outreach
invasive
tattoos
outspoken
hd
wounding
blasts
proves
summar
divisive
sherman
musicians
slee
analyze
forgive
sodium
cans
cement
wt
##iological
chor
supers
ambitions
penny
anchorage
culmin
precaution
offspring
kuala
qur
ya
##most
forty
spear
brock
drake
109
marketplace
input
mocking
indians
convoy
nunes
wished
##elman
unex
brav
smiles
smashed
electorate
artistic
presenting
attraction
001
salvador
commencement
kinder
rays
shak
twelve
caliber
astronauts
henderson
limbaugh
falsely
provincial
dude
mia
genetically
operative
panetta
socio
institutional
analyzing
mcmaster
antarctic
rental
downing
divisions
reasonably
mattis
mell
usda
refuses
radioactive
unpop
hoboken
prosperity
hence
lighter
cros
disasters
minus
handing
motors
1964
alternatives
corresponding
mosquit
mocked
sided
wiped
chilling
##emite
unite
enact
startup
roommate
mcdonnell
##girl
##unct
seaf
spying
solomon
superher
cultiv
contested
hydrogen
lonely
ost
tant
inh
##ucts
camping
extract
commissioned
bundy
irresponsible
enacted
##ardi
afterwards
lumpur
defamation
dip
##uter
saga
canon
assignment
illicit
classification
intriguing
arguably
fah
jak
##inement
reps
graff
corrid
moines
commenting
portfol
suffers
hypoc
##acp
adher
##ogg
undergrad
wool
##orf
##isible
cheat
births
surround
proteins
ancestors
jungle
##iltr
counterpart
sightings
gem
##rit
##arios
bees
eventual
environments
packaging
prohibits
unfolded
quarant
balloon
construct
mahm
plunged
soup
##utt
##olly
isot
convert
brent
##try
##geries
keystone
regulated
indonesian
cockpit
bugs
discharge
stimulus
sovereignty
frost
##ellar
##anson
conceded
videot
johns
victories
looph
shipwrec
finishing
margins
unpopular
rant
slog
##atti
laure
battlefield
relying
bishops
pedestrians
czech
wonders
cpr
ket
nitr
owe
##isch
whop
stump
seb
spree
meyers
parach
halfway
faithful
scaram
schwartz
bezos
fuk
sot
rejection
davidson
closet
accessed
commitments
ellis
prophet
orchestr
yanuk
chimpanz
##foot
135
legalization
celeb
silk
bottled
##points
sailors
##zed
sheep
ours
efficiency
austria
undec
tortured
puzzle
diaz
tahr
uh
wp
launder
walt
injust
coffin
renowned
ounce
portugal
tahrir
doping
gotta
##76
alger
invented
airing
richest
duo
naacp
batman
rehears
tunisia
lingu
##kirts
##face
##ivals
secular
obit
melbourne
unsafe
gorge
nielsen
##bles
newton
annoy
farming
loop
integrated
volatile
jpmorgan
mature
ses
shawn
ort
expired
investing
milestone
woody
stationed
conflicting
colonial
satisfaction
taco
mushroom
coke
kaine
mered
nail
##90
texted
dressing
embedded
tactical
##iva
##uda
disabilities
consists
liquor
dolphin
grandparents
fib
mold
vicious
##ifiable
abol
campaigned
prohibit
drafted
fugitive
pec
rope
##ammar
flush
slaves
kimber
persecut
gallup
outskirts
rudy
volcanic
meredith
kor
ng
vern
##leting
clad
##qual
175
disturbed
escalated
3rd
hutch
##rol
blu
strauss
treats
predictions
vacuum
christianity
airstrike
appetite
bites
vod
##lake
##press
coy
smoked
specified
expressions
agreeing
pursu
unwanted
##ahahahah
scaramucci
coul
manual
guerr
denise
pearl
grammy
distinguish
predominantly
lud
sally
zomb
adrian
crashing
marin
strick
finale
alley
redistr
murdering
generating
indications
recommends
cooling
disagreed
coordinator
rode
##48
archaeologist
recounted
disgrace
libertarian
dart
sauce
leah
plots
crater
strongh
colo
depicted
##ologic
liberation
albums
clarity
aquarium
borrowing
drif
accent
reli
miners
##books
copper
kindness
wildfire
sensors
cybers
mcchrystal
##vent
anesth
##osition
##emic
broker
wrist
wallet
embarrassment
astronaut
negligence
homeowners
suicidal
##ovan
##ograms
fema
titanic
oversees
unpred
marshal
##repres
wheelchair
forthcoming
prepares
genuinely
passwords
bain
dough
##bling
ala
spur
saleh
ucla
9th
hiking
lid
tapped
explored
aviv
exploit
reopened
upgrade
rack
##mic
##esia
shorts
potent
caes
dunn
tendency
drowning
uploaded
unpredict
pup
wasser
withhold
##soever
knees
meddling
##eneg
freel
scientology
##after
370
gangs
exhausted
yos
##mail
##atri
##otle
stiff
downs
supermarket
heartbroken
cables
cowboy
meteorologist
gratitude
emirates
abilities
arlington
sunny
artillery
manson
ez
kem
stair
underest
minn
airways
hurts
##onomic
asserted
##found
hitch
prohibition
chrys
bury
mb
mak
pics
##eard
crist
disreg
stroll
fined
healthier
sexist
portman
divine
hurricanes
darren
recipe
pork
##irk
upside
whatsoever
##wealth
robbed
jealous
madrid
##ascar
preparations
pierre
ounces
##anity
##icable
beau
##urb
usher
johnston
judd
opera
verification
networking
quebec
traject
tyson
arson
obtaining
guided
panels
horiz
brittany
##kind
##irical
##aws
infiltr
silva
instructor
synthetic
apprentice
lil
##lass
##hma
##inis
sheets
soy
enduring
slated
severity
circulation
appointments
bacterial
astronomers
##drew
unified
##ucked
implant
longstanding
populated
activated
basin
discoveries
bolster
##had
relate
proxim
positioned
productive
vaccines
eliminating
optimism
adaptation
hilarious
breastfeeding
pant
vick
##23
inad
motel
cheering
branded
swiftly
fetal
pierce
condemnation
gle
gaps
siber
anom
annex
concessions
driveway
360
rainfall
griffith
gases
lago
##pool
leuk
commonwealth
fiber
lax
withdrew
chester
addict
retiring
111
solitary
maduro
##worthy
departed
broward
overseeing
nonsense
patience
organize
stormed
peacefully
respective
exposing
automated
warrior
reconsider
fundamentally
koh
##arf
overweight
johan
issa
##lining
gaming
jahi
slic
wary
##isi
traced
sep
cripp
belly
shortage
travelled
honors
merced
armored
semitic
transformation
paradise
gau
odom
##actic
humble
humane
buddy
proposition
disprop
dhs
wit
##kok
shannon
##opp
abusing
##abs
cries
##oots
confinement
biom
lifel
fashioned
reactor
deficits
aka
disastr
imports
endanger
confusing
##brook
advise
frontier
raping
##writing
stalled
facilitate
zhang
unearthed
securing
founders
runoff
comeback
distraction
ledger
##boards
scenarios
sequel
dispatcher
creepy
##stop
##iph
surgeries
gloves
diameter
poetry
hassan
corker
cecil
##erick
marion
##atched
168
boarded
hallway
constitute
supervision
perpetrators
pouring
ds
garr
gerald
trent
hail
unequ
cloth
disgu
monte
showdown
##erys
genoc
housed
soros
comprised
tornadoes
odor
phillip
unil
##asting
feder
varied
seasonal
modeling
defining
termination
utterly
rushing
yang
##itan
##leas
aligned
westminster
lining
##77
##otion
bro
relies
obl
endless
farther
realm
santi
kickst
predicting
remarkably
brutality
statistically
ebay
vomiting
pengu
mps
panc
medals
originated
steadily
contraception
disproportion
##rock
shack
##ibal
finland
128
swamp
pleading
norman
inconsistent
resumed
##uding
guat
retained
slogan
##atories
16th
criticize
seller
louisville
sequester
havana
abedin
fent
humph
##isphere
dew
cluster
##ollo
##goers
ashes
vertical
##moon
##aque
##cha
slaying
enters
technological
aiming
kilometres
##iop
##agne
contender
daylight
publicist
raided
factories
involunt
boris
lymph
bella
satellites
buffett
pall
##will
chun
##agh
extends
##anners
17th
institutes
terminated
bangkok
bucket
accommodate
##iott
##ecd
chi
sox
generic
discred
112
malware
floors
assessments
forgot
arsenal
tiffany
5th
##din
##hole
##anics
remorse
holt
advisor
frustrating
nikki
monkeys
##ras
notifications
spam
brat
emm
enthusiastic
ans
##uber
charts
imagination
kuwa
corrob
yosemite
ike
kathy
riley
##ischer
fres
grove
remn
##grim
georget
1960
hemisphere
postponed
hazardous
bh
jog
sut
##nan
imposing
warmer
filter
licensing
aluminum
guatem
##uba
reductions
similarities
1966
eyebr
rodham
hypoth
mosquito
impaired
##orously
newsroom
12th
organisms
##ographical
##beit
containers
mitig
impeachment
schizophrenia
ports
yo
##65
##tert
##usa
weaver
dehydr
spont
outgoing
groom
scoop
intermedi
explorer
##dain
deuts
clashed
motives
assisting
applicable
purchasing
hawk
weighs
masks
##rahim
barrels
ausch
ranger
hague
unjust
consensual
criticised
pilgrim
punct
renov
presumptive
unwilling
auschwitz
dixon
gav
lugg
##orld
spiders
incidence
policing
diary
restraining
floods
mixture
dismissal
sequences
raymond
publishers
kun
ree
invisible
behead
suscept
moroc
occurrence
promptly
fingerprint
gos
gub
nig
plausible
manages
decomp
handout
rebell
planted
papa
nyt
worrying
withdrawn
conceived
fishermen
strictly
asthma
inevit
dade
##itutes
chased
expend
##othe
charism
##atte
celebrations
##ommun
savage
brigade
glacier
fist
woo
##mn
##29
##omi
pricing
peop
thoughtful
rockef
chev
gambling
binding
plagued
vap
##kh
##21
touted
neill
unin
bigot
variable
illum
smithson
jacksonville
acquire
narrowly
wolves
jeopardy
inadequate
unexpl
bac
##jah
bean
heath
##unner
confess
protoc
debated
protested
honour
fearing
cultures
pathway
discrimin
unemployed
luggage
bitch
fury
##chool
unins
governance
harmed
glen
sounding
manufactured
reconstruction
ltd
ew
##matic
##cm
beats
throne
slash
skies
positively
awak
exceptions
miranda
leonardo
authenticity
gwyn
clooney
hottest
dread
nih
suppress
curve
surfaces
splash
empathy
derek
portfolio
cory
nol
wan
yu
plac
charm
laund
limbs
flores
trev
documentation
accuser
levi
smuggling
pts
thieves
chill
pee
bloc
regain
affection
interviewing
explanations
riverside
incentives
sniper
stuart
shir
breasts
mcgr
purse
assessing
vulnerability
output
recruiting
trespass
bik
##table
##fo
##isly
allison
kne
medieval
dawson
##lich
##owers
##uman
repay
protects
##annah
labs
scream
rocked
predicts
amput
folk
supremacist
shepherd
bacon
hated
##sd
##asi
plos
marital
overtime
valerie
##sterdam
mentor
tasked
buch
baff
thwart
##acas
hastert
tomatoes
schwarz
avalanche
smithsonian
##erty
seab
drills
##manuel
southeastern
announces
certainty
complexity
ranges
outbreaks
culpr
mahmoud
curs
hut
inex
##elia
shelling
incomes
mines
slot
diagnostic
1950
mateen
merchand
territories
adapted
disastrous
tally
xin
overhead
bulger
acquaint
exceeded
nost
unb
cleric
plumm
playbook
13th
angered
solving
questionable
chemotherapy
merr
cracking
flexibility
incorrectly
mong
tran
spurred
agu
intest
socially
citation
educate
photographers
demonstrating
carroll
correspondents
alfred
insufficient
nause
stagger
stockholm
honoring
bosses
##uri
magical
correspondence
retrieve
suppliers
inaugural
fiery
mosquitoes
gays
mumb
trim
apollo
insults
airspace
discovering
practically
dispens
expectation
##world
jamal
munich
mentions
altering
seaworld
ginsburg
hil
##ulk
blade
##otto
burg
awake
revive
shutting
implementing
##ionage
##adh
twisted
##isha
serena
distribute
##tedly
texting
fairness
cardinals
hybrid
wheat
pneumonia
cater
iphones
sta
##thood
completing
slower
debuted
devos
marching
ramsey
rallied
inclusive
georgetown
rockefeller
niss
ripp
vibr
wax
zip
##inces
allergy
popping
240
burk
wildly
checkpoint
cooked
counselor
wheels
deposit
appropriately
chanting
cows
jelly
pab
##fa
##jar
congregation
holders
ambig
##health
rutgers
fancy
forc
unav
dole
billed
volt
martial
apologies
inherited
unfavorable
##nia
##anos
concord
billionaires
looming
##kinson
rumored
escalating
grassley
correlation
incentive
stumbled
honda
saints
trunk
##ogl
soap
##incts
boliv
##pd
##iffer
leh
strains
themed
##ologue
pressures
calorie
gloria
sprawling
jumps
ivory
ruined
shells
urgency
sincere
navigate
heller
##mind
##idity
weiss
##otte
deborah
plead
exemption
##committ
kickstarter
sober
torr
wre
##gone
##isy
##essler
##ums
leo
emper
##inton
lawful
americas
##afts
avery
praising
stretched
windsor
highlighting
cay
cody
waving
stub
##oct
amsterdam
recess
milan
skilled
118
booker
cousins
ariana
grues
internationally
##marks
pulls
summers
gibbs
gorilla
pyramid
santiago
fay
jfk
maz
s1
beir
notify
bypass
confined
advancing
30s
covert
completion
jackpot
gestures
##ytes
deferred
gul
jor
rust
beans
##ptions
discipl
identifies
##ushima
diets
marshals
railway
outcry
varying
discourse
wink
depicting
huffpost
escalation
peoples
kang
og
wig
##28
##onal
baron
mediaite
landfall
devastation
embeds
protocols
##odies
ard
##inda
throws
slowing
proclaimed
moist
imported
parkland
loos
##leck
tolerate
cte
cnet
pave
void
##rative
##atable
toe
##lys
##thia
griev
##elyn
##amph
biologist
cleaned
lucrative
joyce
exploitation
hispanics
relaxed
metaphor
sarkozy
##fell
chanted
##ctv
incap
carly
britney
considerably
wagner
dense
gdp
##tsb
##astically
##troll
vegan
slope
specialized
distra
surrendered
danielle
cycling
pipes
suck
entitlement
outpouring
skripal
wasserman
nud
wiz
##inke
harold
engulf
sellers
##heads
dh
lur
rol
tx
##mi
##ceph
maya
militias
walters
133
execute
spacey
millennials
bargain
gazette
hust
pie
pact
tucker
dried
emmanuel
likewise
cellular
cookie
installation
hinted
##ng
##atus
intol
geoff
erik
clarke
bilateral
kane
reince
wasted
##cepts
chunk
mara
123
communicating
colorful
intensified
paramount
insulting
dame
##pear
albeit
abst
crus
marina
flows
thriller
surreal
streams
pena
beds
restraint
mortar
symbols
jindal
appendix
genocide
distraught
duff
##inas
forfe
constand
brend
phyl
remot
southwestern
artic
integration
ruins
pedestrian
clement
pools
terribly
entertaining
discusses
organizer
abbey
interface
gown
farrow
screamed
senseless
recalling
exploited
variations
dowd
##note
##67
##omatic
sag
##chan
knocking
##ishes
103
potato
superstar
influenza
suspicions
prosth
mourn
bargaining
##irth
##ansing
blaz
dems
needle
reasoning
espionage
opposes
alcoholic
encourages
unpaid
architecture
fatigue
ptsd
confisc
##etsk
sandberg
egyptians
brooke
cycles
brok
overst
underage
logs
apologizing
distinguished
gwyneth
kon
kol
ntsb
thereafter
regression
annie
goodell
goodman
15th
##apeut
mailed
archaeology
preferences
fortunately
fukushima
##making
##ju
##abling
##okhar
meta
popped
professors
revis
230
##heim
weakened
appreciation
ethnicity
sympathetic
warriors
inadvert
bucks
cue
eleg
##erity
##ourt
herb
instinct
succession
extracted
dynasty
ibrahim
carnival
dzh
##wind
stack
suicides
grapp
happier
markers
extensively
volumes
granddaughter
stockp
calculations
concentrated
coward
##screen
nestle
mistakenly
doctrine
ortiz
lifelong
60s
glee
tore
##olph
sung
vienna
ovarian
aliens
podium
dodge
yielded
seizures
delighted
populist
liar
##lib
onboard
##osion
##ods
endure
tales
refres
##afee
webster
repeating
owens
sz
tipped
##eca
descriptions
yours
defects
candles
booking
performers
favors
sensor
computing
ramos
interventions
railroad
clayton
shakespear
unpredictable
jas
vault
##99
##urge
##quet
justification
donetsk
morr
breakup
martyr
##orrh
1962
corners
mutations
hungary
yellowstone
depths
excavation
prestigious
microphone
kell
trainer
daen
ruin
exhibited
ler
##arn
##umar
##irez
overly
blames
happily
restroom
boyle
cooperative
cunning
dare
##top
clara
maher
reduces
placebo
guardians
epip
tissues
dishes
antibiotic
bicycle
olivia
daenerys
dome
nina
vall
##gement
##steps
unacc
##athing
calf
advising
undecided
gruesome
fow
##hell
##ao
##isations
##actory
accordingly
busch
barring
##idae
albu
alternate
masked
dictators
flaws
landslide
bb
##itives
##umbs
unm
timely
##iewicz
maur
remainder
respectful
bodily
minimize
illustration
cyprus
concussion
slogans
scoring
shooters
distracted
hotline
circus
turbul
blockb
ramirez
assumptions
forgiveness
##oro
##pted
takeover
187
corpus
hobby
fortunate
bunker
tents
##fig
##44
stint
heir
redacted
vogue
neural
brack
flipped
insens
##uffle
negotiation
somali
unstable
tigers
gubern
ouster
yon
shab
framed
cherry
orph
tebow
syed
edin
##bron
performer
rodman
cracks
overlook
upstairs
maneuver
beirut
fidel
phel
mayo
degener
translated
unexpectedly
manipulation
catalog
incomplete
gel
locally
sunlight
radi
priorit
pitcher
cassidy
wip
##olulu
submer
chairwoman
garnered
boxing
chipotle
refriger
crowley
magistrate
kimberly
ramb
##cos
alarmed
crunch
thereby
campuses
lowering
##baum
bolt
purely
championships
gubernatorial
fid
kits
sights
##due
##mand
shine
fren
realizing
irony
220
pretend
floated
bully
remembering
surgeons
poisoned
pharmacy
whistlebl
vil
perkins
nearest
glory
##entional
lineup
battleground
feeds
49ers
matthews
stretches
emphasize
refrain
superhero
lough
meme
airbus
classmate
superstorm
filmmakers
maggie
waits
honolulu
norms
plotting
descended
riots
alberta
alec
bree
nt
##with
##hua
##aic
##iegel
outfit
##iances
##assed
defiant
signaling
judged
salem
civilization
cooler
staggering
gina
ner
resisted
peaks
quo
confron
severed
selfies
submission
wheeler
neutrality
styles
lennon
laundry
congo
aca
courier
handles
hardy
salaries
##etto
louise
philosoph
encryption
paralyzed
dmit
patern
##iq
repairs
plight
regards
feld
enforced
separating
projections
expectancy
teaches
suitable
lockett
dedication
yemeni
##information
chorus
casc
dic
yates
##sf
##ovic
knowingly
robb
gentleman
ankle
kep
chess
##emon
rubin
capsule
gymnastics
dzhokhar
bats
fogle
##uish
##fox
neander
exac
monuments
greed
fixing
lori
inventory
carpenter
inhabit
piano
##rise
wholes
stip
unrespons
acoust
supplements
readily
eli
futures
austerity
proposing
neurological
stemming
rouhani
contradict
helmet
laundering
##itous
##answ
scoot
blat
swap
raft
steering
lightly
cheered
##owdy
creators
derail
moonves
printing
oriented
injustice
kee
somed
tidal
orc
##sex
explet
##naire
revoked
hampton
shuttle
fifteen
planetary
unanimously
societies
exacerb
##ray
anders
chast
modifications
garland
gala
uniforms
implied
evolving
hosni
lia
sans
vows
theological
alp
##akis
gramm
markle
handcuffed
sincerely
someday
##master
##edes
##omer
economies
homem
competitor
blogs
gmail
triggering
unfairly
inevitably
uninsured
mund
inexp
##ocy
##ivision
##ptic
discrep
lego
##coni
injunction
multip
mirr
venom
vigilant
cinema
unresponsive
##ros
##je
inland
##alay
align
exotic
spine
twil
doomed
##obile
##00s
1000
therapeut
nutritional
patterson
disposal
pursuant
paterno
baham
hier
withheld
exoner
apr
freeway
traders
sediment
dilig
specimen
##enhagen
gauge
cc
hoy
nm
##itism
paych
resisting
qualities
icahn
shrine
pioneer
sebast
cbo
##fold
##atra
##elin
##ivoc
imperson
##cribe
tops
salad
mccabe
##uffed
godd
vanessa
fifa
retrieved
condemning
reminds
pharmac
edinburgh
fount
hond
vivid
crumb
mapping
ambition
pregnancies
##lsen
albany
quantity
recreation
antiquities
ordinance
ecc
nair
##ll
##aints
suz
marily
statues
axel
parameters
tibet
separatists
trajectory
cask
riy
##55
neat
booz
delicate
metoo
prevents
parkinson
methodology
rigged
accomplishments
emperor
##47
##onial
envel
decisive
contenders
gluc
penned
graduates
consulted
pitched
relentless
obituary
nissan
envelope
dale
##andra
##ogyn
moons
collectively
baggage
villagers
appreciated
quantities
kenny
namely
arraigned
proximity
twilight
rag
vind
clapper
##ugu
paink
unsure
welcoming
podesta
linear
composite
porch
disagreement
duplic
inflammation
therapist
alligator
fusion
mam
unfor
107
headaches
visibility
debts
copenhagen
##forward
substitute
ecological
forecasts
prostitutes
psychiatrist
incompet
scrambling
meltdown
nutrients
##uer
aniston
##itating
beam
truce
mons
registry
##eez
commentator
bored
precision
hyster
negotiators
cleanup
falcon
savannah
reinforce
fingerprints
censors
abrams
cerv
zo
##gence
objected
108
governmental
marker
kindle
labeling
multim
stormy
melting
rainbow
disrupted
ibm
cocktail
submerged
##33
sein
##ype
burd
marty
wrongful
connectivity
procedural
proceeded
levy
sophom
improperly
kfc
isab
peps
cannes
disbel
microbi
khloe
650
hugely
ottawa
molecules
mercedes
nate
##beck
##enas
##chem
backstage
slump
staring
injected
misogyn
measurement
springfield
cite
##rio
##yans
##itus
resent
decorated
betty
smear
arrog
##ometer
biased
climber
rigorous
friedman
fernandez
hw
##asso
##otics
##igo
unansw
idlib
coupled
##burst
wilderness
cybersecurity
kahn
rounded
##lave
lease
arpa
decor
contend
schem
demise
glor
questionnaire
erad
##rella
extremism
patrons
##glasses
fisheries
enlisted
alphabet
##colm
zur
##stan
##usions
##uds
manchin
homework
129
terrific
salis
##rophe
ensemb
screenplay
lieberman
obscure
##querque
algorithm
shakespeare
bahr
##istically
flame
delicious
admissions
unload
##break
tightly
corpse
nichols
albuquerque
wong
yak
##hm
##otine
prizes
herm
womb
apost
barrett
slap
informal
greet
camel
malcolm
boxer
katz
1930s
anticipate
pumping
frightening
territorial
adolescents
graffiti
macy
##bier
##inness
rewards
trench
quartz
cald
swir
ivan
interpre
bullied
cynthia
disregard
discriminatory
bert
##inqu
##urances
##ansson
moz
logistics
pinpoint
molly
prolifer
##imburs
indefinitely
cull
gand
xia
alam
##ifax
spelling
grades
expire
informant
117
##shed
losers
premise
rhodes
caval
pesh
poker
pushes
unsolved
recognizing
attendants
promotional
spectators
hawaiian
reproduction
coincidence
jinping
##committee
pains
anecd
##economic
upward
handwritten
authored
feds
afflu
practicing
vacant
villain
essence
lucy
implicated
##bnb
deliberations
millennium
microbes
remotely
bison
keller
unmar
croat
compelled
carved
damon
rulings
loser
obsession
improv
gallon
horrified
coordinate
achievements
buckingham
salisbury
##db
##atisf
expelled
##ignant
schiff
posters
shelby
clarence
fierc
surrogate
##enegger
gyn
pren
peril
##lette
##lessness
precinct
honesty
databases
hog
sund
sidelines
##iak
##pc
##bard
reimburs
##imated
##endez
depot
idiot
airbnb
boasts
behave
restoring
angels
masses
immense
naj
battled
tastes
catastrophe
paleont
dunk
##sk
guam
statut
salute
packing
kenyan
width
sectarian
supplier
vigorously
punching
epidemiology
vegetable
##proof
queensland
bystanders
staging
fores
grin
grill
##ovych
##ulture
allegiance
hateful
evaluating
outsider
screenshot
hansen
arpaio
dab
doss
lb
niet
##oan
##olar
hezb
commands
rooted
113
burton
mobility
stamps
blonde
recycling
morrison
unanswered
kt
krat
spies
finn
breached
sickness
lengths
dors
plains
crushing
worlds
119
germans
slew
combine
synd
spectacle
dependence
toxicology
tumors
moderator
unanimous
livestock
##waters
genital
creativity
550
reno
battered
revolt
obstacles
dancer
yanukovych
##oj
##rated
##ilia
##entric
usc
downgr
config
transfers
##shine
figuring
nucle
dwarf
tricky
disturbance
hondur
7th
luk
##ori
##ocate
seam
sums
mali
hyde
defenders
veterin
##ozone
spinning
accelerate
rejecting
##yen
decree
##uchin
visibly
##boat
calculate
flexible
rams
ants
##amar
spice
cla
##ublica
schl
rochester
##bral
skew
lauder
burnt
pulitzer
darker
spotify
outlaw
vegetation
tamer
##ummings
reservation
rendered
reservoir
pundits
brendan
##37
manila
capturing
##amese
digits
roller
ethiop
barracks
nigerian
dianne
kcna
legitimacy
##utz
##olith
fries
unborn
prehist
parr
joaqu
propublica
referencing
conceal
moody
pediatrics
##folk
guatemala
marilyn
sulf
##aniel
##illas
contag
disconn
screams
woodward
borne
advocated
tanz
cheerle
bae
kraft
##rine
##01
spilled
##ffer
blows
persona
##brand
irreg
malik
fellows
selective
##ieties
mattress
wide000
cryst
warmbier
elliott
sparking
elevation
eugene
hezbollah
nr
null
tin
##houses
incub
whats
1961
translate
sneak
accelerated
dugg
priced
shades
polite
pressured
patron
dispers
achieving
diesel
##ierrez
kuwait
merchandise
irregular
nails
nerves
osw
wf
##46
alto
orn
##olling
insulin
judging
currents
saturn
commercials
dublin
eldest
stems
schwarzenegger
lah
##bone
alison
##osta
##eyer
homicides
negatively
bloodshed
macd
tallah
nhs
##icacy
demi
affleck
generals
commentators
safeguard
fraudulent
reversal
dalton
ankara
##manship
inconven
liam
mumm
pals
yacht
##edia
frog
disqual
headache
patty
powerball
misrepres
constable
medicines
scrutin
inherit
precautions
involuntary
cummings
kw
piss
yam
##ilder
##reet
##etamine
hai
outline
thrive
corb
designation
instruction
promotes
mcmah
adjustment
portrayal
kram
wipe
##enstein
##anks
##ouf
unaff
underwood
reminis
guides
charming
cellphones
methyl
ceremonies
inspections
mysteries
upstate
toppled
shrinking
kutcher
waved
thatcher
prud
##este
##ulus
smash
eurozone
emerges
mistress
writings
mourners
ambulances
intercourse
statutory
yel
##lance
##ollen
##attled
157
streak
shutter
actresses
straightforward
philippine
outdoors
eh
rude
##sb
##poon
##mental
##aste
knot
loch
prayed
proceeding
##assee
resurrect
bahamas
##uclear
coch
continuously
systemic
singled
interestingly
embattled
tribun
productivity
sarc
welch
##umenthal
ultras
entrepreneurs
pizz
##mia
##uti
conqu
trails
unoff
upt
collector
closures
envision
recognizes
paths
canadians
hugs
awaited
stephanopoulos
leno
betray
##fman
weaker
##ifi
willis
knives
consc
swan
undoub
pirates
intercepted
##ophobic
ud
wich
##hou
##ioned
spouses
blumenthal
##crim
balloons
punitive
quoting
stronghold
joaquin
aesth
tender
##kar
##hips
messenger
##ueling
indicator
##heit
synag
frederick
hayden
bombshell
jacobs
venezuelan
recruitment
incorporated
handcuffs
vodka
##vet
##kshire
##azed
sunrise
trader
developmental
mentioning
granting
vaccination
opioids
observing
enrichment
meadows
nd
sinks
##lain
##27
##icule
##elight
inviting
airborne
boasted
raqq
smallest
bombard
tuned
satisfy
gutierrez
diminished
directs
appalled
pens
stam
##ados
pratt
harb
##mington
heroic
consultation
durbin
adequately
carcin
tallahassee
busted
dos
##atr
##icem
##advant
scaled
##vedo
designers
volunteered
nicotine
777
dragging
sergey
crafted
indoor
yankees
neighbourhood
riyadh
waking
thermal
hanks
nim
rotten
tate
##fi
segregation
upro
cane
eva
##rique
##ometric
114
dominate
float
manufacture
janeiro
fuels
puppy
disrespectful
punk
ras
thigh
ston
##owan
heating
parody
backdrop
longev
avid
##conn
singles
competent
greenland
influences
##iaries
columns
profitable
kindergart
tipping
zah
##vance
##eson
##aleigh
davies
touchdown
oversaw
savvy
switching
summoned
tubes
##404
minerals
johannes
disbelief
undoubtedly
cic
##like
##icular
scra
marl
partying
iceberg
kissed
hugged
shields
fractured
bothered
hypothetical
biting
fahr
hikes
nets
sop
##esign
##ouncing
arrivals
watchers
hardship
radd
diarr
215
lowe
personalities
crawford
freedoms
anonymously
dominican
anticipation
parasite
unleashed
longevity
klan
ubi
##tles
thiel
preserving
propri
criticisms
ambush
deriv
##roads
scanning
lays
nintend
sb
##iters
##olent
##irus
nex
usgs
disadvant
##001
impending
debra
177
crosses
contestants
clarified
pharmaceuticals
applauded
gat
ngu
rw
tb
ches
comics
##ellers
preschool
##ensis
legion
farook
clintons
secretive
archd
hamburg
naive
gorgeous
sophomore
niece
tires
##kal
##acion
indec
slice
listens
210
##balls
sprayed
cornyn
dahl
kens
kicks
£1
exile
monaster
flop
##ondo
mri
sunshine
reds
amongst
animation
rescind
abdomen
compares
favourite
##vasive
chrysler
rebellion
expletive
bahrain
zu
zar
##wig
goers
monologue
yorkers
builds
mcdaniel
kyi
mh17
caldwell
lena
pok
vint
zion
##ea
##icker
##ressive
##ahaw
arrange
barber
debating
valle
fearful
islamists
drinkers
enjoys
durham
lobbyist
supervisors
unequivoc
##urgeon
raddatz
pestic
##adian
##uling
leone
##ibles
blend
paran
suppose
provinces
condom
startling
30pm
avoc
gunned
offerings
flagged
advantages
concepts
impairment
blockbuster
dorn
hull
ion
ming
norton
sow
##robe
##felt
##bands
##inarily
cheryl
suu
recounts
instability
116
sitcom
nonp
broadband
iranians
scrap
quarterly
rankings
vietn
nicknamed
pesticides
aq
##zel
##ollect
contention
setback
##gett
creditors
productions
kellyanne
museums
2000s
disorderly
hugo
insurgency
umbrella
prejudice
wesley
vietnamese
jed
rift
##26
suited
spite
crane
blues
daytime
betting
paypal
dealings
screened
merits
vetting
stretching
botched
grasp
corridor
##lav
thanking
slur
127
artwork
steak
halls
occupational
arraignment
clemens
detonated
mnuchin
ding
ix
pend
##gary
##imeters
##cht
choking
unman
##ovsky
caracas
assurances
passages
organisations
dioc
##enched
icy
resolutions
bullock
saddam
scrambled
socioeconomic
shipwreck
##pel
tod
shia
##aga
ariel
##ogens
fey
##reep
impuls
conform
##mins
cancellation
almond
##boarding
fluids
homemade
cir
diction
lug
##eer
##uv
##aned
alc
##chron
##ieg
clan
perimeter
backgrounds
simulations
guarded
##beh
destabil
barrage
virtue
perspect
harrowing
hebdo
looting
dysfunction
tulsa
pivotal
bauer
hank
vox
##eong
##49
spiegel
elusive
patel
145
rowling
pyth
mercer
guarantees
rabbit
forecasters
reservations
possessing
tamerlan
hints
##anyl
##alg
onlook
##iann
enforcing
270
swimmers
salvage
persuaded
cunningham
nintendo
dizz
goth
wc
##sch
uniqu
cram
teammate
sufficiently
graduating
champagne
bigotry
ensemble
gn
lent
vow
##hap
##urst
enabling
##antically
outburst
##aways
##amped
downpl
steer
encomp
##afta
evacuations
weaken
loudly
psychiatry
##osaurus
bmw
purportedly
stephens
chromos
acevedo
bitten
cps
wanna
##nie
##leum
##stead
##acuse
triv
##kson
monopol
drugged
titan
cubic
substantive
hazards
announcements
dishonest
uae
reaff
stitch
shapes
##ibe
deflect
norfolk
forwarded
halluc
bidding
grader
defeating
##giene
declares
##68404
lending
##stad
alicia
fracking
resh
syracuse
##atorium
potatoes
congresswoman
##lusconi
novels
berlusconi
quantum
portraits
11559
leukemia
1155968404
dum
lol
##levant
neon
##ivik
blizz
autobi
breivik
condo
menstr
collects
hygiene
displaying
bonuses
irrelevant
intimidation
astonishing
susceptible
##anas
streep
shores
ammon
guinness
autumn
transcripts
violently
murkowski
petitions
austrian
logical
randall
skinny
hoover
lavish
delaying
rebuilding
atrocities
phelps
ubiqu
ae
rus
turing
##haw
newport
claus
outd
##ulton
readings
careg
policeman
##lusive
merger
predictable
gravit
betsy
forbidden
hinder
exited
downward
winston
landl
horrifying
interval
bulls
mastermind
luckily
eyebrows
uproar
archdioc
gret
lame
tian
##wear
##worm
thc
athe
alps
conley
clergy
worm
##obar
##ailable
continually
lateral
155
esteem
snack
settling
amounted
boosting
overdoses
##human
lingering
conferences
auburn
poul
tainted
##agin
segments
##ibo
sexism
fedex
arresting
classical
oceanic
kirby
whiskey
rc
##roots
##ders
##inges
##isans
saul
notices
##eping
smiled
warpl
propelled
126
##ception
messy
churchill
surfing
mixing
advocating
traumat
prevalent
frightened
fahren
fentanyl
loughner
eater
gy
##wing
shaping
haunted
everett
mcgu
specializes
celebs
finalized
indicators
260
seekers
carolyn
ivy
farewell
frontr
##oise
##atible
repet
basil
grounded
moses
characteristic
owes
pumpkin
rhetor
phrases
raqqa
##dings
spitzer
##actors
##ashi
condoms
##ennial
robotic
benz
olson
patriarch
breaches
vandalism
whatsapp
##ridge
thumbs
##osph
notre
aber
directive
glitch
individually
volcan
##askill
mutation
jihadist
diverted
congratulations
nausea
inadvertently
##lc
##tw
##asion
##amon
pepp
overth
playground
edges
shoots
malfunction
banker
liable
ecst
barbie
dumping
theoretical
dentist
hijack
##88
##leton
onc
##arta
depicts
internally
##otti
journ
activism
navigation
concerts
unchanged
miguel
freelance
disciplined
fy
fitted
passports
eastwood
detector
proudly
ventura
youths
ironic
dominance
nuns
petroleum
insensitive
ego
ioc
##stown
sailing
prevail
conventions
receipt
viewer
165
erosion
practiced
wooded
garfield
attribut
academics
bernstein
##daq
juror
##rehensible
venues
genesis
unsuccessfully
pamela
johansson
undergraduate
aided
kre
sig
##owered
alumn
spaw
allred
##trak
addicted
highs
housew
finest
##prod
midday
budgets
packs
tributes
paired
1953
hooked
tagged
cobb
mlb
tractor
chimpanzees
staunch
dell
hhs
tah
theology
styl
particle
equation
averaged
overshad
rallying
tumult
metabolic
adolescent
salmonella
sanctioned
nguyen
ein
einstein
##eley
exem
##ickers
implicit
rohing
##isexual
sunglasses
urges
bombed
fairy
pledges
partnerships
courageous
narcotics
xinhua
1b
##gling
shen
shov
unreal
sebel
appell
becker
##oya
menendez
payne
illus
jeep
pedro
vulgar
supervised
perceptions
timberlake
caitlyn
pablo
sebelius
wester
##arazz
alib
poles
inclined
##berries
flurry
slapped
saturated
frein
url
225
cathy
aspiring
adopting
promotions
contestant
ravens
betrayed
seismic
casket
bisexual
font
moll
pav
theod
##esco
##ulator
hasan
calgary
testifying
camb
latimes
hostility
wrongly
pretending
nasdaq
motorists
oregonian
apprehended
kylie
culprit
dossier
prehistoric
mama
tn
yong
##money
##icr
perth
strapped
obey
specially
annan
advises
##coon
critique
##henge
rapist
premises
semin
jenna
sequential
endorsing
bikini
tread
##39
hect
dej
arose
##anto
brides
amtrak
smarter
curf
logged
lobster
grassroots
embryo
appropriations
borrowed
miscarriage
crocodile
nak
##hin
exting
##ibu
##assing
downed
sunk
40s
roadside
scrub
engineered
paparazz
harmon
constituency
cn
tinder
stigma
hab
##ifa
##ussen
electors
receiver
micha
halft
misled
revival
evolve
excerpt
fahrenheit
hm
lily
wb
##jour
wholly
chaff
##ocene
sparks
##omey
soared
blitzer
harness
laf
replies
toughest
torch
endorsements
echoes
extraordinarily
grimm
profoundly
bruises
hpv
uterus
##cons
##urable
##mented
dove
##iants
strokes
belle
transp
##onte
europeans
##lamation
combining
speedy
entries
temporal
##wright
inherent
spatial
acoustic
daring
faint
##icans
##adena
exert
recollect
overfl
factions
nominating
seriousness
constitutes
trustees
wilmington
exclusion
ricky
renewable
adventures
fountain
fischer
olsen
##eous
##enthal
paral
sylv
provoked
maf
clearer
pasta
retrosp
1944
prostate
yields
confidentiality
mugabe
absorbed
excerpts
zombie
engulfed
feldman
##enburg
unhar
##iken
indul
proportions
mcaul
intruder
restriction
flagship
ratios
cocon
dolan
reactors
escalate
absorb
lodged
mumbai
mcmahon
lash
mates
shade
##agher
lebron
arise
marj
defiance
concession
radius
neighbours
##oof
favorites
shipments
roseanne
dissem
boundary
excluding
reassure
appalling
unreason
##ubscribe
archdiocese
cott
puff
sears
wm
##nity
##birth
touring
beacon
##aders
withers
heavier
handsome
dissident
ironically
withdrawing
stimulation
resemble
resembles
ftc
allergic
mathematics
shapiro
vapor
##gent
##hey
thief
##enos
choked
trove
sped
plastics
becky
infin
demograph
##weather
defends
memos
prototype
##iolet
distances
volks
rupt
napa
hormones
havoc
alvarez
confronting
lauderdale
6th
hump
hates
jae
##bons
shear
trades
claud
##itte
medics
browns
schedules
influx
rosenberg
pearson
##lifted
allergies
glyph
cafeter
tribunal
mcauliffe
##pan
##arts
shred
grizz
contends
discomfort
metals
mccart
rollout
observes
deductions
euph
tammy
seinfeld
halftime
egreg
tying
vt
unim
##oused
relates
prefect
medically
impart
##raf
locks
gloss
economically
obsess
turb
communicated
ecology
beatles
palestine
abandoning
shameful
scalise
vampire
stricken
censorship
kur
rook
##onium
##atement
##around
reese
##adan
feas
backward
glas
sonar
selfish
gods
hamid
caroline
touches
enhancing
insistence
eligibility
##hardt
assailant
reminiscent
unharmed
lum
##got
brod
grains
finals
baroni
wolfe
##iyah
shadows
kercher
manipulated
##angelo
patches
autonomy
bruno
intoler
oste
raleigh
tarant
newfound
accepts
##gee
strained
##ryn
subt
maure
sniff
activate
costing
prosecuting
ceos
auditor
punishing
venus
foia
stripes
flavors
benchmark
correlated
bounty
stereotypes
jpg
ikea
remnants
ctv
fen
hats
nug
##lane
sap
##usp
##estra
tricks
spared
crap
coates
##airie
superman
moran
surprises
persian
sailor
sabot
jod
lashed
matur
rasm
##alyp
doyle
##ovo
invention
undergone
thrust
surged
needing
peta
palo
veterinary
methodist
durst
gabrielle
predecessors
homeowner
eisenh
blizzard
bere
bates
fibr
mating
##lis
##gow
##xia
unhealth
bris
owning
30am
ladder
dimensions
##scale
cosmic
obstacle
categorised
narciss
anatomy
commemor
ineffective
bj
lec
rove
##vic
foundations
socks
heartfelt
piles
subjective
mandated
harassing
rebuke
implies
wielding
tanzania
rohingya
fulton
lumber
acet
floyd
probes
variants
moreno
escaping
inspected
unlock
undo
floodwaters
shrug
brutally
tampering
kerr
privileged
brewer
cud
cctv
##nis
sho
##user
elk
skype
restart
octop
verse
deliveries
islamabad
khalid
graphics
rampant
validity
clifford
lodge
bonnie
wen
exh
portable
iraqis
oslo
instrumental
magnet
siri
dyke
erected
rhythm
vinc
##amas
##illers
##ghans
##luded
schn
subcommittee
authoritarian
globes
##rington
goldstein
theranos
grabs
narrat
remedy
unofficial
##wagen
shor
pluto
co2
warship
patents
awl
##ycles
controllers
grenades
borrowers
peggy
orchestrated
wichita
kara
ti
##osate
##illes
goat
afghans
##herent
grac
##avi
informing
143
179
specialty
constructive
dreamers
sighting
astronomy
pasadena
peanuts
voyage
sculpture
haiyan
omin
ruff
tau
##fly
##ilot
brakes
scales
invoked
weekends
arche
declass
nominate
stonehenge
affiliation
fernando
undertaken
quarantine
caesar
dmitry
glyphosate
a€
cess
sigh
tep
yuan
fork
offence
workout
##ieri
engr
homo
misuse
martian
squir
sensational
methamph
regulator
poorest
objectives
bono
hastings
##ommunic
caves
tad
exod
recapt
##amaz
defenses
publicized
juic
jointly
grayson
reacting
cyberatt
rabbi
sibling
##lifting
indirectly
kramer
perspectives
exempl
maureen
tir
yaz
outages
cohn
desired
handy
connects
badge
mccull
chooses
emergence
derailed
ignited
ventures
bulletin
tolerated
masturb
paso
buttons
ecosystems
incarceration
cyan
flet
hath
sorrow
watt
shane
##iba
##track
objection
infur
##photo
##cribed
320
lobbyists
rafael
kendall
dancers
guerrero
cly
##kers
##inally
##arro
wast
twent
decept
roe
entirety
strengthening
stressful
wiret
skeletons
mathematical
blooming
volkswagen
woes
##rup
fortress
##unts
phony
recurring
defines
millionaire
metric
122
administrations
stepfather
kidding
patrols
waitress
strait
broncos
notoriously
brewing
ancestry
cummins
foolish
accumulated
abundant
trevor
unmanned
lure
rena
rewritten
##ulse
spiel
offline
helpless
defund
protr
diff
slov
nightmar
menop
50s
generosity
unsett
lewd
adjusting
punishable
compensate
embracing
moderators
ribs
inserted
gavin
reeves
degeneres
lak
##jad
##rea
rejo
##url
##opathy
##oka
##obs
imf
scent
##orne
##ometry
##anke
waiver
maternity
conditioning
religions
bowe
saudis
exposures
swimmer
strangled
##ibrand
marrying
spontaneous
therapeutic
nascar
##fight
pric
##imi
##tra
marble
attach
wrench
gunn
begging
torso
venice
blankets
outsiders
lebanese
apocaly
arbitrary
lazy
chattano
endangerment
cerr
vr
##oqu
##34
##85
##aney
ish
buys
barcl
skys
certification
morales
benign
considerations
##ochond
harmless
intervened
jordanian
tallest
assertions
gamble
##enzie
convenient
granite
##ophobia
##zan
chapp
activation
entour
miserable
revived
faq
sectors
barricades
parachute
annoying
curfew
##fax
##inates
##arus
##etric
hears
yous
##ipted
pervasive
##quis
blink
##ratory
rests
cnnmoney
shortages
checkpoints
briefings
arabian
bells
prohibiting
dwind
negligent
heinous
flickr
wizard
ely
yen
frames
goof
##ensed
discarded
passive
responsive
succumb
despair
practition
sensory
intervals
darling
terminate
tackling
adulthood
kepler
diarrhea
fletcher
mistr
wwe
broth
swelling
streamed
costumes
urugu
destiny
panicked
laboratories
420
hanged
pedoph
teddy
upsetting
dodd
axis
untrue
unavailable
ultrasound
uruguay
pb
tapping
##ocity
orang
newer
plut
weddings
employs
146
25th
sonoma
legalized
shareholder
husbands
##burger
consultants
infrared
perpetrator
exaggerated
serbia
persecution
sebastian
chattanooga
##waves
##a€
##uy
##olin
##iga
frig
##iche
##text
contacting
financed
approving
berman
restricting
counselors
disgust
distributing
neuroscience
nolan
cale
ping
##amil
##ivities
brac
##ospace
bankers
voicem
benefited
conversion
##armac
naomi
elders
handguns
midterms
neglected
intoxication
##patrick
apocalyp
whopping
kot
sao
chatter
traction
allah
compuls
perj
carmen
monter
highways
joey
detrim
chrome
caliph
realised
##ielder
snacks
circular
documenting
pinned
translates
##osterone
infringement
rousse
mesa
sok
inund
##ouched
comr
##pps
##aternal
walg
simpsons
##ercuss
doubling
unpleas
dubious
reprints
supremacists
retweeted
aggregate
axelrod
cambod
##mund
repercuss
herz
enables
airlifted
elaine
transc
pubmed
footprint
gallagher
vaccinated
coordinating
astronomical
whisper
portugues
hefner
deutsche
synagogue
frontrunner
nond
##horn
reeva
pry
outlines
amus
##quette
vehement
##lux
faulty
lyon
scarlett
libraries
corpses
hydro
pesticide
sesame
kessler
lund
mesh
zoe
brass
##obil
phar
##izers
soaring
perp
##sole
coats
poop
provocation
servic
proponents
144
augusta
cleaner
occupants
commanding
gillibrand
disruptive
subsidiary
cobain
buddhist
hippoc
staples
yonhap
vintage
cis
gq
pag
##sty
##andro
##ousal
fluct
thru
genitals
confid
servant
mccaskill
malibu
advertisements
bulld
attributes
applicant
##friends
rosem
sedan
rationale
portuguese
capped
panda
##esi
shining
traps
ars
adolf
veil
organised
unsubscribe
selena
transporting
exercising
physicist
precipitation
descendants
kemp
entourage
8th
gt
pike
##rical
rewr
##emma
##arden
obstruct
##issible
buoy
antide
broadwell
dreamed
macar
levine
orcas
hulu
##cz
##escent
##oso
fraz
strand
facto
groundbreaking
garrett
battal
transplants
insurgent
apt
laps
dob
prescriptions
detr
slay
statesman
procession
piled
downloaded
kaiser
gifted
cosmetic
unfolding
underscores
glasgow
unhealthy
avert
baked
dpr
jub
kass
xl
##hall
forged
unesco
spun
spelled
claw
acosta
apples
reliance
massage
philly
bowling
hypert
reminding
manuscripts
ponder
shirley
##kr
##bd
choke
webc
presby
scathing
likened
##group
moammar
growers
tayy
algorithms
hefty
dvd
glucose
kindergarten
roster
xml
zinke
##vp
rethink
##olk
prairie
##ersion
sage
conan
chloe
##unc
enr
clippers
##orman
consort
##ahe
patton
swearing
boyd
superb
gerard
foxnews
rosie
wealthiest
listeners
wynn
jarrett
lgbtq
misunderstanding
horizont
proliferation
journals
kagan
plaque
complement
quiz
donovan
indy
discounts
spokane
snoop
280
cheated
examines
advisors
soror
##writers
inquirer
privileges
resemblance
sampled
freezer
honeymoon
rahman
vibrant
fowler
nairobi
vaugh
##comb
##icter
frantic
clam
caravan
##ensibly
showers
##ussy
authorize
##umble
amazed
capitalism
##henko
weighted
torres
warranted
omaha
exemptions
morocco
macdonald
dion
dong
lively
raff
##itas
##irable
wasting
seym
carbo
stricter
lawson
consisted
downst
efficacy
starr
mening
devote
frontal
collided
okla
songwriter
beaver
ashore
elimination
prolific
asteroids
giraffe
ignorance
nieto
egregious
raging
##31
##step
abide
busiest
denuclear
172
mitochond
upright
excavations
skiing
analytics
affirmative
kazakh
seymour
loun
piers
rour
wahl
##89
##ivation
elites
refinery
embod
##afa
mindful
drawings
wishing
hangs
ipod
recipes
await
outpost
mathematic
squeeze
fresno
outdated
unpleasant
cues
##lean
forem
hepat
##chang
yearly
noises
openness
diab
panther
castile
spraying
oddly
prominence
jerem
disgusted
jihadists
plunge
schneiderman
duggar
forge
##activity
carne
airliner
##rof
barron
continents
salah
mcqu
totals
curse
curator
coaching
nickel
conception
illustrates
cortez
discourage
seaside
admiral
fiercely
antidepress
laced
raced
##vine
##inent
angr
console
fraser
##ulia
herd
resorts
acclaimed
recorder
##ensional
poets
##places
murky
develops
lows
admired
dangerously
burnett
controversies
concluding
sickened
calcium
boosted
repealing
leaned
tags
hartford
manipulate
isaiah
reinforced
superscript
uniquely
ubiquitous
rourke
dots
lend
lenders
ply
tik
uv
##mus
prag
byrd
##artan
amen
peek
phi
drift
flatt
souls
calvin
destinations
roundup
munoz
##ontinental
lecture
heterosexual
apocalyptic
stacey
branson
##atta
gregg
modi
candl
funn
golds
educators
rodgers
mechanics
besie
##archy
illustrate
excavated
pontiff
vikings
wandering
nitrogen
forcibly
repercussions
tayyip
dop
hare
hinc
zaw
##acial
##amel
##eart
unic
clutch
presiding
myri
talents
revision
audition
coastline
countered
##ega
deduct
pumps
skulls
horns
skeletal
verte
rows
render
ticks
beers
##ivable
newcom
flare
##inkle
contributes
statutes
goodwill
##yside
pollster
##ijah
satan
missionary
lasts
reconstr
jurisdictions
thunderstorm
vendor
toxins
apocalypse
ail
##card
##inth
atlas
offences
crick
##ango
brazen
fetch
hinds
replica
ernest
technician
rehearsal
confiscated
gravitational
overthrow
foremost
linger
shaming
orion
##ieu
useless
posture
copying
mortg
autopilot
kidnapp
disneyland
bathrooms
collaborative
tackled
smells
pokemon
methamphetamine
mau
oks
sands
tapper
##bull
##oshenko
fris
##oplan
swollen
sentiments
extortion
geophys
distressed
painter
characterization
baylor
lesions
tragedies
concentrate
accompany
attracting
incarcerated
mitigate
cafeteria
faded
lig
##lia
churn
theirs
##iza
formid
##river
filters
testosterone
raul
distract
161
devin
legalize
commissioners
##oshi
yellen
collapsing
injections
vendors
vernon
kensington
paparazzi
mafia
##amiliar
dill
eats
##uve
shun
sax
adele
crab
premed
coaster
researching
funnel
contributors
preventive
exceptionally
tonnes
dwight
disagreements
receptors
exodus
ef
ginger
vowing
vista
xen
##iator
##ht
##alan
##oufl
##elines
##ells
amelia
emory
##amps
neighbouring
malala
compliment
recommending
sequencing
deposited
salvation
upgraded
mcgowan
mascul
seafood
gowdy
pasc
sq
##bm
##inelli
##ilis
backwards
imply
deplet
rooft
121
systematically
irving
situated
singular
erratic
felon
successes
apparatus
extrav
fatality
unfamiliar
houth
begged
chapters
##guided
scanner
cynical
##vaney
manifesto
narratives
ktv
exams
overh
storyt
possessed
restitution
forehead
physiological
turf
casts
discriminate
interpretations
lambert
infantry
exclude
mantle
aspirin
charismatic
booze
tenth
##roft
suspending
50th
hearted
morally
apparel
emergencies
browne
thankfully
planting
bernanke
semester
honorary
consisting
oxyc
loads
forums
ostensibly
ld
sings
uva
##nick
herr
housekeeper
sliding
gerry
determines
dresses
850
reconna
pumped
rasmussen
carbohydr
fences
##su
thy
lepage
plas
explode
fairfax
melted
cerebral
lester
embassies
prostitute
rudd
baghdadi
solicitor
looted
elegant
onlookers
##ommunications
skyscr
hippocamp
presbyter
cinn
jos
yuk
trinity
knit
##integr
swear
bests
ensuing
trailing
spiral
exceeding
latinos
diamonds
airplanes
carnage
anthropology
restrictive
conjunction
trespassing
unreasonable
dd
dyer
napol
sock
##entin
spong
##aprio
compact
##achers
coerc
thriving
discontin
convened
camoufl
equifax
circadian
destined
unsur
regulating
necessity
##onymous
ivf
departing
blasting
vulnerabilities
##iculum
omn
overlooked
rahm
microbial
snipers
inhabitants
sinal
thes
withstand
##estorm
##alling
##lude
headphones
treason
misinformation
despicable
hacks
aquatic
encrypted
cbp
rhetorical
dprk
aiding
kale
zuma
##ui
reich
##stick
##adder
##igs
aldr
decay
slid
kidman
paulo
maliki
crowdfund
rapids
blueprint
khal
ramadan
1956
royals
pdt
mulvaney
stefan
dicaprio
dictionary
bam
gently
pax
##kg
##ente
##stant
##ulary
##isting
drastic
colts
providence
skate
leveled
enclosure
satirical
woodfox
clarification
affiliates
bait
bogus
formidable
pint
##si
##hed
##87
##esch
##isman
##urally
##agua
##oco
gob
hadd
upscale
readiness
policemen
protestors
prosecutions
sheriffs
hurry
jonah
detecting
1959
ventil
zachary
ernst
spearhead
unilateral
bounds
eul
penc
##lair
ingr
##adic
preston
conrad
##opl
##agara
##avier
metre
meticul
semitism
calculation
chickens
aerospace
uncontroll
kurds
pirate
merchant
compassionate
poultry
cache
uw
##uper
##bold
anita
##itant
reeling
aloud
##akia
##akov
##akable
spit
compartment
relevance
goodness
easing
jackets
escap
erickson
athletics
tuna
ghana
excellence
hindu
gastro
consolidated
winters
sleeve
cowboys
mccartney
lured
mado
rd
##idis
##amic
sule
spor
disin
interm
stature
centr
eden
##unders
setup
pops
powerpoint
sixty
fuller
searchers
ideals
landf
keyboard
santos
1948
deception
scripture
inherently
laptops
##bags
frenzy
honduras
mortgages
sinaloa
bikes
nay
sas
##rom
adorable
sykes
elena
##atural
124
blackburn
varies
groundwater
hunted
##exts
frankf
magnific
patriotic
frieden
enterprises
##occup
##iggins
coulter
kratom
bah
tory
##oit
dept
grieve
simulation
datas
hopper
forcefully
disperse
standardized
1947
antonin
slamming
##espie
reliability
intermediate
a3
oy
rica
hait
deeds
abram
bravery
##obl
evap
remake
apar
guild
poaching
misguided
bids
restrained
spreads
abdom
ruiz
intensely
epidemi
taser
bipolar
kalan
ricardo
accommodation
stirred
accumulation
interfering
demographics
madoff
kkk
nus
tara
oft
##oly
fringe
beforehand
proclaim
##oxide
motions
combative
castillo
##ycl
cardboard
disappearing
taping
underscored
bureaucracy
awlaki
dn
roc
slick
waff
##yd
weber
groped
incurred
drastically
peripher
firestorm
strings
induce
realignment
journalistic
mccr
personalized
##unta
encouragement
cyst
retribution
transitional
warmth
flashes
flanked
vests
##fam
##bath
##jet
topping
rech
##utable
bark
charred
gluten
entang
jeze
crises
negotiator
corporal
spirited
triggers
navalny
adjustments
incorporate
braun
surpassed
##zen
##jack
shay
chore
##aggio
seg
##ecting
downey
refere
##erville
mommy
sonia
professionally
variant
ceremonial
lieu
inquest
ringing
foam
tragically
gillespie
clerks
undercut
erdely
jaws
dehydration
mirrors
cerruti
jezebel
dwell
qaddafi
vie
##tub
##agic
peaked
fein
flashing
##issy
showcase
investigates
airs
elton
skating
##icester
complied
stockholders
sirens
rewarded
ancestor
bentley
applaud
feces
grammys
suzanne
##olithic
nafta
vince
wires
whim
chants
leicester
quipped
contexts
skirt
realities
##she
modeled
pathology
bayou
spanning
1940
guessing
ravaged
avenatti
bystander
kud
yog
##hh
toled
onion
##esting
afor
countryside
131
147
copied
lineage
emeritus
inappropri
ninete
##keepers
hijacked
puppet
bravo
whistleblower
prenatal
veterinarian
nonpartisan
tumultuous
##anan
##otive
arist
amusing
stray
132
supern
advertised
madness
derog
comedians
limitation
laurie
shroud
kristin
bergen
preceding
richer
vicinity
aspirations
razor
metabolism
myriad
jensen
congreg
acids
##anski
mari
marian
blanc
quir
getaway
thrill
factual
149
varieties
closes
ruby
proposes
telecommunications
demolition
hathaway
kapp
nino
xvi
##ieth
##fun
##alc
##adors
saus
decry
coli
infidel
evenly
vein
provoke
convict
##ecker
initiate
scheduling
berk
hype
1955
dissatisf
asserting
colombian
deprived
unintended
federally
alumni
2d
osh
qat
##non
##idan
##thals
congest
bricks
residency
graf
decency
nightly
humili
mexicans
biologists
hurdles
locking
dissol
disagrees
moderates
carcass
vanderb
resilience
paycheck
stoneman
perjury
hinckley
kand
kub
pn
xbox
##orio
##asis
abh
ari
knights
##plan
harming
lett
seeming
executing
murderers
recognise
tearing
aziz
dilemma
alexandra
verbally
loopholes
##mandu
oksana
aa
bung
sizable
##wings
exterior
reclaim
slurs
afflic
jude
romania
ruler
tomato
recognised
armor
machinery
poorer
definitively
elliot
cowork
fisherman
kardashians
argentine
aux
rituals
thirteen
neanderthals
pepsi
dejesus
reconnaissance
dul
dull
fost
##pable
toast
rejects
whipped
shrim
plum
resett
relieve
quar
companions
esa
pathogens
hawkins
retro
supplemental
deteriorated
rattled
sokol
bav
cels
och
##reens
atf
envelop
bras
impover
nationalists
mae
antagon
travers
malaria
felix
chicks
##lecito
colonies
echoing
bridget
avenues
technicians
cedar
lochte
cinnamon
nile
##atient
##atism
haar
##oden
seizing
##ementioned
playoff
calder
curriculum
understandable
turtles
analysed
fatty
contracting
trait
circumstance
vastly
satisfying
hemorrh
classrooms
jamaica
gynec
renaissance
plasma
aforementioned
biod
dared
sv
##nard
##kl
##cor
##cam
##cup
##fits
##sted
##abulary
##ectomy
soot
scant
blurred
##orned
##encia
##eka
surfer
smelled
judgement
134
choi
primates
williamson
biot
macc
semen
darrell
kristina
undermined
melanie
unexplained
nudity
foresee
abdominal
aap
nipp
ying
##pour
##oum
reapp
stain
heist
asd
plume
mee
couric
barre
huma
indicative
packaged
evacue
1942
swims
ellison
renewal
ingraham
baum
mitigation
certificates
coveted
receptor
blatant
appellate
downstairs
vanderbilt
elic
jagger
##vc
##orthy
##isse
##iscrim
##omas
stor
unthink
amc
grilled
bluff
medved
medina
skipped
queue
reinv
hungarian
tucked
indoors
moisture
kalanick
tid
ump
zak
##log
##fw
##eco
exor
resusc
##inejad
##rolet
handler
squar
logging
1954
pledging
optimal
overdue
rodrigo
toilets
solemn
dictatorship
johannesburg
hepatitis
rita
ting
##vation
##bane
shul
##usable
##ucus
wraps
136
damning
401
choir
huang
dogged
psychologists
branding
restruct
constraints
progression
dissolved
bolst
literal
habitats
sophia
whitaker
fracture
microscope
siberia
disproportionately
contagious
monastery
lenses
mous
toomey
##imps
bynes
reptil
##uddin
##ustomed
incest
suppression
discern
takeoff
believers
violin
midtown
chevy
councilman
mirac
controller
thicke
inflict
mullen
intercontinental
lancaster
chevrolet
kham
##quist
##eke
souza
missp
histories
antip
erase
resigning
strengthened
automakers
rangel
deduction
scarborough
rotation
recruits
sewage
simpler
flanagan
commodity
battalion
inappropriately
bing
het
kom
wj
##naires
##lies
##bital
##inum
spa
##okia
ames
polk
schwe
showc
transmit
pais
candle
stafford
veron
bushes
unlocked
diners
liabilities
splitting
automaker
spectr
fantas
sioux
uganda
chefs
bounce
hydra
fend
£5
##rent
##atics
##ilst
alarms
##ocytes
##allah
clocks
soaked
deme
defl
centrist
khou
commercially
kilograms
viktor
tatum
ignorant
contingent
croatia
##zal
chol
reprim
gogh
clut
schr
##crunch
##perform
possessions
sollecito
superc
babys
ensued
culinary
rendering
pixar
pauses
discredit
kellogg
claude
caliphate
cush
fd
fonda
tus
##eto
chy
spiked
sheila
evade
recurr
blanch
demp
metall
glowing
denounce
encamp
sharpton
tracker
crossroads
cyclist
symptom
jerome
1937
casualty
preceded
chatting
##keeping
posterior
disgraced
diminish
contraceptive
lexington
oswald
shutterstock
paranoid
besieged
unsurpr
dess
nanny
sore
##kat
##daily
beet
##store
##uliar
##asey
##ishi
elijah
sunken
improb
unfounded
mayoral
##maid
shipment
barbec
footh
unconv
fractures
rsus
staple
coconut
banners
foes
ropes
sich
vinson
##rano
##onder
##enting
##odo
herbert
brake
mang
para
specter
righteous
sugars
angles
##ameda
sawyer
suffolk
towel
neurosc
cyt
dimon
sevent
deploying
psal
utilities
sandwiches
shaun
kadyr
robbins
monsanto
vehemently
damp
guts
pits
tarmac
vance
##iently
ingen
##asive
##imon
##orting
reboot
balancing
dismissing
tangible
grenade
guitarist
niagara
euthanasia
humiliation
resilient
peculiar
plummeted
philosophical
medvedev
pensions
##arc
alameda
crump
pert
buenos
annoyed
elle
lauded
juda
midway
homin
embold
collectors
239
pretoria
workshop
matrix
skyd
dimensional
nyse
kirsten
dickerson
detainee
variability
lecturer
ambiguous
##haus
##itud
atoms
phosph
backer
captors
gunpoint
mcafee
rodents
##blue
gaines
forensics
fulfilling
theoretically
broadcasts
outfits
nostalg
kazakhstan
moy
s2
vect
##ativity
inaud
anterior
##ampton
itv
##esson
guad
glance
teamed
hourly
profiling
pacs
ignition
treasurer
disclosing
robberies
championed
exceeds
perceive
cumulative
hypocris
pavement
roland
##kell
##69
##eliness
whilst
haired
abiding
##ogene
##ublished
##actor
belts
staten
skyr
greeting
oppression
wording
portal
primitive
ballet
mountaine
dolls
snowfall
strengths
stresses
bathtub
nautical
darwin
pyeong
integral
tarn
errone
accomplishment
plagiar
ethiopia
angrily
presbyterian
beng
gott
kitty
lup
##arie
##ivated
adren
adelson
groping
pey
elvis
filip
slipping
harbour
debit
processor
##igroup
australians
330
motivations
mariah
decreases
hypertension
hikers
vip
##park
##orient
stacy
##abi
amyl
intuit
carlo
attic
commute
geography
urinary
##govern
domains
roadway
safeguards
capita
popeater
aspen
motorist
qualifications
niche
naples
myths
orbital
therapies
wide00012
monopoly
spielberg
consortium
impoverished
tug
tighter
##itano
deir
centres
elector
fares
starvation
kinda
designing
germanwings
crawling
villa
transferring
taller
installment
creep
galaxies
dividing
glamour
acquaintance
python
downplayed
ominous
squirrel
awe
giles
##anian
stahl
##amy
artery
outbound
willie
canv
expires
##assic
##enship
remarked
simulated
##ounted
strewn
interviewer
mcmath
palmy
canceling
hostess
intrusion
stockton
utmost
bullsh
buckley
flavored
sweatsh
spoil
##olia
aron
##iko
recep
anguish
texans
accessing
cereal
isolate
mouths
lamented
sewer
kaufman
surroundings
prosthetic
scooter
diocese
menopause
##arbon
afters
outward
grape
allan
mylan
bett
regim
endurance
refined
conservatism
roadbl
citigroup
biases
characterize
pathways
therm
techcrunch
lewinsky
laurent
molested
indictments
composer
unveiling
##thritis
ethanol
loophole
fellowship
carnegie
vertebr
inaudible
fade
mats
ozz
pawl
##rag
##wc
##gado
##cock
sah
butch
##obic
emil
projection
humidity
glin
judgments
singers
trustee
saras
blankenship
astronomer
mummy
cpac
adversaries
paused
jorge
redskins
bows
fats
kd
oaks
##slist
##idad
fraught
##ichi
##berto
recap
counc
depiction
probing
concede
goodwin
calibr
marches
homophobic
burgers
behaved
olf
registering
honorable
acquitt
1957
1952
dorothy
lobbied
jaime
clemency
bakery
vagina
pupils
michaels
amusement
palmyra
eternal
wart
##oi
adhere
emo
feathers
aires
campaigners
vii
fung
panhand
##ophag
senses
sprink
doctoral
1958
barrow
altar
unveil
imperative
shinzo
amphib
celsius
skyrock
ferv
klux
sasha
yar
##kids
##wire
##fm
##eder
stained
##image
trian
adobe
plumb
##aval
invision
##reatment
##plus
edgar
##working
persisted
380
cocoa
mansour
silverman
banging
disrupting
craigslist
ahmadinejad
stabilize
redistributed
swirling
spawned
frazier
toledo
unsurprising
£2
prow
seahaw
enrique
clusters
agon
overview
removes
##auch
##iversity
instincts
conducts
potus
policymakers
extraction
##steen
cataly
1941
vitro
worsened
mcguire
barclays
premeditated
hypocrisy
councill
bard
dina
##stra
exoplan
offend
##icht
##aceous
meditation
calves
embro
##lerosis
marketed
admire
gradual
suitcase
##peace
dorsey
orchestra
##theid
mushrooms
theodore
gull
nir
##vable
##bitt
toes
haqq
dex
abby
canine
timet
contamin
##weigh
modify
costco
homer
forefront
grandma
citations
sensible
madele
definitions
qualifying
selecting
warsaw
kathmandu
overlap
mosques
helmets
wolff
clowns
apartheid
burch
dag
jade
lilly
poke
sri
tarr
stacked
##allen
amar
overp
contended
showtime
demons
insured
##iera
wellness
sanaa
valuation
periodically
rapists
fills
dismember
temperament
dominic
gadgets
kalamaz
endangering
lesbians
deprivation
melanoma
chalk
painkillers
betrayal
caleb
haaretz
kalamazoo
cgi
fx
foy
surn
yor
##veston
reim
frat
leis
brawl
grisly
##oba
bladder
relay
asserts
elm
allev
classics
##shield
approx
unheard
enthusiasts
dislike
holloway
samaritan
merrill
burgess
aesthetic
magnificent
pyeongchang
racked
##ti
##bee
sak
conjo
arter
willow
marx
prefers
roast
subord
protagon
denouncing
banana
domino
##etermin
curtain
garment
acquiring
assumes
exhibits
muscular
telegram
smoothly
glaciers
undermining
nutrient
linguistic
withholding
shoreline
gliniewicz
madeleine
bs
ie
lp
##oza
##law
##°c
saves
##alled
cliffs
outweigh
disdain
interacting
parano
mccann
1949
pigment
reproduce
disparity
disparities
mischief
penguin
tranqu
zurich
unthinkable
judaism
bild
gale
ks
##hurst
##43
##itures
##isal
##igham
manic
qui
numb
sexting
latitude
heartbeat
moratorium
##orrent
inspir
berger
rapes
soundtrack
##egal
ample
towed
rumours
loretta
plateau
jihadi
abbottabad
pfizer
dorner
denn
iod
kyr
kron
varg
xavier
zoom
##iners
##aments
offending
clarks
expulsion
accustomed
standpoint
christi
commenter
finalists
unfit
armen
horowitz
ambassadors
treasures
loyalists
portraying
jacobson
scanned
stalking
fabricated
revered
schemes
humiliating
hugging
jad
kra
nah
oust
##chy
hauled
##apnel
##asta
guessed
senegal
memes
idf
sloan
##aughlin
humming
glover
mighty
snag
snatched
majorities
analog
lineback
miscon
totaling
hairs
picasso
1940s
daisy
shrapnel
1939
quantitative
validation
explorers
##lyssa
geoffrey
autobiography
triangle
meryl
##bay
##75
##emate
plotted
ama
scav
##quin
##ixed
exploding
##cester
halting
magnes
treacher
275
mindy
notebook
fleming
scarce
vocabulary
gorillas
poroshenko
reluctance
subpoenas
mcgrath
trivial
jug
vain
°c
progn
printer
shaft
##ifier
exter
haskell
norris
cameo
distrust
multin
blockade
fortunes
fueling
gentlemen
ingested
voicemail
horizontal
lapse
pess
pussy
yas
##mill
inver
##opal
arming
outset
incend
decap
##rats
redempt
pai
safest
badger
accessory
periodic
##aurus
vanilla
pathetic
imagin
rhino
rosetta
papal
folder
masse
phenom
tanker
steadfast
notoriety
coven
mickey
humiliated
proprietary
volcanoes
witherspoon
rookie
conjoined
nast
chained
hairc
uneas
graz
monumental
relocated
booming
skipping
freight
deterrent
windshield
malta
counterfe
cube
reflective
maximize
wardrobe
argento
undertake
orbiting
residual
rugged
sacrificed
hewitt
ezra
pilgrims
shabab
attributable
sabotage
deceptive
nightmares
bisc
eph
kb
lister
rin
rican
tilt
shiny
sabr
##ainable
brood
aman
canaver
mayors
visions
risked
angola
excuses
templ
##ophen
greenwald
thomson
roses
structured
casinos
prominently
huddled
groceries
abdulaz
congratulated
deteriorating
penguins
stubborn
arrogant
gaze
irene
mens
poc
##79
##66
##jj
sheryl
friction
repatri
crooked
knuck
##athom
##weet
harms
colleen
##esha
##ukes
neurology
galvan
consequently
masterpiece
kayla
knoxville
fulfilled
supremacy
stimuli
replicate
swallowed
overlooking
frankfurt
magnesium
dl
dann
##dar
##mc
##cot
forrest
isle
##ocating
unden
205
brighter
amassed
marquez
monsters
helium
demean
slipp
slashed
handsh
forceful
pollut
accessories
competed
greenpeace
##uka
permitting
platinum
installations
exploiting
gigantic
kathryn
insulted
mimic
hodg
phylogen
alpine
affluent
coded
pom
pony
##new
##aad
##uard
##bly
##itations
alum
exe
##awar
careless
wrath
autograph
smok
insanity
stats
simone
redef
judith
##shaw
trey
generator
hurdle
optical
overseen
morton
springsteen
environmentalists
mourns
pattinson
anatom
addictive
multimillion
leisure
biker
stellar
shouts
ascent
##esters
outing
statistic
endoc
barker
photoshop
154
swam
lima
milligr
expresses
ovation
snowstorm
fetuses
barnett
discounted
kendrick
unrav
goddess
impartial
camouflage
evacuees
zen
neb
ley
evasion
ems
couns
quitting
firsthand
smashing
childbirth
turnaround
30th
faction
estates
babylon
satire
ensures
follic
barbar
dodgers
reefs
levinson
neurosurgeon
discrepancy
warplanes
rewrite
aftersh
sarasota
bale
yiann
##via
touting
ofac
##estown
overre
rulers
versa
faults
##hrer
irrevers
intimidated
gusts
thornton
fronts
dismantle
enraged
jeremiah
lakers
tet
yrs
primate
##ithner
chern
##oday
goose
##elles
brushed
placent
##ogo
crest
##ikov
interven
invaded
autistic
retali
reflex
##affer
irwin
##eshi
toni
bowman
shelly
torped
bleak
java
scramble
carcasses
wholesale
cyanide
derogatory
paranoia
kash
lament
rer
topless
prints
##opr
chau
##bermann
monk
addicts
syl
coloss
regained
explores
geithner
admiration
bloggers
rodger
installing
wireimage
huntington
##farlane
weaknesses
mclaughlin
bolivia
napolitano
crowdfunding
cpl
cret
fod
faw
vile
##hots
##pas
##pret
##edience
##ooks
##ucous
assurance
strive
rooney
postings
harlem
meng
payout
stealth
fallu
shuttered
berm
mandates
catches
tasting
tightening
punches
rigid
obliged
gateway
hoodie
sketches
paradox
##rieu
separatist
keefe
nexus
wahlberg
4s
alyssa
cw
fb
gree
g20
oder
wah
##ienne
##gren
##cion
##alach
hemp
chu
bred
##ipiac
scars
##aterally
figur
guarding
hopeless
365
truthful
ramifications
dimension
cumber
disapproval
endeavor
landlord
traumatized
paralysis
unimagin
dempsey
##itudinal
faux
murs
ripping
##gd
##asa
sailed
##iveth
exits
orbits
brigham
##avia
perch
commuters
##athed
##erga
138
petr
baseless
immort
237
conclusive
stemmed
elyse
bots
kaf
##live
##jin
##aracter
chech
##ococc
sput
sphere
203
goog
worsh
amos
manit
caret
depict
researched
debun
procure
##sworth
lesley
stressing
noticeable
renegot
randomized
fascist
swinging
2022
noonan
eclips
smuggled
parallels
enriched
quinnipiac
recycled
daytona
brokered
illusion
candlelight
bhar
dazz
fus
hale
vor
−0
##fil
##61
##igail
##amins
##amoto
chow
tramp
##istine
##istical
herc
bracing
agr
thereof
remini
thro
insec
lookout
##lander
transf
terrest
sanitation
139
entom
winding
misery
satanic
presenter
undet
darkest
lyme
diagnoses
galveston
reconstruct
decreasing
##ilitating
squadron
tumbled
tunisian
swallow
wandered
abnormalities
rousseff
korn
pipp
wifi
xx
zam
##jev
stif
hailey
weibo
##oda
spans
##avis
plank
boiling
raiders
virg
footsteps
biomed
doubles
positioning
decidedly
wwii
mortem
circumc
translator
kilometer
tonya
fabulous
mgm
subdued
hilary
landfill
amyloid
embroiled
multinational
huss
tand
vald
revere
##olta
cheng
notch
spate
disob
implying
boast
condone
159
##swick
behaving
digs
royalty
subscriber
pelvic
##falls
##walks
gao
snapshot
juveniles
paradig
coronary
euthanized
kobani
##cephal
shrimp
biodiversity
adrenal
seahawks
4chan
##lob
toured
onsl
isi
tril
orte
abigail
partnered
governed
deform
realise
landis
landrieu
customized
audi
scripts
traffickers
ethic
pillow
feminine
verteb
remembr
mishand
chandler
fayette
alibaba
##a€™
1m
harg
muss
nokia
ole
pors
vets
##game
##vian
asym
alask
hagg
timed
manned
cara
##qua
defied
watergate
sana
holed
pots
morality
improves
combines
##oshima
blinds
737
exploits
whitman
cavity
urgently
##people
gonzales
ascert
unleash
lancet
commodities
kaplan
algeria
orphan
inexplic
brisbane
demeanor
incendiary
dud
##heed
##bid
##reb
##olis
dee
spank
2050
crock
myr
impasse
158
scripted
witnessing
vacated
salesman
punishments
empowered
renee
batac
meteorite
##zyme
algae
piracy
puppies
velocity
scrolls
energetic
fertilizer
jellyfish
overshadowed
chaffetz
terrestrial
bong
ej
gee
pug
waco
##omagn
sto
outlining
upi
indie
scha
ops
defor
prevailing
radically
multic
precurs
recognizable
gatherings
dismay
interpol
assemble
validated
javier
ozone
brunswick
loneliness
infert
sofia
sacrifices
vasquez
booed
implanted
eccentric
plutonium
sorority
emoji
bataclan
bona
ejected
mound
yulia
bew
##ady
truman
fliers
remar
redirect
##igraph
focal
paints
lof
sharia
averages
louder
advancement
vigorous
toddlers
compromising
kisses
repealed
tailored
sobri
vetoed
seawater
paralymp
subdivision
hammered
reliably
siberian
articulate
##aheim
ailing
lank
sled
##eau
##etus
alamo
relocate
inducing
boil
hotsp
squid
oxid
conspiring
impressions
##olitical
renting
unreliable
motorcade
newborns
baffled
ktla
unequivocally
wrenching
5m
sothe
tlc
##100
##oula
##agle
leopard
marrow
monoxide
flipping
paj
irvine
##white
janice
sixteen
footprints
bananas
marketwatch
primetime
challengers
assistants
bedford
attribute
astrophys
sucked
jerk
poisonous
warden
stringent
postpone
hesitate
reyes
screwed
guru
assailants
biomark
crystals
bullshit
timetable
linebacker
sotheby
fum
hulk
mst
sald
tup
ves
vagu
##word
##elo
##ecks
chats
unres
plowed
upbeat
disintegr
posthum
legends
rightly
swipe
##ynski
predatory
garn
osbourne
crawled
olbermann
flux
dimaggio
caucas
undertaking
squeezed
stockpile
interpreter
mitochondrial
wartime
hof
lsd
witt
##base
##78
anaheim
##endra
draper
wrapping
guiding
edmond
nationalism
testifies
greets
geek
pottery
privat
staffing
similarity
##queen
hurtful
ghom
hampered
drafting
railing
fascination
reassuring
sinclair
cypress
distributor
bourdain
bragged
##abilia
bribery
housewives
detrimental
chyna
kph
##lene
##yah
##arized
hex
ald
byr
worms
brom
agitated
usb
phases
scour
continuation
##bride
misses
glend
geology
##parable
britons
malt
rebutt
panthers
eighteen
packers
sensing
lyric
memorabilia
casually
renamed
stimulate
kidneys
acquittal
dicks
lact
muk
##loff
fray
orca
##derm
feather
##ryl
insign
membr
##media
schoolgirl
barra
secretaries
bodyguard
footing
parkway
burlington
273
lifeline
attribution
obamas
mountainous
piper
sucks
foreclosure
nicely
reversing
incapable
prefecture
restructuring
dashed
##42
##staking
cone
weary
cland
allocated
partisans
consular
warc
centimeters
debacle
hospitality
148
romans
lara
painstaking
##opsies
birthplace
abduct
galile
beautifully
rowe
##iciencies
andreas
desktop
carniv
grenfell
zeit
bragging
antiquity
unsealed
auctions
duct
vulture
##gates
##ouk
atom
206
carrey
indisp
teller
metrics
profanity
devised
episc
cannibal
290
screenwriter
tearful
newlyw
emphasizing
perpetrated
welcomes
lagoon
hijab
littered
reptiles
clandest
dans
ek
fuzz
nos
sack
wack
##iative
##pes
##adata
##imet
uphill
##erica
turnbull
messed
erased
24th
turtle
310
##flower
alcoholism
comparative
daunting
unwitting
accommodations
##organization
arbitration
dartmouth
trenton
##journal
pascal
ortega
danced
eich
hess
jes
lul
##uh
##eler
peac
##inkel
inscription
presse
slater
employing
nonvi
divul
kelsey
osso
avoidance
cooperated
consistency
ramadi
strategists
exercised
cruiser
wrecked
fascinated
hubbard
rendition
defectors
vpc
hutchinson
dhaka
caregivers
yiannopoulos
jagu
##eight
##uania
##41
leve
leigh
accred
noel
blitz
##ondition
slender
erie
volley
tenants
apologised
trailers
mentality
lockheed
ferrell
theatrical
resembling
parasites
prestige
cvs
execs
disguise
monterey
lettuce
bode
dai
ebert
gou
gey
s3
##anders
enzyme
adhd
nook
donnel
apes
##ahar
metadata
skid
halper
coping
limo
germ
##ylie
sweater
detectors
falk
harmony
bradford
automotive
retirees
tightened
accomplice
molestation
sinister
avengers
lithuania
jacqueline
liaison
scrapped
macarthur
kappa
greeks
binary
benson
fisa
fiveth
lansing
maced
tones
##number
##busters
##stood
##style
stool
shoved
wrang
poignant
efficiently
filner
maver
visually
billing
162
mcgee
frontman
quicker
patrolling
apologizes
narrowed
neckl
novelist
calmly
mugshots
daley
evidently
leahy
avocado
feasible
vinci
tikrit
fivethirty
bpa
fiat
kisly
##oin
##stands
stig
asians
conve
deed
##ppe
adr
overpass
blister
deplor
##erton
nearing
fourteen
walton
greatness
deval
causal
packard
preventable
innate
entertainer
1936
hazing
vegetarian
inventor
congratulate
bruising
hiroshima
anomaly
dolezal
turbulence
burdens
unconventional
fivethirtyeight
iz
nhl
pue
ria
##otr
##illac
noticing
cro
drudge
quentin
desirable
supplying
mccon
vehicul
bloodied
understandably
##enchant
doubted
symph
storey
weakening
jetblue
sophie
shady
sidney
intimidate
ruthless
societal
disapprove
grievances
peyton
kislyak
ratch
##mb
##71
goop
canned
expands
marvin
quakes
defra
##affes
realization
safari
mural
davos
scrib
purdue
greenberg
1933
clinicians
inflated
expansive
imperfect
acceleration
tuberc
sympathies
submarines
residue
vaginal
loosely
duplicate
intolerance
episcopal
jag
rost
wii
wicked
yun
stash
##ocratic
bye
seac
##antis
crad
##trial
eliot
headlined
glitter
affirmed
copeland
diapers
variance
updating
breakout
##arrow
horrors
empirical
cartels
hayward
##olitics
regretted
screenshots
bursts
ribbon
mcgahn
extradited
gridlock
depressing
exhaustion
eisenhower
octopus
inundated
thesis
ventilator
nusra
extermin
pessim
sobriety
donnelly
gin
gid
guth
lacey
rr
ripe
thugs
##atin
frantically
brenda
outage
1900
insom
confessions
differs
paterson
glow
starving
visc
waterboarding
denials
rainfor
omega
humphries
##ourtney
mounds
pst
##sburg
##core
##itos
##ayor
spino
##osti
expiring
carm
downfall
snps
sonic
lars
misinter
bali
layoffs
perfection
##riminal
sync
sheldon
occupying
tailed
dictate
cortical
styled
commemorate
kohl
ripple
squarely
hue
nes
sask
##bra
##yf
thur
stare
heel
##cho
peb
disarm
##awled
ape
happiest
retreated
mapped
##enei
robbers
blackout
mcqueen
solst
rocker
verses
##ofi
bowen
persistence
coincide
##estration
lombardo
reinstated
buchanan
unmarried
wfaa
envisioned
cambodia
barbecue
alleviate
redemption
daly
lal
mald
mikh
##oton
reza
reprehensible
##endo
outnumber
appalach
counters
groupon
elis
runaway
bedrock
cubans
khaled
shelley
nasal
comfortably
resolving
##cliffe
uniformed
strangely
reunite
odys
resembled
wrestler
liverpool
architectural
puzzled
underscore
contingency
thwarted
bombardment
menstrual
cors
cured
hush
kumar
lc
td
wels
##rador
##iations
alas
chir
##antes
doom
disav
presided
quart
schul
hels
belize
##wayne
defected
##brush
balances
competence
vacancy
jurassic
adamant
##habi
dispatchers
unnot
somers
taj
cassini
stevenson
trolls
empowerment
chewing
chlorine
jakarta
adherence
kneeling
epipen
yelp
udall
bonn
boca
motto
suther
##hel
frail
nem
hailing
exhum
##ections
howell
##uchar
robbie
christensen
142
larson
roommates
morgue
cooke
towels
litig
vetted
toxicity
sustainability
capsized
contradicted
cyclone
emmys
lafay
onslaught
cuff
fret
gp
hanc
##taking
##vd
##isen
stagn
evid
throng
minaj
combinations
lyons
ticking
hangover
winehouse
thickness
wyden
obscene
retaliate
victorian
cochran
recollection
meningitis
db
fax
gs
kry
kourtney
ned
nel
##rik
##fin
thef
whirl
##ande
unab
##season
dover
mona
flir
flak
impulse
harri
bigfoot
criminally
awoke
traveler
keynote
countdown
forgiven
nicar
provisional
ayat
dye
anthropologist
hickox
1371
cremated
derivatives
encampment
improbable
##loud
##firmed
exiting
grig
disorient
perks
blades
serum
##ultural
courty
surplus
belcher
roch
playoffs
retention
handlers
universally
koreas
complains
fearless
lifesp
semif
breathtaking
rowan
haters
paddle
undermines
worsening
isotope
unaccounted
detractors
khamenei
##omagnetic
jails
lys
sip
tt
wines
zan
##57
##arin
uphe
carb
attain
sche
##azar
##rium
debilitating
suggestive
166
malone
cleansing
turks
##orrhea
legislator
purity
subset
attractions
diploma
perfume
mcdon
sequestration
evaluations
venge
youthful
desperation
innovations
aeros
eruptions
denton
miniature
heinrich
barricade
anesthesia
disproportionate
marjory
auditorium
porsche
ghomeshi
bis
nour
vucci
waged
##fu
frogs
##trod
##aryn
bloss
bliss
strips
coo
worldview
##nington
swarmed
rested
taxa
coptic
superst
travolta
sharif
psychopath
hawks
seminary
icons
funerals
nursery
awaits
siegel
obstetric
eduardo
refrigerator
resentment
hiker
ia
rund
wander
zig
##corn
##jia
thaw
##orig
canvas
relayed
flashed
newslook
joanne
longitudinal
airasia
avatar
opener
buildup
holtz
waived
crimean
texture
existential
dermat
olympia
liberated
cartoons
tighten
tentative
cadillac
scholarly
glamorous
underestimated
humphrey
expenditures
turbulent
najib
slippery
munch
zel
##86
wht
aless
arising
##herty
amish
polled
dooms
peas
compatible
attachment
guang
veiled
slager
mets
engel
programmes
reviewers
domest
##ruff
##ynd
trainers
semia
lucia
tarp
somber
repaired
spicy
intrigued
drummer
crippling
lounge
storytelling
uneasy
unnoticed
lafayette
aaa
kum
maze
yosh
##estones
##tsa
##ibus
doo
##ffe
needles
handic
##eworthy
156
redesign
hospice
176
collier
combating
sweeth
##ihu
luncheon
meteorological
seventy
harvesting
unravel
assignments
vargas
unimaginable
jang
kins
kobe
paw
tusc
yi
##09
##vs
##aci
heed
una
unqu
arbor
amr
##uea
scaling
##uca
decriminal
preacher
dont
demo
##orkin
terri
servants
sourced
cutter
hostilities
morale
livingston
bales
amazingly
settlers
memorand
tangled
bruised
pioneering
videotape
obliv
refreshing
cottage
nineteen
olfactory
bum
jc
nsf
wagon
##pb
blum
pretrial
regimes
delet
farr
devotion
freaking
nonstop
pauline
heaviest
screenings
rogen
professionalism
kidnap
ventilation
##spe
sticker
railed
obligated
coburn
stirring
mckay
stereotyp
sfgate
demolished
unrealistic
walgreens
exorc
inspirational
gc
koen
luz
latte
mch
##ilon
##olson
##ortional
clog
worris
scoff
overc
commend
coherent
tequ
edmund
hospitalization
incidental
##flies
logistical
neurode
calculating
icloud
pelvis
##aminophen
fundraisers
bubbles
analytica
bureaucratic
mascot
acetaminophen
vaughn
mursi
remembrance
sutherland
hig
kant
mits
riff
ronnie
sins
abel
incrim
sergio
termed
slack
handwriting
jobless
conductor
competitions
examinations
respectfully
madden
berkshire
muammar
hypother
fluores
harvested
scarf
anchors
hubble
astounding
bundle
coincided
mckenna
functionality
irrational
overrun
relentlessly
shaky
disgraceful
glorious
improvised
indecent
maturity
frigid
dap
ee
##pace
##elig
##illary
crafts
phoned
preempt
maynard
downright
defying
barney
harley
nighttime
swings
realizes
differing
commenters
embarked
##ecki
mccorm
##umbling
angelo
unpublished
comprise
quantify
rewarding
tacoma
feminism
istock
catalan
disgrunt
penetrating
videotaped
rambling
slumped
pissed
oncology
neuroscient
cretaceous
nw
tails
wo
##dele
##vie
##ilant
##leigh
congen
##odone
byron
carla
bret
barak
issu
141
waver
eyel
rebek
##banks
appointees
1946
mathews
gabby
buffer
collaborated
ayers
sinkhole
divert
stallone
##itrust
refunds
rugby
ludicr
annexation
disguised
bratton
intermitt
irreversible
biomedical
byrne
seacrest
odyssey
ayatollah
worrisome
cill
gator
hirs
lana
pell
wn
##ingen
##entry
crut
phant
scanners
decried
docs
sussex
antitrust
ageing
immoral
summed
jeanne
tvs
23rd
graders
trustworthy
teachings
shelton
tycoon
levitt
pigeon
pharmacies
akron
lorenz
vitamins
julianna
municipalities
celest
contradictory
veronica
dipped
gb
gond
hanna
miy
rite
##now
##sher
##hops
##idas
reins
storing
##urous
##opolitan
seating
crescent
caric
##inty
belarus
edmon
markings
starter
303
raucous
changer
basal
basics
218
generates
unsc
precincts
jewell
hershey
krug
empath
wearable
pods
assassin
premiered
arsenic
sponsorship
unseen
cryptic
surrogates
monarchy
golfer
hastily
lemonade
##cephaly
dorsal
ducks
ostr
##atops
##entary
##story
##usional
tripp
leib
plaqu
perished
##eye
ids
needless
edison
leftist
swarm
angus
mcne
crisp
melinda
dismal
dads
praises
hydroc
strawberry
bunny
toxin
cocktails
sotom
incompetent
brothel
yogurt
hq
iw
vog
zac
##rice
##elier
##ecr
shaved
##chq
pertaining
reconn
indiscrim
genomes
##alde
differed
orderly
listings
distorted
ceased
mistreatment
integrate
epicenter
browder
distributors
spoiler
adolescence
chunks
claudia
goofy
pryor
haqqani
milligrams
insomnia
mikhail
sotomayor
auf
cucc
dice
ih
pfe
##nuts
shocks
troph
arian
clout
flock
surrey
postd
boone
nationality
behold
skim
steered
##prom
##oxic
easiest
##forth
enclave
nova
arabs
splits
erica
automobile
complicit
afforded
mechanic
sighted
concerted
outsour
rancho
##acao
tossing
hanson
sudanese
digestive
hewlett
laureate
crippled
wiping
configuration
grizzly
declassified
slayings
referee
infidelity
phenomena
trilogy
courtyard
semiaut
disgruntled
tides
wies
##map
stard
##aday
trapping
weir
perdue
##inki
wedge
geographical
homage
labe
burials
bios
##owdown
mailing
telem
meaningless
1938
skeptics
antibodies
stalemate
resonance
disturbances
##ehler
grinding
abolish
repayment
acquaintances
unbear
exonerated
tibetan
repetitive
##boldt
eaves
psy
pelle
taw
tusk
##pop
##inished
inception
##iless
prism
wept
uneth
2030
polo
crib
upbr
mankind
draped
invites
belfast
##crowd
risking
geo
169
178
homec
futur
vera
escapes
340
##ochem
##namara
gilmore
cinemat
boomers
pierson
concussions
maddow
underestimate
retrospect
pawlenty
etern
eerie
fiss
hires
ips
pud
##erations
onetime
unreg
##alls
twists
##obos
surging
static
condomin
humility
swung
billboards
popcorn
##vester
superfic
bashing
waller
bader
misbeh
pricey
fixes
macfarlane
royalties
weaponry
dumpster
rudolph
cosmopolitan
morrissey
coordinates
lerner
cervical
schnatter
pragmatic
##dailynews
haircut
placenta
torpedo
clandestine
ossoff
kier
pounding
penchant
##code
##inia
##atan
sheds
##ocial
unatt
enlight
query
##uges
oph
ministr
poehler
concurr
retake
esque
communal
washingtonpost
stared
hardened
antiox
powerhouse
custod
extramar
greenville
walkers
lifts
clinically
muir
bathing
##ymes
##ewski
submitting
feroc
thinner
sneakers
bosnia
inheritance
perplex
sweatshirt
cuccinelli
extramarital
dix
frem
kop
luf
##rh
##rite
##hoe
##pic
##bil
##ono
inaction
framing
trill
evelyn
relinqu
himalay
colder
joints
##aird
edible
proportional
modification
protestant
epstein
motif
##ieces
eighty
unfl
pulmon
adjour
950
festivities
homelessness
browsing
scratching
cherok
threads
evangelicals
shapley
unilaterally
mundane
sylvia
pollutants
rebuttal
spinoff
solstice
condominium
sorkin
##iu
##hay
##ulosis
orr
spikes
agence
schia
gloom
connie
superiors
florid
felonies
rebuffed
seasoned
hurled
opting
osaka
plantation
papini
complicate
scientifically
frustrations
blindness
disruptions
bumps
hesitant
jokingly
rosemary
ozzy
fungus
plumbing
##etermined
intervening
hancock
labeouf
pawn
##cile
##aroo
congl
hak
grapes
upwards
##pta
##ques
mayhem
##auley
deficiency
speculating
edged
essex
152
183
keepers
currencies
devout
shortcom
respecting
uttered
bayer
riddled
1943
condemns
sustaining
##ogenesis
nydailynews
lanier
crowned
unconfirmed
cobalt
nuanced
utilize
taiwanese
disparaging
beneficiary
microcephaly
mcgill
prosperous
meadow
pyramids
depressive
jacques
cowardly
scrutinized
denuclearization
edmonton
shortcomings
fas
lh
ness
ober
##nings
##psy
##fest
##vn
notting
grueling
quasi
confounding
retina
glove
iris
proclamation
larsen
epoch
collateral
favre
ballroom
##ompan
capitalist
faulk
progressives
diagnose
rainy
spanned
jennings
##blog
departures
owing
1935
sediments
grossly
philippe
wsb
steelers
nuis
beneficiaries
accelerating
unintentional
laurel
pancreat
dispersed
basilica
hindsight
feinberg
sokolich
helsinki
antioxid
boll
##city
##onso
inhal
##otrop
##imo
conroy
##ourg
##arty
##apo
ploy
gru
likeness
overboard
overcrowd
trumps
coating
mediation
##ashev
sloven
numer
victimized
stepien
224
burge
misman
representations
africans
biographer
fortified
dreaming
progressed
rhoden
observational
##ersea
pitching
conceive
pillar
bartender
adaptive
discouraged
upgrades
folded
slaughtered
hovering
drifted
inconvenience
rcmp
pencil
sausage
treacherous
deforestation
tuberculosis
dime
dhabi
##aty
##edel
stink
orrin
manually
coated
##inted
serp
downstream
babe
epile
painfully
rescues
greenwich
bulgar
##asca
login
##iatus
kila
retrial
nye
stretcher
jammed
axios
deserted
hopefuls
ancestral
prescribe
telescopes
hsbc
disadvantage
vector
clarkson
cin
gated
gchq
raged
ritch
##pad
tout
##ilated
##station
##olini
prized
combs
##agra
##earns
plaster
emw
feast
syph
airwaves
playful
##weeney
barbed
filtered
sushi
1800s
robbing
numbered
163
emblem
##liners
advertiser
sociology
dinardo
##oche
diversion
earns
conceptual
cordoned
conveyed
beheading
gosling
extingu
suleiman
homecoming
sif
waging
theo
##anza
##ompt
##stones
asphy
##unity
imam
##lices
idi
milton
elbow
metz
viability
esther
irrig
stoppers
multipl
estimating
bulb
abdes
catcher
dickinson
dwelling
bedrooms
millennial
exchanging
algerian
drifting
chechen
domestically
cages
hb
kov
s4
##inence
##eners
inhum
whitt
alignment
abl
##iever
sclerosis
##sover
decipher
schro
underdog
veered
subgroup
millionaires
transgress
module
##coal
nonf
alma
responsibly
malia
accountant
mattered
##hammer
silently
horribly
comedic
ridden
bandw
liquids
dustin
implants
polyg
revolver
municipality
dysfun
spells
barricaded
forfeiture
revisit
corbett
panhandle
pippa
misinterpret
welsh
lama
lighth
paved
##andan
##orean
##endously
compounded
emerald
##icki
1912
boob
esqu
sugary
taxed
organism
immens
lois
separates
moonlight
motorola
booster
owls
1934
reconcile
markedly
reciproc
implication
collaborators
philosopher
artificially
stumbling
simultaneous
clyde
goldsmith
memorandum
hypothermia
abdeslam
lbs
##dc
##gm
##pub
##cers
##jay
forear
##adas
trous
##ortex
spher
##icef
##iao
##ogly
propulsion
southbound
##nalia
legality
##iji
rebound
rescuing
constituted
##rects
weld
sorting
480
barbour
foil
natasha
breadth
heinz
vibe
indefinite
reservoirs
shrugged
thunderstorms
iodine
guthrie
evidenced
cherokee
syphilis
bounced
fuss
garg
##lift
##uki
stag
reside
amir
##ava
reclusive
parapher
thrilling
downside
defunct
elin
identifiable
##aneously
pett
limestone
legalizing
cambr
distaste
visitation
penit
novich
unsub
frankie
nicki
tendencies
publishes
compensated
grossing
embraces
nicholson
ipads
kalas
taclob
untreated
embryonic
hypothesized
buttocks
coding
adultery
staircase
tacloban
aly
gus
gurn
pang
##gard
##ye
haunting
unicef
parsons
##hnikov
defy
slowdown
limous
boardwalk
circled
circling
bloodstream
cameraman
favorably
oils
psycho
##lantic
bowls
bobbi
skinned
mysteriously
plunging
fitzpatrick
inferior
shepard
coyote
corroborated
prudent
infuriated
orangut
hydraul
catalyst
ministries
paraphernalia
novichok
##imedia
chong
flaming
coer
parc
desmond
##aphyl
hardline
##anni
denom
divides
deepwater
biopic
diner
purpos
horrendous
rodent
olympian
bullies
alej
stunts
predictive
anchored
pronoun
cognition
expeditions
livelihood
cinematic
cohorts
analytical
grappling
diligence
bulldoz
sylvester
vaguely
2m
bamb
eased
hl
hunch
kern
lore
lyle
merg
rna
##oor
##kc
##mut
bearded
shrew
chate
trier
##eary
##sef
##apest
clicks
brody
plc
yearbook
##ogne
##ovis
monaco
##isson
apat
downhill
camped
provoking
delgado
charcoal
sexes
mcderm
equator
murderous
ignores
gangster
meteors
ninety
psi
stereotype
jeopardize
cremation
##lassified
uptick
aqap
skyscraper
amanpour
fad
hc
tame
##cence
##jiang
frisk
weights
inciting
earners
startups
151
libyans
physiology
balk
budapest
introduces
apologise
widening
bowed
bowel
conspic
visionary
tariff
comprehend
intimacy
facilitated
barefoot
populous
jasmine
nugent
unethical
upbringing
kilauea
emwazi
komen
loy
liner
taps
viking
##dal
##jak
whaling
##ecked
degrad
butcher
arias
broom
##ogical
meh
phara
soyl
emission
##onson
smol
humboldt
glut
severance
blackmail
antics
##annie
salam
puberty
mccoll
groundwork
collisions
physi
flyers
##ainties
navarro
selma
sarin
accomplices
fetched
uncertainties
giud
hartman
mcmill
coincident
mackenzie
pandas
tyrann
misunderstood
neatly
##chemical
paisley
doomsday
soylent
ck
wann
##vae
##omorph
##ulas
tric
spoof
##abl
peach
bele
warhead
##unda
antim
dias
212
sherlock
##uggish
merry
comedies
raton
ridicule
occupiers
shrunk
bulletproof
roofs
assassinated
beckham
tailor
dearly
drums
degrading
contemplating
crocodiles
lombardi
breeze
##withstanding
fahrze
unicorn
elicited
harriet
capp
fatt
nv
tpp
##cat
andr
##urious
##adia
oracle
leeds
##atham
donkey
mediated
desires
genus
genomic
delinqu
chartered
sims
##aughey
##insk
waterfront
snapping
harding
salty
devon
501
acronym
nonc
admon
mindset
fairfield
dinners
counterint
coldest
initials
truths
strategically
wheeled
hillsborough
##deen
perpetual
##zyk
shedding
##frame
##rovia
resurf
mcclain
microscopic
rusty
exacerbated
hermene
neonatal
unsettling
flattened
haitian
paradigm
ludicrous
phantom
bending
gaffe
nal
oj
pong
rails
μm
##rates
##lot
##iency
##aan
anast
##asher
saunders
##umi
unv
notwithstanding
aborig
compel
compton
invade
daycare
airfield
boiled
retains
##bru
captives
winchester
suspense
mcbride
mustard
averaging
nava
sleepy
khad
containment
hangar
mutually
foos
pornographic
steroids
pronounce
luxemb
muddy
descending
densely
smugglers
paramedic
pixel
rattles
landslides
peskov
sotloff
nigel
dysfunctional
cakes
tbi
##53
##gang
##erman
##atical
fridge
trot
##odr
##orte
##arte
haspel
alliances
##ovirus
expiration
flung
##oupe
centen
locating
authorizing
prevailed
payday
chargers
motherhood
##porting
erika
footnote
equals
revoke
designate
unfinished
ethn
##ezz
admittedly
freshwater
preparedness
stickers
disclaim
sedentary
dominique
##stalk
subsidy
scholarships
eyewitnesses
nhtsa
maddox
poems
coughing
marginalized
amputated
duffy
upheaval
##words
##mobil
##−1
inelig
##acan
prague
alito
conyers
##illi
chp
chee
##umont
##aby
aden
##ipras
manate
liking
monstr
indign
defective
boasting
slop
passer
saliva
libel
worded
##shell
frey
negro
felons
##psis
instituted
##aea
tripled
clicked
wilk
wilkinson
rosenthal
harrisburg
sticky
hazel
attractiveness
hedges
mildly
merchants
intrigue
empowering
maiden
winnings
cougar
dopamine
covenant
rebekah
ged
kaw
lte
oven
##icus
##igley
##ithe
##essen
##ocer
##aines
noteworthy
suarez
brisk
noor
monrovia
discreet
##riages
harrington
##aldi
este
snp
keeper
moose
closings
antique
environmentally
curated
ensured
louie
cabins
##iotic
switches
rivalry
transforming
bumper
utilized
bitcoins
tattooed
sulz
peruvian
voyager
bluet
thyroid
immensely
purposely
baking
cerse
hiatus
nsw
wylie
##lov
##isine
##oting
alberto
franz
upton
interl
##phen
delusional
farrell
syrup
centerpiece
##afr
ledge
sherrod
photographic
definite
derided
coached
tsipras
dragons
unwel
electroc
untouched
stumble
chatted
cersei
higgins
lipp
nests
pins
sweeney
##verse
##icist
itiner
manley
desantis
boos
retaining
starters
calam
swast
menacing
stewards
questionnaires
generators
mccoy
jeffs
organizational
470
heroism
narrator
radicalized
harshly
chimps
chevron
hoyer
obsessive
qatari
coworkers
approximate
canaveral
nuisance
luxembourg
eco
kah
lut
latt
pv
pumm
tc
##sr
##58
##dan
##vale
##bows
stut
stow
chili
##andre
sepsis
outland
quell
queries
pars
infinity
slopes
corrects
starved
watertown
deadlines
angie
camille
217
huh
optics
attracts
watkins
ridley
savopoulos
gonorrhea
##gaard
wikimedia
omitted
tremendously
liners
medalist
prematurely
resonate
swallowing
override
lithium
quran
prioritize
humpback
cyberattacks
succumbed
funniest
quirky
tarrant
fodder
kalashnikov
1a
jpl
kamp
pone
uf
##gles
##pi
sapp
brah
##ipel
appra
proactive
mila
businessmen
##grab
ideally
embezz
epit
constellation
imprompt
baltic
crossings
ambushed
insurer
madag
learns
detectable
lyft
finishes
brightest
predictably
nicola
rossi
portrays
tolerant
architects
bryce
sobbing
paragraphs
muller
vomit
cautiously
inconsistencies
cyclists
anomal
sliced
protracted
overheard
seventeen
geyser
impromptu
aung
bord
cig
gerv
jugg
lass
wd
##asper
chas
trout
##ustered
brace
twitch
##ansk
scouring
blur
monks
underp
downton
roasted
subc
lifeguard
muster
waivers
hopped
advertise
totaled
surrounds
pathologist
towering
appointee
taboo
juliet
rammed
reprieve
rawlings
akbar
1920s
puzzling
##oscopy
topple
fertilization
pseudonym
chimpanzee
mcdonough
semiautomatic
sulzberger
cern
hoch
horton
kod
mj
pcr
wimb
##otch
chilly
haunt
unification
excr
##ellations
brunt
flam
gupta
smelling
roaming
welles
##eneuve
startled
##ontent
snipp
##prot
misst
revamp
surveying
chaired
28th
cameroon
purge
##iscoll
precar
roberto
climax
rounding
heroine
complicating
fanning
wyatt
trickle
##aloosa
navigational
incumbents
injecting
scalp
culmination
jealousy
practitioners
ailments
bulgaria
bluetooth
outlandish
muted
mecca
sj
tester
vw
##93
##arat
##alk
##opod
unrec
spoon
arthritis
cron
allocation
##ledon
breeds
mao
##overed
christy
openings
connell
volvo
birther
fasting
molesting
barton
paramilit
tarantino
spearheaded
##occupied
mccrory
kandahar
regimen
precursor
thefts
bd
fading
kok
paternity
wob
##bite
andres
beams
shriver
chechn
wei
##ocular
##seat
noisy
recuse
assay
commuter
##ursion
takeaway
##nesia
patagon
facade
estes
stepmother
limbo
epith
encycl
expressly
marriott
capitalize
bedtime
traitor
mandalay
unprof
amygd
constituent
parasitic
patriotism
supermarkets
tilted
dismantling
exhaustive
crosstalk
infiltrated
sutton
incompetence
vallejo
ecstatic
prognosis
handshake
unbearable
excruc
gail
lust
ritz
tetr
##n1
##vre
##entown
##adino
##oway
fritz
##earted
abys
splin
carriage
relics
legged
transient
campaigner
redeem
##contr
promo
extensions
##enga
164
palae
tomas
legislatures
influencing
rodney
occupant
promoter
emphasizes
manipulating
fuji
theorists
prescribing
dupont
scratched
kirkuk
cherished
deterioration
icelandic
obstructing
maui
foreseeable
arteries
degradation
chechnya
icc
mlad
##hub
##mg
##inctions
toad
##ifference
segreg
clinging
##uben
driscoll
##actively
marred
##anga
statehood
infused
##arean
##ificant
cores
extant
girlfriends
ante
100th
looms
nbc4
##imester
##inole
garlic
dismayed
constitutionality
entrenched
chronicles
fluke
malls
teleph
##gregor
subsidized
2025
interrogated
friendships
isotopes
merritt
rwanda
wimbledon
excruciating
nach
rory
vans
##tech
##iliated
##chr
##emy
univision
exasper
agony
polished
wray
thrott
politely
recorders
weston
214
pollsters
sheridan
rancher
combust
floats
##ofsky
optional
tabs
reintrod
##spin
lyndon
ranchers
ascend
##aguered
bribes
slices
isabella
incubation
plymouth
waffle
bharara
infertility
beleaguered
cout
gyl
hms
io
lill
mullah
pity
tart
wavel
##liss
##dah
##tar
##uition
trimester
##uner
repris
brokers
drained
marino
##ishment
schiller
opm
endemic
disco
milo
botha
secondly
procur
hardworking
romero
youngsters
supermod
erotic
kingston
pretended
##marked
vacations
trusts
beaumont
drewn
stonewall
columbine
comforted
blowout
shirtless
alterations
steril
tremors
declarations
backlog
spoiled
mendoza
residences
trolling
koran
cascade
hierarchy
crumbling
misrepresent
gatlin
storied
unsurprisingly
insecure
nonviolent
nicaragua
lifespan
biss
bering
##kj
##loo
##54
##good
##uaries
canber
recounting
teas
indifference
suppressed
inscriptions
arrows
handel
153
182
##tenberg
cleans
intricate
extremes
acknowledgment
comprises
610
junction
maxwell
gravel
rabies
hatched
nupt
##zhou
buddies
discredited
renovation
peshm
resurrection
stamford
depleted
ineligible
cj
nope
pik
poking
sis
tass
zap
##erra
##alis
##utations
##oslav
##ulously
comets
encephal
marissa
suri
prover
editions
swell
##ricks
midd
announcer
llp
mcnamara
analogy
homan
223
burma
jeh
deepening
woodland
osborne
miracles
sweetened
cassandra
megal
lovell
channing
pediatrician
digitally
cultivated
finnish
priceless
carbohydrates
hippocampus
sporadic
necklace
gervais
wavelength
rife
sult
##niss
##fp
##adays
shasta
notions
leves
compass
overhe
monet
emitted
invoke
callers
nowadays
highland
highlands
knowles
poetic
subtr
barking
passers
situ
antid
sherpa
##uggets
intra
okin
hamburger
hallmark
rubbish
undersea
ticked
microw
mortal
exposes
##iatric
forestry
pillars
reopening
eagerly
distressing
namib
scouting
cvd
alligators
pundit
whopper
##leasure
moroccan
kangaroo
unmarked
wastew
aftershocks
retaliatory
immortal
hydraulic
canberra
bick
foe
fencing
tj
wl
##lough
##elope
##acements
leaker
arb
phthal
whichever
##eper
impunity
breyer
slashing
juarez
fathered
displeasure
alexei
favoring
325
fixture
willingly
sirte
sirius
intensify
rotating
cosmos
polarizing
bourbon
gastric
energized
crustace
amplified
philanthropy
awakens
hysteria
peshawar
bewilder
coerced
720
cms
kgb
tg
tect
##pen
##thans
##ivol
notifying
abus
spilling
clare
##oger
meats
autopsies
setbacks
fours
snatch
marchers
burying
##losures
commanded
icbm
headquarter
buzz60
anticipating
pearce
gwen
reluctantly
cypri
micropl
rhythms
mellon
beheaded
aguilar
catering
mummies
contaminants
protagonist
vertebrae
dickson
rainforest
elisabeth
amygdala
wastewater
dwayne
jk
papp
rue
##nian
##uette
##bot
##enb
altr
chung
leagues
polio
polanski
##assium
commotion
coeff
myspace
newsstands
##azer
majors
messing
culturally
conflicted
rods
literacy
brookings
jarring
grammar
sewol
dashboard
enhancement
pixels
ketch
bracket
downgrade
conscient
surname
unresolved
symphony
eavesdrop
hens
lous
linton
vying
zep
##du
##mor
##odic
repression
##abc
##apolog
##acker
willfully
##ipation
##quan
invoking
desks
pataki
##grown
potassium
mccarr
revisions
birch
foxes
squares
melody
unspe
correctness
utc
knowledgeable
pinch
enormously
stakeholders
strawberries
trademarks
olivier
sofa
uneven
mcgraw
incapac
lurking
maurice
disconnected
mcqueary
metallic
pulmonary
pharaoh
drewniak
peshmerga
js
koko
lach
suss
##edown
stoked
##emaker
hadi
mejia
drilled
maroon
overreach
attire
legg
engle
limp
lander
landmarks
loom
ballard
##holes
unsust
##ofe
kras
casings
dismissive
dunes
##gener
##claw
withdrawals
intensifying
collaborating
bitterly
catalogue
celebratory
hysterical
unaffiliated
coercion
tranquil
faked
fumes
loner
##imony
chib
unru
repar
plur
scold
stripping
statehouse
contrasts
downt
##uchi
filthy
shortest
furlough
typed
medicinal
sleek
tenant
cooks
computed
##haal
bobs
##addy
enjoyable
sucking
ghosts
wolver
hendrix
mckee
lizard
kunis
interpreting
dwindling
comrades
extravag
hussain
inhumane
unsubstant
chateau
gimm
jing
nit
tijuana
##uero
##zad
##esda
stokes
shand
weeping
##ivar
unapolog
hermann
worsen
doha
##aviolet
carell
demint
minivan
fins
directives
believer
farage
redisc
captioned
mole
radon
27th
combing
voicing
cavern
worthwhile
jewels
mailbox
derrick
seminole
banksy
experimenting
caveat
ultraviolet
capsules
napole
benton
accumulate
yanked
resurgence
derailment
chromosome
stitches
mccullough
antidepressants
koenig
trophies
unsubstantiated
bian
dotted
xxx
yum
##qa
##oui
##isz
##utting
gripped
expel
cozy
teased
callous
helena
backseat
infow
schoolchildren
deadspin
mcf
lightweight
caj
fairbanks
garza
screengrab
matri
terminally
##door
symbolism
tanner
habitable
##john
demonstrator
rioting
humorous
mugshot
possesses
scratches
artifact
ferrari
wipes
peripheral
pnas
caretaker
faulkner
hib
jd
nodes
rath
sacks
vouch
##np
##wash
##zing
##estinal
shea
clamp
manig
knicks
##ishly
secession
schae
insecurity
veins
swoop
programmed
viewpoint
petrol
supermoon
summon
riches
##ueless
commonplace
cheet
persever
jonben
neuro
hellen
discriminated
mutant
verdicts
collapses
gestation
fascism
chronicled
tumble
bethesda
fugitives
mislead
##iazza
disposable
remedies
tirelessly
chimney
sleeves
ushered
aguil
discrepancies
transpired
warships
kidnappers
congestion
barbaric
hirsch
schiavo
nottingham
jonbenet
bellig
cuc
deng
kink
nau
sly
##gc
##aren
##then
commissions
cologne
deprec
desist
apiece
roan
roaring
moderation
furor
diaries
distanced
auditory
hyund
shoplifting
scandin
##rante
nyu
ronan
cmdr
navigating
penetration
apprehension
dividend
cafes
horizons
dehydrated
skewed
dessert
superficial
belliger
fou
kitt
noses
pach
zamb
##tec
##bels
##omics
stocked
##acom
shave
##illand
unner
repell
afar
clovis
crank
##uble
relic
donuts
pressuring
##ograd
##rata
communion
creed
snook
snails
distracting
archipel
eroded
baba
heartbreak
circa
vehicule
beginnings
disposed
jonas
derby
##meh
mujah
1951
retracted
conspired
999
maple
gadget
dictated
boucher
molecule
nassau
dealership
dormant
mockery
consolidate
enactment
inexper
anecdot
bloomington
osha
emboldened
yorkshire
anatomical
debunked
blistering
hyundai
caz
henth
lange
scept
tink
##leys
prer
##iral
##opods
strap
edits
barth
chrissy
simm
receipts
colleg
uncondition
enclosed
wilde
benefiting
##hany
seldom
armour
smartwatch
papad
sickening
cooled
bleed
tasman
arranging
phenomenal
bluntly
bosnian
alvar
awakening
seabed
crusade
unaccompan
eradicate
paxton
unaccompanied
gosh
verg
wk
##iagn
onions
##econd
##thorne
tracing
##orexia
##ipa
usern
inco
##avers
attent
workings
obstr
mayweather
##urnal
redwood
184
snub
powerless
halle
deviation
specializing
immers
immature
hotter
##being
##array
##ylene
rubbing
eleanor
queer
krak
oligar
evacuating
freshly
ramon
owl
royce
gillum
[...]
