[PAD]
[UNK]
[CLS]
[SEP]
[MASK]
!
"
#
$
%
&
'
(
)
*
+
,
-
.
/
0
1
2
3
4
5
6
7
8
9
:
;
<
=
>
?
@
[
\
]
^
_
`
a
b
c
d
e
f
g
h
i
j
k
l
m
n
o
p
q
r
s
t
u
v
w
x
y
z
{
|
}
~
##a
##r
##c
##s
##t
##i
##u
##b
##j
##e
##d
##0
##7
##2
##l
##h
##o
##n
##g
##8
##f
##x
##1
##4
##m
##9
##p
##3
##k
##w
##q
##v
##y
##z
##5
##6
th
##er
the
##in
##on
##at
##en
##ed
##es
##or
##an
##ar
##ing
in
an
to
##al
##ou
##it
of
##is
##as
##ic
##01
and
u2
u201
##om
##ion
##re
##il
##ent
##id
##el
##ot
##le
re
##ay
be
wh
on
##st
##ut
st
that
##ol
##ct
##ur
##et
##ad
for
##ve
##ow
pr
##ig
##ly
##am
##ch
##ers
is
##ce
he
##im
it
##ir
was
sh
##ter
##ation
as
##se
##ith
##th
u2019
sa
al
##ver
de
at
with
##ld
con
fr
##ere
##ill
##est
##op
ne
ch
##um
said
se
##ess
##ul
##oun
##ate
##ck
ha
##os
tr
##us
com
##ag
##un
we
##ort
##igh
##ment
his
##and
##iv
##ak
##pp
##od
##ain
un
u201d
not
##ear
##if
u2019s
##ist
##ore
from
by
ex
are
##oc
su
have
##our
or
##ould
ab
##ity
##art
this
sp
##ant
rep
but
has
##ies
##ight
le
##ial
##ab
##ie
u201c
##em
##ive
who
##all
##out
##ap
##ud
they
##ok
her
##gh
##ast
##ust
##ect
##ice
ar
go
af
en
she
##ack
new
##day
##00
off
##ell
##ost
##ard
ad
##ome
##end
cl
##cc
wor
##ia
br
had
##her
pro
pl
were
##ich
##ib
res
do
year
you
##ated
##ge
##ound
out
will
##ary
pol
am
say
about
cr
##ide
##ik
gr
me
all
##ip
been
more
##ans
tw
##age
up
##ough
##ub
ag
##ong
their
after
one
u2014
pe
##tr
##one
##ally
us
can
##ous
im
##der
tim
##au
##ine
201
fa
##ence
man
##og
comp
inc
would
##ber
report
##ident
##ff
##ions
no
ph
##iz
exp
dis
##ople
dr
##pt
people
##ian
when
##ther
acc
##ue
int
ev
so
##own
which
app
##ign
pres
##aw
##ure
##ord
##lic
##ely
per
there
##ake
sc
##ac
mar
##so
##ook
##ame
##ire
##av
car
##ile
part
##ose
than
##ite
##ations
what
##ind
##ass
##ied
##qu
some
##ach
also
##act
##lo
lik
state
##ump
rec
over
##ail
##ors
just
te
inter
kn
mon
rel
##ase
##ical
its
em
coun
att
##ree
him
fir
##ts
##ish
if
bec
other
fe
ro
##ey
##orm
##ict
act
co
inv
two
offic
any
time
work
comm
ass
str
##ens
pre
qu
##ates
##ents
##ild
##ublic
president
##ory
##ick
trump
##ance
##ink
##ov
sec
##ace
get
##ec
##orn
##int
##able
##itt
##ep
how
##amp
says
##ater
could
##ath
day
cont
them
##oll
##gr
did
ob
into
##oss
##ond
may
police
##ek
##man
##erv
my
jo
dec
##ause
like
call
first
##ings
our
##ty
##enc
##cr
##ang
##ade
u2019t
##hing
fl
ind
don
bl
u2013
##ult
##ition
years
19
news
##we
##fer
ever
##other
##lud
law
phot
wr
##iss
##ious
par
told
add
##ry
bo
##reat
sch
##pr
show
fam
hel
med
now
cons
back
under
last
sy
##ily
##urn
##eric
col
##uct
##uring
##ery
##fore
rem
wom
includ
inf
stud
ear
##ues
because
found
des
americ
thr
##ouse
##ug
##lect
##ons
##ational
week
again
##oup
##are
most
op
before
##ood
##ife
high
cour
##arg
where
##way
sur
##old
only
bel
##ove
dep
bet
##iew
cap
##vern
supp
##wn
old
##ual
dem
min
even
##ah
##anc
govern
gu
po
want
##ating
know
##erson
while
invest
official
your
##ork
##ise
##ities
contr
##ton
aut
##ft
sen
during
##ited
##oth
##ording
form
house
##ased
##eral
reports
##alk
sm
lead
down
every
being
right
way
resp
war
##aking
reg
then
##uss
child
according
##illion
imp
##ro
those
det
long
gen
##ra
##ama
##uch
##ince
these
200
u201ct
ins
##vel
##ert
many
def
made
mem
##olog
##uc
ter
bu
through
nor
post
##umm
##ful
##les
world
##ocum
##ier
think
##elf
look
family
##istr
u00
10
cent
docum
investig
##ivers
end
##ee
public
##oci
press
##az
##ting
camp
000
##ote
##ool
##ible
##ash
##led
id
##ather
air
##atch
##oot
##son
mil
kill
three
month
##ments
##ning
##he
help
make
##bs
##ific
compan
summ
##ank
##alth
see
own
##ward
ap
fin
##ives
countr
sign
##ected
##ether
group
going
mr
though
very
serv
prot
conf
person
well
need
government
home
##io
disc
still
##gan
should
plan
against
support
inst
##ix
ask
##med
##ying
auth
arr
near
##ph
##ative
prov
play
##ody
##ys
republic
eff
school
##ists
##als
since
##urr
court
##xt
such
spec
read
city
ann
face
##und
obama
##lear
does
##ics
ed
##land
##urs
elect
bus
leg
##ently
##ope
##ri
##ages
loc
life
##irect
##ange
attack
##min
##ned
take
document
including
polit
health
##ged
much
##ween
##ren
##ollow
dif
prob
between
##ner
##br
conc
happ
el
direct
##air
associ
national
times
around
white
rele
called
follow
ser
belie
another
##view
##ave
##nes
bar
ve
##atur
ret
bre
##ale
sou
##ital
fil
contin
##omet
death
##ock
ma
hand
put
women
##rat
##its
##ene
ke
case
set
york
sub
##ower
iss
del
##ime
vide
start
20
million
author
##ret
states
sl
##earch
research
##ency
##ision
tell
officials
##ull
night
##ces
cond
here
both
miss
##ility
##ms
char
##augh
head
##bers
chr
sim
##cent
capt
north
##artment
##ular
##ient
##ution
##att
run
intern
har
sun
##ually
##ived
##ott
##ced
##ets
good
univers
##ior
num
former
##ark
##ened
met
##wh
trans
##let
##ount
find
inform
##ered
##uck
wed
mark
appear
##ress
used
democ
story
##ized
##hip
use
prod
##aign
country
campaign
pat
cal
##ief
sex
##ved
##hn
pass
american
cor
hum
##ines
##iving
##ina
company
ref
##ven
spok
big
never
##ants
four
##ject
summary
quest
russ
let
##used
adv
later
didn
tues
##ained
photo
tuesday
reported
##over
##iday
monday
far
children
##ew
somet
percent
sever
##app
##ention
same
fri
photos
statement
##ling
test
prev
democrat
friend
##per
prop
##osed
u201ci
expl
##read
tak
secur
##ins
john
turn
##lish
left
es
media
##ald
##gest
talk
care
##ont
##aim
commun
today
beh
##ness
sk
12
##ism
##osp
washing
fed
11
days
mov
##iver
##gress
sus
university
##ax
fact
##ger
spe
blo
##itter
##aff
15
poss
sw
requ
department
hour
team
washington
vict
real
##ified
vi
video
alle
##ern
office
##iel
##nesday
wednesday
information
security
stand
##ric
cre
differ
south
##ains
red
men
##ures
next
fire
milit
got
friday
##ately
##ney
second
##ued
woman
united
aff
conv
##line
##ison
##ister
30
associated
##ving
##ised
##con
##res
prof
claim
##erg
sent
##ices
rest
mo
vis
##ever
##ll
##str
thurs
exper
thursday
##iness
la
##ience
whether
##ize
ac
##ele
##book
##ason
shoot
gre
point
##loy
che
pa
bill
record
mod
win
##iting
art
##red
ste
took
few
ra
asked
susp
come
##ared
av
pay
##stem
##ony
watch
##cept
twitter
clear
clint
gun
jud
place
hist
##up
really
stre
##crib
party
too
##ially
study
##ically
top
charg
mus
##ided
several
water
est
star
county
meet
##yp
##ute
vot
opp
might
clinton
pop
deb
system
killed
least
##ined
came
won
dat
without
##thing
##aring
##enn
##idence
each
viol
##ames
allow
##ety
federal
syr
partic
why
saying
emp
terr
lot
prom
ir
##ley
maj
proc
##form
rece
among
something
##tern
hosp
ris
youn
##els
sug
facebook
crit
18
members
##irl
eng
went
number
##til
business
##ured
seem
##bc
black
less
ext
republican
ident
##ittle
main
incre
dead
sunday
great
invol
ca
##oney
image
sour
best
major
##ators
distr
##ases
caption
sn
##ended
##iam
power
##ator
##inal
human
little
##ds
##rem
##ional
months
##ves
five
order
san
early
oper
past
##gram
##aph
##side
saf
admin
taken
away
arrest
##ury
sit
girl
mich
u201cth
known
hard
##self
military
13
twe
deal
##co
##ense
##ann
keep
program
##une
lo
stop
##arch
area
interview
##ending
christ
u2018
mid
u2019re
ant
data
build
soc
open
announ
##eng
##ral
move
secret
jour
seen
polic
mean
based
until
##iven
##by
morn
##iff
victim
list
proble
view
val
##atter
however
##velop
##pl
spokes
hospital
cand
kore
shot
##ush
mother
curr
political
##ology
investigation
tax
administr
things
ge
park
u201cthe
##ought
pos
organ
##nn
mur
effect
return
suggest
morning
develop
likely
earl
sal
##ipp
center
##ane
##ike
wrote
drug
##ox
##sh
consid
occ
##ides
##gin
##ands
hol
chang
tech
##nal
14
##unch
small
mom
##be
##uary
##ians
##ails
##orney
net
acr
attorney
hal
employ
##ering
died
six
money
committ
inj
##orts
fight
threat
199
pot
##ired
16
exec
##ones
##ready
##icle
##acy
released
dev
hours
25
rom
using
2016
authorities
added
##ably
protest
social
##mber
##ways
walk
ago
already
general
##ird
##ogr
body
class
son
fund
##akes
dav
ju
march
sol
sing
earlier
cover
product
service
must
describ
2014
den
mass
close
u20
believe
##thers
search
full
anal
50
question
level
import
priv
chief
local
step
free
17
change
exc
congress
making
food
interest
##ences
feel
##aining
others
working
##aged
##urch
book
hold
young
##te
gl
##iously
##ection
risk
jan
link
calif
kid
colle
activ
journal
mess
different
name
along
u00e
candid
satur
doesn
event
across
##my
##ature
##for
##conom
econom
evidence
##oub
##empt
live
lib
election
##use
hill
refer
lar
saturday
##less
control
arg
cop
vir
outside
##port
pub
better
yet
##ults
##ember
director
once
##oved
fre
able
trying
kind
2015
history
pet
##work
##amed
senate
thought
cost
administration
mc
ple
father
2012
##ico
ang
process
recent
america
ent
fun
2013
##sec
dam
officer
decision
west
cnn
##lished
shooting
coup
officers
fall
reach
confir
thing
short
international
##aughter
u202
hom
arch
always
##par
age
rul
ide
decl
having
##oke
medical
##stand
friends
##ten
tweet
eur
##ising
sand
eas
##lex
hit
leaders
cut
give
special
conn
rad
crim
er
pal
##ield
larg
grow
##ted
u201cwe
wife
continue
treat
tex
late
fail
perform
cust
donald
cert
incident
flo
fur
lim
following
##bi
##ape
execut
rights
civ
techn
repres
typ
street
foot
respond
##inc
##ction
given
100
comment
vote
possible
staff
strong
began
enough
imm
hide
bank
fig
community
heart
di
##igr
##aper
##itor
##ination
trav
speak
relations
##ried
doing
canc
ur
apr
laws
important
room
film
within
##ask
##uit
##sel
oct
##ively
sept
lear
weeks
line
land
##utes
republicans
wall
policy
##sy
love
behind
held
##erman
himself
tog
prison
aug
22
##ars
impr
scient
boy
##ential
legal
civil
wa
prosec
taking
notes
issue
led
emb
##ites
##ilar
##itch
enter
flor
##ler
mag
fore
##ograph
alleged
cam
lab
tells
##tt
##na
april
become
brit
site
russia
started
californ
21
##ees
orig
##most
u201cit
unc
judge
bab
saw
u201ch
agency
##ida
share
someone
non
40
meeting
shows
bur
24
##atic
bad
los
##ivid
mill
##ances
fac
meas
parents
##af
done
u0
equ
##cement
##gy
addition
page
california
attempt
wanted
getting
half
side
famil
light
##rop
deter
lat
nearly
presidential
together
hot
inside
bor
students
complet
wasn
glo
port
discuss
##ession
related
july
often
host
nation
anim
##ference
tre
board
##aps
rock
u2019m
actually
looking
guard
##ulation
##ories
terror
discover
##ization
##ibut
happened
##iter
##vert
sure
stay
bir
##ats
fut
##den
june
##medi
je
email
review
wind
murder
large
front
phone
low
billion
##ission
##itions
job
yes
lost
##body
##go
researchers
##ening
ep
respons
russian
##itive
##ither
foreign
hop
thank
##ium
##irc
aw
americans
neg
##uation
similar
hope
##ead
simp
sexual
check
address
force
further
uk
ey
var
##sw
paul
targ
##ana
agree
mcc
conserv
expected
pict
town
super
suff
represent
third
gener
foc
##gn
daughter
init
##ael
ground
certain
david
europe
##ify
##ighb
##get
##ne
pain
result
individ
neighb
committee
almost
collect
anything
##rael
mot
account
immedi
syria
romney
##que
democratic
justice
images
texas
israel
2017
leader
##oon
involved
personal
china
scre
##imate
circ
mis
fel
u2019ve
rob
doct
##uction
game
##ped
##ows
online
individual
##umb
div
##aily
design
rev
future
tot
charges
tem
secretary
stat
source
nom
##ccess
clos
lawy
korea
minister
compl
flight
mal
market
lives
action
##ring
democrats
##erc
ill
resident
cho
contact
vol
couple
##lam
announced
mor
##berg
release
received
nothing
rich
angel
##ault
coll
opt
webs
geor
##uff
##ades
bom
daily
##lement
sold
hus
u2026
##thern
deep
district
project
##ai
florida
upd
##oy
poll
building
protect
bas
appro
hun
aust
profess
##yr
whose
bro
##ored
particular
suspect
cases
heard
signific
dom
##uters
arrested
instead
ver
##upt
published
2011
problem
cele
mult
reason
ban
prosecut
##ode
questions
break
victims
##ients
##ots
tv
advert
spokesman
matter
access
##onse
michael
repl
const
understand
trial
veh
##hood
##bert
comes
weap
isn
quick
cred
became
##band
##uce
##ming
23
toward
response
##dle
travel
reve
dise
fell
key
internet
##ps
##uel
space
##por
church
request
##though
obs
##iod
recently
bring
prim
##aced
grand
##ental
##ibility
dist
coming
present
described
##ints
role
desp
##uge
jack
enfor
u201cs
##rew
cell
##uz
##ij
##ters
enc
launch
alleg
htt
avail
##ample
fem
conference
##ett
sup
road
makes
relationship
##aster
scene
##omp
network
defense
race
surv
term
anyone
##yan
chall
success
period
pick
seek
ll
bene
although
##anger
##eal
soon
celebr
leave
##ift
broad
##fic
safety
earth
vers
ce
series
fbi
surve
##ino
consum
##eech
concern
final
indust
env
phys
esp
tom
island
gold
groups
calls
issues
198
##aft
location
speech
##ench
private
##acter
gave
tried
blood
trad
sher
appar
member
visit
attacks
worked
##yn
phil
##oo
turned
dog
minutes
course
conduct
##ellig
##ards
cle
kim
##ounds
27
express
##ipt
significant
results
##ball
fox
answ
hon
iran
thous
anti
##atives
##ival
college
financ
dest
husband
custom
emerg
##ality
executive
crime
##itness
2018
william
king
file
adm
everyone
block
remains
due
services
##bal
try
gop
##lin
instit
target
forces
running
plans
##ops
##head
##ensive
workers
##ortun
mart
available
indic
chair
ms
##oint
mex
intellig
##ob
despite
countries
wrong
website
showed
##ugg
cause
else
##istan
debate
expect
##0s
sil
##attle
26
common
charged
cit
dece
critic
franc
specific
idea
##uced
ira
deliver
immigr
pract
tur
letter
pred
appeared
##uty
baby
##lus
january
candidate
miles
##oming
##eth
##oid
##ender
reb
middle
aud
fear
violence
east
probably
means
fav
afric
##orr
2010
28
self
assist
reuters
details
movie
current
pen
entire
web
living
companies
everything
august
iraq
posted
##isl
##eter
shar
particip
cancer
begin
##ada
##of
##lim
reveal
##enced
##ager
include
##not
senior
##uses
knew
##icted
assault
latest
##iron
bi
##wood
crash
music
potential
tele
medic
behav
doub
##lu
sell
pan
islam
student
birth
criminal
##oud
##ston
##arr
sat
ball
camer
##ille
##iple
provide
claims
surpr
drop
##ham
apple
leav
drink
investigators
scr
voters
legisl
message
##selves
accused
moment
kids
##asing
##reme
seven
diffic
sle
##ological
nove
via
november
##ability
german
##ogle
esc
intelligence
base
##omm
proper
##avy
##itting
james
abs
spent
enforcement
single
contribut
nbc
syrian
missing
track
forward
september
families
##bo
environ
immediately
##itted
confirmed
situation
separ
storm
29
##oph
cult
squ
rac
eight
il
##ogn
cast
u00e9
##ondon
educ
crow
disease
extr
##ago
rather
##ule
##ese
##undred
either
london
##ips
brown
##uclear
analys
##ober
##ex
disp
hundred
identified
comments
##vers
##itten
included
pret
carry
comb
governor
##ends
##iding
##orter
brain
##action
pur
bit
aver
october
whole
words
continued
vo
angeles
effort
##atory
wild
impact
compet
##aur
teach
cross
intr
##mp
total
dan
mater
##ste
thousands
appr
approach
brother
pie
google
##ams
condition
##uk
central
plane
##cil
serious
witness
mind
resc
hearing
oh
mos
amaz
oppos
sheriff
fat
insp
financial
##ster
longer
border
##epend
green
##fully
##isc
##hol
records
norm
accept
bal
brought
35
##ude
##using
nuclear
disapp
##uth
ok
push
bud
##aging
deg
environment
relig
independ
##mb
##rupt
ben
needed
december
believed
##oper
##bed
reporters
marri
science
francis
coast
sources
demon
##oken
respect
unf
neighbor
pers
higher
god
british
citiz
tour
u201cb
below
##light
loss
##where
amb
true
killing
attention
difficult
wants
##esh
##essed
##ma
position
provided
ham
experience
treatment
employees
getty
31
##yc
calling
bush
##dr
##ado
##imes
decided
##cript
197
problems
##ecially
award
##akers
lower
seems
buy
##back
##ergy
global
##aine
45
mayor
benef
wood
article
cur
changes
paper
##ners
fair
season
danger
prime
gar
##icide
##ae
example
stock
##ished
##olution
felt
##istic
popular
commission
scientists
text
##ays
born
et
efforts
areas
emergency
capital
filed
##ateg
pack
safe
hands
##ength
prevent
army
##ounded
##ging
##apan
prep
remain
fly
advertise
u2019d
500
residents
##leg
mount
communic
lad
cris
especially
gas
brief
alex
peace
soci
weapons
##ibly
hillary
previously
consider
quickly
japan
council
corre
chem
previous
recover
mer
station
word
analy
appears
exam
created
themselves
creat
##ghan
##ores
mel
repe
##ron
industry
carol
female
hall
allowed
spoke
60
date
doz
points
austral
majority
bomb
teen
##yle
die
model
##ural
documents
door
patients
dig
##iation
bey
estab
uns
##stein
##fl
##ung
george
constit
##idge
##izing
estim
##hen
named
##aint
chic
paid
needs
##itz
economic
feet
reading
talking
bul
rub
swe
burn
##while
issued
##aces
union
##etic
ul
store
##ounts
febr
marriage
van
telev
color
##iction
february
doll
favor
sens
##ville
regard
insur
caused
und
above
sched
hur
##ya
##atures
jobs
##overs
advertisement
please
##ges
2008
rate
subject
##ceed
##erry
##ugh
lawyer
hear
jail
##bur
average
pages
mic
adding
increase
written
2009
ran
material
exact
studies
meth
character
##iers
bed
##uing
prior
aftern
##ises
##elly
multiple
field
leading
analysis
afternoon
sea
conservative
professor
chicago
helped
energy
mad
##han
french
happen
version
os
agre
ten
http
tro
shut
##la
##gypt
##ilt
##aught
wal
draw
##off
pretty
##ider
u2019ll
scott
convers
technology
accident
discovered
##estern
observ
currently
snow
mexico
sleep
subs
sel
##mer
##ky
region
bbc
price
primary
injured
allegations
sense
egypt
worth
##room
events
##reg
##unt
decades
occurr
vehicle
##ole
##ancy
abc
##ara
guy
##sych
reached
apparently
additional
fired
pregn
weekend
crisis
##iana
airport
bott
oil
u201cd
gov
afghan
pul
table
##ris
card
rap
hou
##tain
cruz
##eed
prec
exist
##agement
shock
changed
virgin
##acc
##aker
chance
surr
sett
finally
ele
lou
influ
sanders
histor
hundreds
##owing
##any
itself
lawsuit
##asc
cannot
organization
speaking
recogn
tit
gone
##ping
couldn
ryan
roll
opportun
trib
smith
ken
##ctions
determin
sant
amount
muslim
natur
##ona
considered
figure
trip
johnson
products
beach
moved
bag
raised
##unk
stories
psych
behavior
##aded
gather
photograph
##ches
contract
simply
illeg
##oman
##uries
robert
lack
regul
offer
writes
##phone
ahead
##now
##tim
arm
gay
box
experts
passed
matt
##apped
looked
surf
declined
hotel
click
biggest
ice
##cess
television
bost
largest
advis
population
##haps
france
crowd
##ford
remember
development
crew
wouldn
played
ens
turk
original
conditions
aren
song
failed
lang
users
##cohol
arrived
pil
size
restaur
korean
remark
touch
necess
summer
boston
terms
##iet
##iest
claimed
allegedly
european
alcohol
trade
takes
din
hy
levels
supreme
##ander
##ls
stage
jew
leaving
u201che
planned
strugg
freed
u201cm
32
ukr
noted
avoid
subst
broken
supporters
demand
bid
196
kept
note
drugs
followed
houston
career
editor
girls
challen
goes
rules
protesters
##yl
meanwhile
abuse
offered
lif
rout
perhaps
oce
agreement
##oti
prosecutors
lock
emot
ways
tal
type
##arily
unl
charge
traff
concer
numbers
##iar
##ipped
exch
##sequ
evening
##ropri
spending
arab
ended
pressure
jeff
##ague
origin
river
##down
credit
maybe
##woman
##yal
doctors
sad
##to
tweeted
videos
frank
u00f
path
eth
propos
range
firm
alone
require
##ilities
patr
troub
chris
sometimes
happy
association
perm
##lant
floor
agreed
giving
works
looks
princ
recall
##ipl
##ny
##ki
##entially
controvers
demonstr
focus
damage
charl
carolina
##terday
mach
brand
##fri
attr
fill
growing
blue
species
mary
economy
hers
seemed
u201cwh
##erve
southern
##ground
yesterday
particularly
##ev
radio
##ented
senator
gi
usa
##aming
extrem
##xim
repeated
fort
beyond
ship
content
nov
##come
dark
trust
counter
male
paris
pray
grad
##inese
actions
picture
##ding
engine
closed
education
mission
society
##lines
driver
ut
applic
concerns
##hib
mail
barack
##eless
chinese
##mine
asking
vice
eventually
bod
quite
defend
##encies
mob
u201cthis
##inary
hack
huge
object
cook
que
nine
battle
returned
poor
create
explos
penn
parts
driving
negoti
u2014and
revealed
mike
chairman
whom
##icles
learn
chemical
drive
lived
reportedly
animals
##ification
fle
cat
contributed
deaths
fast
##ruct
cbs
citizens
kelly
veter
immigration
western
log
talks
##arm
anth
##play
inn
cooper
wonder
od
##ously
williams
century
connect
performance
fish
##ania
reporting
##ica
##makers
wil
ful
labor
jim
u201cc
ack
bea
budget
produc
##za
virginia
property
holly
##inated
goal
craw
eye
animal
langu
shop
##yright
sites
increasing
compared
copyright
flood
##agn
purp
customers
opened
guil
jon
politics
##oes
##isions
##ze
fix
##ining
opposition
overs
##istry
reporter
newsp
candidates
ital
gets
telling
includes
vill
##uled
gall
served
##iles
measure
sam
detect
forced
sales
occurred
minor
spread
sister
ord
match
martin
effects
##ique
archive
spot
training
##astic
magaz
ber
##onn
climate
throughout
responsible
moving
##arter
##craft
suggested
lee
weather
natural
reflect
religious
##wide
clean
##nowled
ohio
fans
count
fighting
transport
increased
##friend
prem
destro
##airs
suicide
ii
upon
piece
guilty
reform
##bing
##me
33
37
device
acknowled
showing
answer
bay
individuals
exactly
##ortion
##ires
##resp
receive
married
millions
club
recomm
tick
restr
u201cy
institute
blog
islamic
##onald
pun
attend
playing
richard
rank
injuries
##vin
ww
##cast
mist
##asons
##oms
imag
tradition
##tained
ther
truck
##sa
##the
learned
responded
##onym
debt
northern
dre
##ids
seeking
spr
ceo
##elling
ocean
hurr
abd
##lor
required
denied
comput
der
shared
ready
voice
detail
movement
isis
screen
36
income
##los
complete
##ola
method
constr
li
##fort
atlant
dism
hollywood
louis
##amb
flag
feed
ability
tel
experi
independent
regular
sound
##venue
stopped
survey
section
send
purch
##ume
putin
train
built
schools
##ks
constitution
##ke
##ument
dipl
coverage
appeal
watched
clin
positive
bow
sar
70
square
legislation
speed
##ersey
progress
diplom
jump
rh
##ota
writing
introd
except
ly
foundation
conflic
fal
defin
wel
complex
critical
weight
jones
mention
extra
##ha
wearing
34
findings
herself
temper
hous
beg
nature
##uana
degree
wid
operation
deputy
hurric
apolog
aim
lic
##hold
##set
starting
rescue
francisco
rates
games
unit
doctor
item
##nel
authority
ton
cub
mac
standing
hopes
##wise
choice
amazon
##ius
55
dangerous
activity
insurance
ess
jersey
thanks
armed
manager
##agr
shown
kr
mix
##ez
opportunity
rod
frequ
##going
nearby
slow
corn
bodies
owner
thom
##time
u201cw
opin
pictures
rule
troops
lake
oly
wat
##aked
homes
hair
lay
affect
vari
horr
directly
u201cp
encour
olymp
##bit
nomine
apartment
ones
normal
grant
african
resour
corpor
guardian
haw
comed
resign
mu
christian
mat
treated
annual
##ban
cos
names
wait
u201ca
anc
removed
heavy
rand
##11
holding
eyes
##adem
##fect
canada
##ijuana
u201cf
advoc
operations
38
raise
##engers
sud
##others
amp
ordered
suit
nations
##iring
spokeswoman
##ols
status
2007
magazine
broke
clim
value
illegal
##uf
rose
plant
language
saud
highest
certainly
signed
##omes
management
##iny
physical
meant
neighborhood
##jected
##mar
80
actor
soft
standard
obv
suffered
disappear
##arian
##ulated
jackson
cab
ash
##orse
freedom
##igan
stone
ath
confirm
##eg
update
pac
smart
joe
alb
worst
growth
academ
##oted
scheduled
partners
##ologist
caught
entr
pulled
trail
ruling
traffic
players
concerned
modern
muse
publicly
bern
marijuana
leadership
beat
43
##oma
##ustr
rat
kh
##eller
##ube
protection
www
steve
##ropriate
carried
##olf
rise
germany
practice
tra
sort
tough
pap
breaking
pull
finding
mort
sports
memor
##rich
##men
##aries
chann
##do
lawmakers
rally
cath
stra
clearly
thinking
sentence
##ifying
ros
determine
cars
carr
convention
costs
jose
newspaper
##ware
signs
chron
##ef
monitor
willing
destroy
42
##aves
##eline
decade
kar
##ension
restaurant
surg
linked
appl
anonym
older
afghanistan
spring
completely
ec
beginning
thomas
hurricane
save
mand
react
cold
accounts
emails
rare
##oval
##ette
u00b
organiz
epis
protests
pak
300
##iled
##cing
mental
##ror
reality
politico
diagn
fellow
production
band
continues
various
believes
passengers
culture
struct
##anch
fine
powerful
initial
camera
90
##ikes
##isted
museum
purs
##estic
syn
knows
absol
##aks
parent
2006
easy
suggests
quarter
48
accomp
u201cn
convicted
computer
truth
rid
##elled
##iance
##gg
cy
meaning
##ador
intended
cash
limit
seat
launched
round
moon
nas
cere
correct
ach
measures
analyst
votes
ign
supposed
tor
wish
rain
las
wide
##agues
winning
code
tow
##essions
afp
u201cthere
##ament
enj
challenge
##osh
policies
sor
amend
refuge
harm
employee
gree
pakistan
lawyers
hurt
ukraine
##da
##ena
determined
exchange
44
lines
register
improve
##iling
saudi
seeing
47
adds
highly
##ble
rough
eastern
larger
refused
highlight
experim
minute
ariz
limited
haven
##ront
##inger
u009
##oles
custody
##apt
##agon
placed
agent
liter
committed
prince
##owers
bloom
opening
explained
ol
jury
britain
conversation
honor
##gl
kick
greater
##town
depr
##eh
bob
warned
estimated
andrew
49
hasn
##ero
fully
none
victory
loved
profile
congressional
mir
supported
##olic
establish
##ato
agencies
affected
##aud
##bre
partner
##pect
shel
##atively
remained
football
africa
##field
separate
owners
capit
neur
cities
boys
tests
pic
investigating
appoint
shortly
##elle
conducted
dropped
faces
##erved
soldiers
reasons
otherwise
massive
agents
eat
wein
systems
pope
75
mont
peter
expand
prompt
brad
waiting
designed
counsel
australia
colleagues
daniel
scen
iow
tweets
aid
spir
pair
chap
feb
expos
benefits
##itude
proced
dollars
plus
skin
responsibility
ensure
ministry
mostly
mcd
lind
plat
display
shall
audience
narr
warning
serve
##oking
stars
option
##ounding
aware
u00a
u04
##oving
perfect
assess
gal
spl
programs
task
conclud
environmental
carrying
joined
consist
##iate
commerc
admitted
coal
iowa
##anda
commit
struck
actress
expert
necessary
dna
##lv
controll
places
stuff
dad
##iced
tay
tab
watching
##oz
adults
usually
tear
##amples
41
##ucky
##iot
u201ce
rape
##irt
39
##house
cas
evac
initially
nominee
##burg
style
resources
##aped
u201cthey
aircraft
humans
parties
##ba
u201cyou
##ledge
jul
announcement
bond
occup
statements
emer
originally
sitting
##uate
##just
##anced
suspected
focused
quality
heav
unclear
##mark
expressed
org
##ano
domestic
##erate
acqu
funding
##ests
false
christie
participants
achie
messages
##azi
parl
coff
##aham
u201cif
##night
ultim
##ih
occas
cuts
scand
##ption
spend
##cription
iphone
##atever
challeng
##mon
glass
window
##ulate
active
write
colorado
strength
fif
##iat
##icians
surveill
hero
turkey
##ictions
champ
crimes
surface
##ios
exclus
famous
adop
##imin
sale
elections
appearance
critics
contain
overall
connection
familiar
assad
lu
zim
coach
presence
drinking
46
writer
52
speaker
privacy
authors
surveillance
##owed
##ansas
athlet
fresh
delivered
commercial
ford
rubio
collection
sought
2005
##iful
mobile
surgery
span
##utions
divers
walking
##vey
features
helping
00
onto
strike
penal
dogs
crack
identify
65
whatever
unus
explain
worse
minim
michigan
complaint
polls
rick
patient
categ
ram
eric
sym
##oned
circum
##rom
proceed
parliam
##enty
##ales
sick
bridge
strateg
knowledge
ultimately
##mas
books
royal
israeli
##rey
##ills
command
putting
terrorist
##west
healthy
lady
facility
twice
opinion
steps
miller
hyp
dismiss
autom
updated
davis
##ros
join
channel
wer
replace
covered
##cher
##ivity
assistant
parliament
lose
influence
gender
extremely
repeatedly
depart
criticism
navy
jenn
jr
happens
declared
dozens
items
interv
tun
ts
accus
##rant
largely
joint
violent
##oul
exerc
obtained
shares
##20
argued
planet
difference
voting
##more
##outh
testing
founder
##orted
fourth
taxes
##oses
links
feeling
rog
##rec
ped
brook
kat
possibly
##ading
##zz
campus
discovery
facing
yout
altern
##gu
##utely
planning
##iger
streets
walked
##semb
diet
eating
##ayed
vehicles
hang
involving
51
developed
faith
##kins
bure
cool
##well
##mates
##car
##otten
arms
amid
harass
fuel
##eland
remarks
belong
nut
marine
rang
##ingly
farm
lew
communications
deleg
##otted
possibility
views
laugh
sudden
lie
##itation
machine
deadly
u06
ongoing
cells
guns
simple
proposed
arizona
wedding
liberal
straight
potentially
discr
u201cin
moore
rush
##icop
length
produced
consult
selling
u2022
kil
unp
pregnant
scale
astr
player
##ategy
eb
aggress
prosecutor
##izes
elected
bureau
alive
strategy
##eted
sav
##auc
everybody
##sylv
les
##gry
##ushing
bloomberg
##antly
breath
threats
myself
dozen
winter
divor
pennsylv
nav
palest
##lying
wounded
prepared
complic
##enses
breast
internal
indeed
sky
##uted
##pm
conflict
acting
##ufact
subscrib
sanctions
##etts
successful
columb
negative
pennsylvania
##rel
##utiful
incred
youtube
##inct
indian
https
regarding
proposal
mosc
taylor
mile
manufact
capitol
##board
##aska
195
sides
witnesses
confident
outr
wealth
##oring
ali
##pper
iv
grab
gives
##gas
background
consequ
adult
keeping
400
##uated
nomination
tens
##iated
sequ
##enger
trig
afford
catch
##ibution
pin
row
##add
##bel
pattern
nick
##acted
moscow
##erous
seriously
valley
##arters
serving
younger
explains
subm
##vant
##eled
pra
approved
##unte
magn
ty
weak
bear
bin
offers
activities
wake
##isher
cry
##ipping
failure
identity
offering
##abor
compar
talked
entered
jes
volunte
nasa
effective
helicop
voted
thinks
##ordan
sarah
ox
motor
stress
##kin
recorded
title
bath
regime
canad
hate
reduce
memorial
conclus
tempor
punish
##encing
cia
##agram
ancient
reaction
##apping
broadcast
vac
georg
factors
fash
gon
professional
ded
doubt
businesses
2004
singer
weren
beautiful
##respond
ted
##iami
##gen
##onom
abortion
comfort
moments
footage
emotional
spect
becoming
trouble
neither
##iber
india
##onnell
league
interp
attended
faced
attempted
injury
surprise
attacked
pilot
cyc
##ifer
sentenced
lob
enjoy
obam
correspond
##sey
giant
rum
##wr
located
tonight
##umn
promot
mountain
terrorism
##chan
alert
##amm
absolutely
platform
##aled
##othes
fashion
##ini
##achus
manh
fan
user
sympt
charles
captured
whe
activists
##uties
guys
53
##ighter
communities
##pir
resist
perry
speaks
##oked
stick
ho
##ga
owned
devices
function
##kn
##achusetts
eu
##bon
values
earn
embass
##egr
miami
double
54
holiday
princip
massachusetts
bought
braz
christmas
u2014wh
england
##12
slight
panel
##ican
surviv
ruled
na
scientific
english
medicine
kenned
severe
##very
scandal
generally
suspic
##aza
sacr
##pped
cup
stores
remove
figures
newslet
weapon
notice
quiet
involve
deeply
mitt
##ella
migr
palestin
##ashed
##ulations
dall
u201cl
dar
pled
pip
pu
jordan
episode
##idel
kennedy
jay
core
##ulf
##cl
stab
##ula
paying
consumers
pointed
##rest
unable
##aa
threatened
cd
nfl
##lets
heat
suspects
##hr
teacher
##bor
instagram
##lock
village
##aling
##icip
ip
##uly
bottom
harv
jur
inqu
flu
assemb
devast
##usion
circumst
hell
##ym
fol
##dom
bail
##ta
ble
blast
roughly
##shire
##onents
qual
egg
awards
sessions
decisions
traditional
skip
missile
understanding
cham
adviser
ambass
cohen
nice
vul
##dd
dram
transfer
##acare
digital
stood
tree
sem
##com
plastic
unusual
height
calc
##mond
retr
##fd
vegas
specifically
happening
standards
grew
assum
immediate
bol
proud
established
##coming
mccain
ren
allowing
##ici
personnel
gang
funeral
##abeth
jewish
##azy
stands
##mann
gard
ba
uff
##tered
worker
##eas
funds
fatal
interested
feature
194
filled
prices
performed
thus
cart
smaller
dun
dur
condem
gh
dress
##30
suppl
argument
urged
obamacare
widely
airlines
boeh
theory
barb
95
##xic
benefit
confront
sharp
traged
boat
dallas
contest
considering
era
spark
ale
##inn
shr
georgia
typically
amendment
##ka
treas
album
picked
somebody
##itely
raising
##mony
stephen
##alf
##wards
embed
basis
ceremony
##reck
virus
##awn
fraud
swim
boehner
eliz
autop
controversial
unkn
retail
kidn
gray
##adel
worried
dream
swed
exposure
ging
fake
liber
##imony
##ologists
escape
estate
santa
anthony
qa
##person
##east
apart
pent
providing
firef
dub
affairs
native
embassy
entertain
brian
##reh
batter
supporting
produce
lands
presented
cosby
banks
##odes
noting
py
##dy
eval
turns
pushed
targeted
generation
complain
##iev
canadian
##ester
shark
relatively
allies
##uts
##lig
sending
math
pm
56
##isters
girlfriend
buildings
equip
reference
recommend
hamp
##gment
##arant
##ari
pacific
laur
##ospect
libya
resol
investigate
seattle
warn
finish
symptoms
passenger
dinner
##bl
ties
underst
gingrich
gain
coffee
cauc
##oh
closer
##agan
##lah
weigh
actual
archae
sorry
sust
##och
runs
innoc
memo
uses
##iders
##osis
electric
kent
disaster
##roit
managed
causes
suffering
termin
advance
decide
smoke
u201cbut
increasingly
##see
queen
ambassador
wisc
##eda
##isan
##sp
illness
unknown
forg
coc
unless
buck
elizabeth
accur
assistance
##water
comedy
barr
australian
vent
resolution
maxim
jer
facts
appropriate
##mate
setting
##oe
oklah
element
causing
palin
mans
ring
backed
interviews
destroyed
transition
summit
memory
advant
intention
detroit
##born
##hab
tested
closely
favorite
construction
##acing
belief
##ews
u201cshe
adam
disappoint
secure
du
tank
defe
hoping
organizations
u2014the
regional
cabin
relatives
direction
gathered
numerous
interesting
dou
##fe
provides
recovery
harris
rebels
ufffd
57
unique
integr
towards
##pan
diss
##ikely
##onsin
teams
wik
spotted
prohib
harry
da
artist
unfortun
imagine
equipment
spokesperson
wisconsin
oreg
prove
differences
traum
##gar
winner
changing
##ched
oregon
##rees
aband
ven
58
pregnancy
2000
clar
drew
wing
##usal
2001
letters
oklahoma
##ician
journalists
##outs
##athan
##fire
spons
movies
controlled
testimony
discussion
u2014b
gunman
visited
walker
flying
hawai
angry
shots
##istics
bringing
italy
route
waters
##life
bigger
##ception
print
academy
samples
warrant
obviously
##ias
feels
options
ic
yell
##itory
listed
##illy
##entr
instruct
division
wilson
tend
u201cthat
earthqu
##itors
##ogen
counts
nobody
##ields
##order
##omb
duty
mechan
losing
rising
##how
tragedy
virt
##ography
gallery
representative
approval
utah
chain
honest
emerged
rein
frustr
circumstances
attorneys
zone
##adelph
revenue
tea
rapid
150
ny
##aze
amazing
##eld
##illing
holds
operating
acknowledged
99
industr
directed
choose
japanese
unlikely
consumer
philadelph
software
blame
milk
allows
retired
shift
mall
worry
sandy
sight
purpose
nev
comey
kevin
tall
implement
symb
philadelphia
switch
exposed
celebrity
##igned
stated
truly
promised
risks
bell
atlantic
ray
domin
lit
##uke
jet
wear
mitch
surprising
matth
promin
copy
creating
headqu
surprised
##cer
stol
alt
ride
investment
forest
highway
spirit
inspect
joseph
brothers
electron
stret
sexually
##aid
referring
winds
##ils
apparent
batt
markets
eld
threatening
publish
##ete
interests
behalf
boost
##uments
prefer
listen
drove
fest
vacc
##aire
suspended
easily
jam
##oft
experienced
mouth
alab
journalist
2003
matters
install
##pet
isol
bat
neighbors
mcdonald
imposs
##erse
repr
##active
finds
heads
requires
senators
deploy
shouldn
youth
josh
variety
brazil
pel
##kel
estimates
##anged
##uits
silver
mut
ell
turning
cited
##inder
types
master
receiving
mueller
surrounding
wire
##ua
vess
scar
entirely
prize
justin
shooter
jac
leaves
##ijing
withdr
column
fit
substant
leads
harassment
##ship
allen
##amin
sharing
citing
worldwide
vulner
genetic
fighters
lov
sample
select
pist
beijing
sounds
##ani
weinstein
fo
01
myst
controversy
##eness
neck
immigrants
tight
catholic
prospect
##hal
##orth
##illed
historic
##oria
subur
solution
##icient
advice
64
##isa
##ext
claiming
connected
##enda
##che
concentr
##ucker
##emen
marsh
coord
guess
instance
therefore
crazy
micros
##idency
retire
schol
seconds
subsequ
upset
tast
investors
split
u00a3
license
hid
##uster
penalty
alabama
ebola
bon
interpret
meat
affil
yah
forec
##annon
distur
ideas
bacter
pit
rene
##aly
##cious
##licit
criticized
##under
##atically
rejected
bright
pitch
##agers
va
alaska
marc
discl
impossible
perman
800
libr
##essive
coalition
stun
encoun
600
jong
##otic
u201cand
##ancing
headquarters
kur
rif
chick
factor
solid
corporate
significantly
##afi
torn
extreme
negotiations
rebel
random
##ogue
introduced
map
##lyn
ads
satell
bound
divorce
questioned
##ads
sect
bills
##imination
foods
challenges
biden
##ouri
novel
911
vig
error
consequences
##can
##mes
ah
requests
combat
stolen
headed
atm
centers
hen
##ika
##ounced
emph
bird
exercise
##apher
continuing
birthday
todd
mcconnell
advantage
##sen
concluded
graham
acts
dating
##whel
observed
achieve
veteran
oak
models
##inois
malays
veterans
##phere
developing
conservatives
session
pounds
referred
inquir
##orum
##icts
##de
relief
cru
##orders
predict
explan
describes
approxim
zero
entertainment
engaged
regulations
mistake
vast
films
radar
initi
crawls
globe
pool
confidence
59
corp
u201cg
sweet
##iner
##inson
italian
plot
context
charlie
discussed
militants
porn
appe
85
newly
relevant
##agic
ow
unsu
##roll
detailed
##isf
1996
explosion
sir
corrupt
petition
illinois
housing
killer
infection
##equ
remaining
##esy
definitely
slightly
competition
basic
##ington
hampshire
##hone
##nam
damaged
dial
suggesting
golden
bes
learning
ticket
transl
jason
kerry
greg
greatest
completed
tm
##orrow
mexican
thoughts
applications
##iences
##apol
surge
patrol
comprom
longtime
bang
unrest
revolution
investigations
temp
jennifer
pieces
mun
##apy
tiny
##iking
knock
##ographic
writ
swift
##itals
cann
##place
attempts
iraqi
2002
amy
kir
kas
##ario
##opher
warm
searching
##racy
infect
mrs
survived
pentagon
politicians
buzz
minimum
##ached
relative
vision
chronicle
fifth
gm
##eme
contacted
updates
stan
superv
positions
maryland
avenue
##emp
buried
##ibuted
##icated
debr
answers
arabia
##attan
wildlife
inches
disney
motion
wave
##iser
olympic
fewer
centre
babies
##iban
indicated
kiss
contrast
bull
hadn
edge
percentage
##berts
luc
minority
commissioner
courts
tower
##greg
harvey
anton
##izz
indiana
falling
consistent
nato
researcher
compens
overwhel
taliban
##ita
parking
mentioned
laden
recalled
shocked
gotten
##win
lam
driven
atlanta
enem
firing
incidents
weekly
apprec
cree
kate
promise
motiv
citizen
informed
opposed
existing
classified
province
practices
downtown
warren
distance
anonymous
##care
lying
upper
insisted
disag
patrick
approximately
helicopter
producer
recon
settlement
##iqu
orders
stew
##lan
accepted
##itzer
missouri
##avan
anger
##okes
collected
jesus
##asket
wine
replay
fer
cha
meetings
journey
civilians
colon
recr
terrible
strikes
##merman
contained
egyptian
##lad
cow
##fall
locations
anybody
supply
draft
tort
strongly
##37
fled
manhattan
##airo
infr
profit
structure
cig
methods
fred
pence
mars
poison
possession
recovered
telep
##ographer
unlike
anderson
elev
hawaii
exhib
alternative
yahoo
beck
passing
transportation
wreck
adjust
boyfriend
trees
presidency
reduced
ending
dollar
tip
diplomatic
som
u2014a
kansas
pushing
zimmerman
describe
oscar
racial
##ables
roberts
heavily
hook
gulf
##ahu
windows
santorum
registered
smoking
concert
becomes
depression
probe
qaeda
shape
misc
jun
apply
72
boss
disorder
woods
michelle
u03
debris
highlights
asia
posts
appeals
ron
till
iron
teachers
emphas
##box
blow
temperatures
##ko
anx
banned
columbia
firefight
##acters
##gers
yourself
equal
crashed
##oral
characters
projects
conspir
exclusive
sport
kilomet
##oom
degrees
materials
sed
hired
tob
##actions
spanish
##illa
##po
territory
maximum
handed
remind
represents
##eing
iranian
clark
tap
muslims
##timore
##nbc
merc
client
elsewhere
transm
religion
62
##erm
grown
islands
61
##acity
carson
##idelines
tribune
u043
democracy
minnes
courtesy
##uous
solar
baltimore
tennes
u00e1
welcome
patri
cultural
analysts
handle
aides
thir
ages
spoken
household
disrupt
tied
u2014th
stewart
deputies
abb
empt
67
shif
rival
##point
##era
harvard
austin
shirt
lt
micro
execution
fisher
racist
nic
drivers
outrage
joke
rice
flights
02
score
references
bever
carbon
##ala
mystery
tact
stem
inspired
kentucky
offensive
interviewed
liqu
66
##ucing
##anna
funny
visitors
##acle
dealing
argue
pod
prominent
cameras
68
buying
##ties
matthew
wash
tmz
expensive
##omen
spain
outcome
lav
lev
flash
evolution
crawl
survivors
hat
rail
##ardash
u201cno
reid
intent
reads
delay
heading
complaints
minnesota
earned
uber
mol
personally
prevention
repeal
tar
editorial
dol
commander
250
diego
greek
targets
##utch
drunk
refugees
files
shootings
christopher
ye
withdraw
##utation
##erties
basically
realized
charlott
granted
unex
balance
##eman
##issions
verd
chamber
77
hug
sugar
customer
louisiana
depend
##ien
representatives
package
u201cwhat
fisc
quot
metal
jen
ru
dismissed
commitment
alexander
temperature
##usted
officially
scenes
mamm
decline
index
pleaded
cdc
finger
alongside
puts
purchase
filing
totally
musc
drag
##standing
frequently
prost
##iable
survive
prompted
u2014but
epa
bach
carter
relationships
lunch
##aken
dispatch
conce
activist
accusations
jess
kardash
hay
anch
ov
tragic
##ocol
plants
airline
nevada
moham
toll
##ni
##tv
##iment
missed
facilities
couples
##owski
##arrass
networks
##ca
tony
orange
preserved
##pread
maria
ech
endorse
indicate
advertising
entry
suddenly
library
hunt
##stone
newsletter
##lands
viewers
shopping
denver
dim
palestinian
tennessee
##state
annivers
assembly
cigar
##ker
bones
##ilton
erupt
recording
guide
fundra
guarant
revel
returning
icon
##veland
protected
##ouch
cops
rolling
constitutional
mour
##eding
##oster
knowing
violation
extended
pow
##imer
cleveland
gross
##icks
defic
marked
locked
falls
noticed
wheel
disclos
aimed
discrimination
cable
##etime
recip
easier
##ream
##ulous
clinical
gaza
concept
papers
delegates
struggling
aspect
brut
nur
marks
ment
clock
agenda
plays
embarrass
tomorrow
substance
ire
##jo
embr
##aughters
punch
blind
visiting
theater
##oner
increases
hoped
anniversary
finished
05
npr
##mad
judges
experiment
fiscal
huff
yellow
apology
krist
strip
distribution
hole
agric
circuit
74
lan
voc
gab
finance
wides
deals
extent
aggressive
earthquake
hospitals
marketing
satellite
sensitive
##iform
##hi
moves
##arth
phones
unn
helps
nsa
interior
forms
yemen
outl
##atured
sees
haz
u22
ark
plenty
depos
bathroom
##ertain
application
##onent
addressed
soldier
morgan
##uations
scot
outbre
closing
habit
powers
fears
extraord
presum
vet
chose
bars
hits
##ords
##erto
widespread
dyn
communication
historical
invited
##ogan
accompan
##apse
rig
implic
cutting
##acco
##ruction
##ucks
##oric
dc
stayed
u201cwhen
##yang
##idem
essentially
disappeared
alter
nurs
##onto
forecast
optim
drawn
satisf
##athy
bullet
conviction
dry
##apper
maintain
##gun
aside
turkish
forth
lean
viral
involvement
renew
##mo
##eds
clothes
assert
institution
legit
##what
diagnosed
desper
tape
festival
##rators
behavi
hong
estimate
combined
traveling
##olit
stuck
agricult
vlad
ends
##ulty
cul
flat
begins
fet
proof
waste
firefighters
lots
toxic
collaps
##maker
transform
joy
charity
bron
anticip
frag
consumption
blank
occur
##ppo
pump
daughters
escal
houses
##10
prote
700
sons
zoo
##erves
testified
##iffs
##rect
unw
roof
saved
wars
loyal
dick
studio
graph
theat
governments
cairo
##ito
frame
##row
##rell
decre
prayers
drama
1999
investigated
executives
category
##elson
intens
chuck
payments
inmates
rocket
ward
pig
mine
aged
overnight
prisoners
felony
holl
strange
loud
amounts
##osphere
breach
##key
nar
fla
##chester
##ionally
shutdown
cyber
##feed
detained
##onduct
ramp
193
ballot
##iant
beer
orland
featured
prosecution
lies
ster
leon
blamed
basket
aleppo
ross
manner
oblig
##ept
aide
monitoring
##ctic
greece
reject
hunting
buff
quant
dispute
fda
shout
hills
scientist
cruc
explanation
tobacco
steven
calm
cu
tools
max
howard
punishment
##abet
failing
mothers
##employ
foss
realize
conspiracy
##inations
trading
##athon
soph
procedure
sean
conversations
prepar
terrorists
gift
##icut
epidem
vatic
##mart
intense
collabor
69
seats
corner
writers
cards
##har
cameron
inapp
telephone
pyong
##part
u2014w
mete
63
wolf
##gb
opponents
robber
obvious
portr
##load
##ora
tool
##apolis
##pa
vatican
incor
captain
grass
##itution
##road
recognize
clot
formed
unemploy
homeland
assessment
delivery
connecticut
bernie
lane
enl
rating
##ahl
##abilities
gap
announce
approached
##flix
containing
fallen
infant
veget
reward
dump
olympics
regularly
##arge
##ructure
rar
reputation
diseases
ga
##osa
golf
enh
toronto
importance
##raid
affair
ingr
bombing
unfortunately
pyongyang
reaching
innocent
polling
resulted
applied
##hs
##ennis
netflix
hart
elder
quoted
signal
detectives
microsoft
##aware
teens
caucus
vulnerable
##ss
beast
folks
##taining
seized
zucker
datab
bannon
excited
anywhere
songs
lewis
ud
pharm
hor
founded
reagan
tiss
bacteria
##itarian
##umer
formal
##uzz
asks
tamp
dramatic
gene
doors
handling
##nic
compreh
trend
waves
laid
complained
##ibute
##ecess
ferg
forget
capture
contains
limits
paint
blocked
schedule
hann
readers
represented
kardashian
urban
battery
##olved
capacity
genes
technical
landed
jonathan
hidden
crews
tears
hiv
requested
##imir
conclusion
##math
radical
76
diam
advanced
overt
struggle
ta
##pping
##esa
guidelines
ky
misconduct
orlando
explo
scrut
pleas
##hd
suc
##enders
puerto
##uson
bombs
literally
mit
annot
maine
athletes
replied
jumped
legs
tag
throw
permission
desire
##osen
verdict
pron
##yer
promote
precise
wy
netany
temporary
##arms
headlines
u201cmy
marathon
carl
indict
burning
permanent
valid
fant
##gi
usual
nich
perspect
residence
nationwide
gonna
healthcare
salt
resort
phen
snowden
##cy
##ilit
##otyp
##argo
##icial
clash
slam
staying
dish
bone
roman
friendly
harder
afraid
netanyahu
##shot
establishment
ukrain
##ela
guests
##eling
actors
innov
om
thor
##osing
offices
checks
tes
toler
kong
outs
stronger
odd
tum
##pass
##phy
raw
photographs
##bridge
infrast
toy
##enez
begun
vladimir
ak
bip
##antic
regions
starts
##pe
##ippi
regardless
##ashing
donations
uniform
wis
flow
entering
baseball
hispan
kingdom
ratings
units
remote
illustr
mock
wage
fought
##vent
##iley
conservation
##iety
responding
serge
documentary
thick
effectively
jimmy
flooding
##va
##ulating
viet
lyn
##stream
procedures
gib
anonymity
##wan
empty
##orage
clients
##isms
legend
mississ
aer
pending
assets
consent
entit
fields
demands
riv
returns
mck
stepped
defendant
##rig
succeed
infrastructure
bash
industrial
fab
##erts
cuba
cabinet
##gt
exit
crown
reviewed
##alia
follows
holmes
yard
##sc
##oen
dw
palm
tornado
##40
elementary
dance
studied
grounds
scores
arrests
1998
collins
sink
delete
trained
reasonable
grade
landing
judgment
nazi
donors
celebrate
pock
chest
78
kavan
##andez
publication
hu
##iy
associate
portion
##itable
auto
chapter
typical
eleph
elements
gear
##ns
advocates
abandoned
gest
populations
combination
restrictions
flint
extensive
mixed
unpre
encounter
gut
payment
dod
defended
susan
arguing
##ati
philipp
necessarily
mississippi
representing
##xual
##ghazi
strang
examined
##nc
shelter
bible
##oard
stad
briefing
##azz
mask
cloud
traveled
uncon
feat
passion
cruise
nancy
whit
73
##bes
branch
burned
preparing
narrow
benghazi
subscribe
##away
##ounting
dying
tack
##gs
##eration
fees
complicated
stim
##iveness
medicare
ferguson
killings
bowl
##ries
legally
analyz
##ardo
visible
symp
editing
##oration
photographer
uncertain
gathering
capable
kavanaugh
civilian
gate
forever
purposes
auction
cave
gary
rhet
detention
az
persons
electronic
##king
deadline
hud
intel
berg
##tery
psychiat
zuckerberg
belg
fame
anymore
questioning
tone
222
adopt
drawing
attempting
lord
theft
u201cr
disappearance
basketball
weird
ax
trem
neut
somehow
insist
palace
lights
##oli
confirmation
##uls
bedroom
henry
extraordinary
appointed
71
desert
guest
invas
predicted
legislative
speculation
horse
scholars
##fast
upcoming
##anne
homicide
silence
regret
mate
reun
##cience
voter
corruption
temple
brooklyn
##nd
apologize
grav
signing
viewed
u00d
adopted
recognized
initiative
arrive
understood
ukrainian
##mont
##ours
authorized
stadium
graduate
trigger
larry
affordable
inch
##aug
##ensus
priority
##usalem
companion
cogn
tesla
##lay
malaysia
stead
rab
trapped
hitting
enth
childhood
moderate
employment
volunteers
meteor
assass
incredible
gill
##ii
##een
##laim
##ateful
##oded
visual
ambul
wins
##ucted
snap
organized
dave
casual
intervention
skept
jerusalem
herald
##bn
##pected
##inals
##atern
##ifications
guards
edward
legacy
fasc
##ila
grave
schumer
rushed
gained
restaurants
symbol
##rence
##phones
teenager
gad
shell
insider
##rete
ireland
plaint
anyway
destruction
objects
depth
u201cpr
likes
engage
phr
roads
priest
sued
plea
experiences
apologized
dedicated
vigil
##cedented
inappropriate
aboard
chosen
resulting
##news
perpet
##zy
walls
##inating
roy
teeth
normally
jane
bears
bags
demonst
faster
checked
subsid
##izon
compensation
##ileaks
campaigns
mh
##ophy
lux
##imp
somewhat
mortality
bib
##graph
probation
musk
##ompson
shad
nep
missiles
encourage
##rets
arguments
##izza
posting
praised
stretch
rural
86
collapse
overd
nutr
nurse
canceled
biological
##etta
castro
rifle
incredibly
##ears
slowly
covering
escaped
##rum
oldest
lin
lisa
thompson
southwest
retirement
hub
thin
##ata
simon
gil
fruit
birds
applause
##tle
scan
tam
ka
pier
dressed
120
odds
enorm
domain
unexpected
homeless
institutions
lung
atmosphere
flew
##mother
independence
1997
wikileaks
gates
therapy
##repr
registr
requirements
deficit
##lings
defined
provision
clothing
##ingu
cock
discussions
eggs
cav
##iac
convin
properly
stable
liked
everywhere
arrange
participate
1990s
lucky
sin
##ishing
infected
principal
description
transpar
simpson
oakland
elig
awa
followers
chase
profession
##abled
cra
somewhere
jessica
audio
drone
lobby
venez
forum
deem
myster
wonderful
comfortable
inquiry
kasich
pill
rico
##worth
unprecedented
##bucks
knife
abr
trick
treasury
mood
twin
kitch
kinds
ridic
##ders
uncover
resignation
cous
spin
classic
script
ws
referenced
supplies
03
asian
##estr
enroll
##tha
supports
articles
sweden
roger
u201cas
reviews
##burgh
outbreak
forens
##eston
busy
protecting
overwhelming
##real
settle
champion
hood
yeah
dust
rely
aftermath
antonio
##iti
clinic
supplement
hern
##acts
iii
purchased
##iro
airstr
violated
funded
describing
venezuel
dak
sov
infl
disagree
sets
reduction
measured
expans
cord
##walk
violations
garden
##lers
indones
convinced
opposite
recommended
ethics
trillion
peak
awar
moral
##acks
laboratory
partnership
nose
u00ad
caution
surrounded
briefly
ger
nat
crying
starbucks
vessel
##bell
##wa
creative
peaceful
explicit
websites
##gel
gor
tail
##isation
mcm
threw
##orius
cliff
compos
distinct
outlets
parks
84
shore
jews
vs
hunter
sum
##heimer
narrative
tips
##essing
drinks
##pay
prelim
midnight
sparked
steel
reprod
pink
sits
##prof
stream
tensions
awareness
visits
sweep
tourists
mice
##rd
handful
##ifies
km
exceed
craig
seal
brings
transpl
controls
essential
##bury
jerry
pour
##83
discip
##osi
fairly
saving
prepare
elimin
musical
##ussels
answered
overseas
collapsed
smell
screening
targeting
rescued
sleeping
pistorius
keeps
massac
reserve
ranking
pursue
rarely
engineering
enthus
uc
topic
successfully
trop
proved
dict
fighter
champions
pointing
divided
proceedings
marco
cycle
gig
##icious
lawrence
kenn
tatt
replaced
resigned
mast
##say
grace
desk
universal
berlin
barbara
gag
wound
luck
##esc
inaug
scared
cease
taste
##arak
murphy
beauty
##here
suffer
##rog
trauma
##elet
striking
subjects
jere
corps
philos
stup
survival
rumors
ethnic
lor
griff
fate
warner
creation
glad
expression
u2014which
volume
thousand
subsequent
whales
phase
wealthy
##esty
thrown
##roph
preliminary
##19
##fund
manning
deliber
hung
tracking
rosen
##erce
edition
accurate
##bus
##agger
##unes
jean
dougl
##anted
apps
murdered
demanding
sod
##ali
##itage
feelings
damasc
declar
tan
##father
attending
##die
detective
bie
andre
brussels
pover
antib
salv
fert
##etr
bankrupt
responses
cocaine
zeal
unve
patterns
rivers
trials
bottle
##oln
vacation
latter
damages
dean
1994
devastating
rot
strict
damascus
ceiling
goods
demanded
cain
knight
diagnosis
##opez
politically
prayer
mub
harr
telegraph
lifetime
sgt
contem
##ested
electr
disappointed
database
09
rocks
diversity
circle
goldman
echo
comprehensive
perspective
defect
skills
performing
crucial
##gle
comparison
robbery
reven
chances
poverty
tie
sib
walks
chronic
defeat
universe
scrutiny
gym
##stal
feeding
phill
u201cto
opportunities
grateful
planes
equival
struggled
liquid
aar
sisters
ally
##olds
##isons
searched
arkansas
unsupp
reveals
demonstrators
bart
hob
mah
rehab
endors
diabet
87
kitchen
##arre
nelson
margin
kilometers
flav
choices
constant
spy
manufactur
anxiety
exempt
##strong
syndr
resistance
aqu
sector
tracks
abu
##pers
exped
##ova
barely
advent
79
lopez
advisers
cort
backing
dates
outp
wore
plate
sciences
rent
playback
stake
conscious
routine
tiger
walmart
suspicious
chicken
unemployment
shoes
unsupported
arrival
sony
##50
parker
ships
tissue
inher
##urray
timing
biz
##rid
##irts
arts
encouraged
liberty
bruce
strategic
insight
broader
mubarak
tillerson
vital
##inem
painting
bou
texts
jol
kal
u01
##ivan
##iped
shame
rach
firearms
dynam
deny
illegally
roles
##igation
alliance
tickets
personality
inject
##arthy
bipart
bish
##uable
##issa
shocking
niger
stom
owns
##attered
jav
##icing
carefully
loan
inse
courtr
concrete
##incoln
departure
##armed
screaming
gent
naked
wounds
##berry
##aving
wright
losses
04
lap
evil
correspondent
chen
taxpay
syndrome
unfair
leaked
##angel
hosted
talent
mccarthy
md
fires
mohammed
##auer
selected
andy
expenses
lowest
##amental
landsc
hernandez
##ura
appearing
diabetes
soviet
ronald
reserv
##icking
rud
alan
##ials
loans
presidents
skull
robot
##itis
dakota
tent
vowed
##ports
northeast
ultr
##mel
medal
advised
properties
raped
heritage
##ihad
flynn
compound
stations
preced
hanging
gif
prol
##thouse
clip
##ixon
lincoln
##vens
##oca
rapidly
dil
engagement
existence
raid
holy
classes
cambridge
substantial
permit
abroad
accord
aviation
detected
demonstrations
cooperation
premium
thumb
hem
passage
enormous
##gent
##atherine
82
pose
##bar
##ima
extend
opens
artists
seemingly
urging
burns
studying
1995
kicked
katie
commerce
argent
edit
badly
##uctive
maintained
grabbed
breaks
##comes
##roid
challenging
##60
twins
fatally
bieber
courtroom
explaining
fault
quotes
bold
u2018i
acted
ingred
thorough
holder
1980s
separated
turner
hiding
wells
pizza
##bul
u201cun
##ignment
por
##cia
##child
soul
douglas
alz
hash
northwest
frequent
##hdad
hugh
promises
stamp
##aved
underw
submitted
bump
compromise
##igen
medicaid
chaos
packed
anthem
08
accel
hamas
fishing
tsar
##bour
selection
absence
dear
orient
phoen
quit
detain
operate
towns
stupid
##ja
kidnapping
##anes
runner
sentencing
stephan
sustained
##aying
autopsy
nutrition
##intend
penins
manage
##lical
##ologies
manip
courage
mountains
pure
##err
##lec
##affe
sweat
rodrig
string
directors
rhetoric
jokes
fu
southeast
billionaire
##endum
arrives
ranch
rounds
primarily
franch
deserve
oxy
vit
scotland
rou
ay
baghdad
mph
joining
##riers
indication
msnbc
couch
portland
deployed
eag
solve
cosm
alzheimer
imposed
explore
##estyle
cleared
disturbing
stomach
##eb
##inction
orle
revers
producers
advocate
vietnam
chart
ourselves
fundamental
##ipe
imper
hacking
addiction
counties
##gered
adams
##idal
grandmother
enemy
##inate
##iques
pd
##omfort
##ibr
psychological
hackers
##iere
rooms
generated
creek
##unction
assange
portra
##17
settled
recognition
ranging
chat
mitchell
pelosi
##ami
condemned
khan
murray
##anny
craft
currency
exclud
improved
bipartisan
##irty
underground
closest
tourn
indictment
orleans
obtain
peninsula
computers
soccer
nerv
u2014s
privile
u201cso
announcing
gord
lon
ups
congressman
blocks
archived
##idav
marg
elabor
hispanic
bunch
manaf
forcing
affidav
cass
soil
##kyo
ipad
assaulted
patch
##ria
isolated
tokyo
phoenix
marry
err
academic
refugee
pronounced
smile
gamb
spotlight
defence
##oola
painful
bald
u201cour
attacking
delayed
immun
hearts
neutral
swing
definition
expanded
pace
bias
sadd
pipeline
manafort
##olas
sket
contam
examine
taboola
investigator
engineer
signature
russians
notor
fi
schw
perce
throwing
referendum
touched
protein
cant
kath
discussing
defendants
astronom
u20ac
lindsay
persu
kany
nin
remarkable
proposals
sie
fried
resem
pound
interf
protective
expectations
humanitarian
addresses
pledged
autoplay
##aping
##ushed
teaching
##anor
flowing
forensic
dawn
rio
warming
raises
celebrities
benj
accompanied
##rick
whale
flowers
similarly
attached
pulling
donor
tribute
bizarre
u201cnot
1993
nest
##atar
humor
careful
hospitalized
statistics
factory
awarded
comedian
equivalent
bench
amanda
u201cfor
endang
voices
resolve
83
dy
libyan
loving
riot
##naev
##look
huffington
bernard
tsarnaev
legitimate
goals
bug
rall
debut
genu
ast
##inely
##iano
##py
##thr
transferred
zealand
##ded
brands
##alid
immune
entrance
##elli
authent
physically
evacuated
accusing
fortune
##fc
horrible
lists
viewing
latin
borders
jihad
loves
bub
##uez
coroner
conducting
crossing
nc
##ira
springs
fuck
##ules
phenomen
inbox
regulation
shoulder
##apers
mainly
indicates
hatch
plain
transg
involves
backl
edwards
misd
cellphone
beneath
expansion
##elfare
reducing
nba
statue
toil
##uten
seoul
removal
pad
rome
##dish
shed
assigned
##ettes
##ucc
electoral
literature
mud
##alo
##endous
192
harsh
executed
naval
repair
implications
kay
taught
##hy
defending
journalism
88
##eli
polar
displ
jacob
welfare
##athers
holland
eligible
94
mas
morris
breathing
fier
radiation
magnitude
##gbt
##ieve
superior
sheet
##oning
##oker
diamond
biblical
massacre
##wich
##istent
flaw
chemicals
##aver
##aki
uncle
benn
unh
lohan
##force
zika
##boy
respectively
dialogue
dow
dutch
signals
##uctions
cognitive
baker
lgbt
##osexual
listening
espn
handled
##giving
guid
404
98
##udes
adapt
silent
##ahn
featuring
ambulance
drown
useful
acknowledge
scenario
storage
##cks
##usting
##ache
sull
crossed
disg
sixth
pakistani
triggered
##vere
motive
##bits
waited
vaccine
victoria
deemed
##ozen
rav
##sters
racism
metro
##no
caps
serves
kel
reck
horn
##don
administrative
registration
##mun
u09
judicial
130
kanye
intim
trailer
06
nash
meters
valuable
borr
frozen
hydr
charlotte
sole
recre
knox
##ahah
sustain
infections
##encer
cheese
u00f3
dies
cruel
teenage
argues
hopeful
emotions
##utical
brew
nonprof
virtually
cler
07
reass
parade
vocal
volunt
feared
alerts
fossil
lion
arctic
cole
integrity
pas
inner
u201ck
tropical
aaron
transgender
##iary
##ibilities
##oga
param
tourist
beliefs
##acked
recommendations
benjamin
tac
championship
eve
assume
1990
oxygen
curt
duke
excav
##storm
chip
theme
moder
desc
propag
supervis
bm
russell
seed
##iani
oversight
carrier
jurors
prescription
beyon
replacement
opio
ancest
swedish
brutal
##burn
##oping
keith
statist
promoting
##oto
##chi
u201cre
##iration
1992
nervous
reserved
imprison
ignored
maker
hamilton
agriculture
affidavit
##itect
alleges
1970s
torture
wrest
situations
employed
witnessed
##bow
##anded
##identified
label
server
cheap
okay
naz
##lessly
migrants
##ione
##erald
lethal
irish
merely
franklin
##enz
stroke
documented
tu
expecting
producing
nap
ott
##ello
beating
u00ed
attract
ordinary
##olitan
camps
krem
provisions
madison
fence
##hart
lawsuits
philip
rivals
analyses
episodes
swimming
sterling
elderly
crowds
diver
##osaur
##oat
hip
u201call
murders
tunnel
breakfast
contributions
stressed
beloved
skelet
farmers
disclosure
clashes
suv
firms
suspicion
inmate
u0092
hey
unders
armstrong
97
nik
##western
##umes
colleague
mosque
twenty
enable
robin
verify
jeremy
81
##othy
liver
##doch
reop
tri
explosive
humanity
disclosed
donated
artific
leak
emissions
proven
architect
merkel
donating
parole
##ooth
tries
flags
impl
2020
stevens
##lee
meg
button
93
##omy
pressed
posed
femin
whis
covers
##urred
requiring
cannab
ps
##cry
copies
garner
foster
volunteer
tired
##star
confidential
##bb
staffers
buzzfeed
instr
tai
multi
sail
examples
commonly
mosqu
demonstrated
##reen
meal
justices
structures
phrase
investigative
examination
dated
##inity
syd
sr
##illo
excell
dancing
##omo
u201cevery
##addafi
principles
##holders
##sea
partly
accomplish
alarm
lift
conver
emerging
competitive
consideration
aspects
uncovered
safely
hitler
treating
examiner
##eria
groc
formally
##list
##itated
##acking
campbell
letting
##after
nobel
myth
warnings
appreciate
metrop
89
afterward
underc
insult
202
hire
notion
pollution
murdoch
albert
courthouse
remembered
lifestyle
##usive
streaming
coastal
sinc
notified
testify
compete
mandate
pere
2019
identification
burden
nominated
dign
irs
bund
rachel
aired
assumed
##lick
deport
gunfire
sponsored
riding
ku
lun
ug
##aca
politician
barry
expects
desperate
eager
vert
##gage
##inge
##terest
intellect
screens
weiner
automatic
timeline
supporter
mm
pictured
pitt
openly
dolph
vermont
earnings
##eting
licens
92
cm
noise
laura
elite
debates
mode
magic
bankruptcy
wet
mainstream
tons
brid
temporarily
pants
usat
poster
businessman
counterpart
montana
gains
exclusively
default
overturn
periods
fixed
bashar
aggr
deleted
judici
memories
enterpr
ist
sevent
inclus
removing
recalls
jar
##icate
##ortions
delta
races
etc
distributed
storms
ferry
contribute
cream
solo
rex
spic
u2014h
##accept
equality
addressing
judiciary
dot
hed
##uration
exciting
pledge
hiring
##omed
catast
invent
##bean
entitled
developments
unt
depending
troubled
##iah
connections
exha
poly
pitts
mug
demonstrate
##ctional
annotations
interrog
constantly
carries
karen
treatments
empire
hostage
medication
princess
au
tale
ware
processing
dal
##mons
promising
##ycle
franchise
handgun
winners
cousin
tub
##post
visa
titled
citizenship
##alled
males
managing
##eva
beef
releasing
militant
trash
devastated
##65
ult
iconic
sydney
fing
han
pear
anne
oppose
embry
dropping
chocol
pastor
outcomes
schm
##works
burst
bottles
generations
cardi
isa
sperm
denies
stabbed
heroin
conclusions
ultimate
##ois
##esville
quote
enjoyed
kremlin
manufacturing
sullivan
samp
##rist
heb
arriving
arena
opinions
pros
fee
focusing
abused
coinc
1991
lag
horror
carib
##ylum
techniques
##asy
91
##onia
alg
pla
certific
versus
julian
inev
bapt
adj
minds
pilots
mistakes
conven
inters
fulf
u201cis
##awa
restore
embargo
reforms
##keep
##hl
dose
hypothes
download
uncons
prescrib
islamist
inspector
cats
sue
oral
serial
dyl
billions
squad
guarantee
##ateral
autonom
hardly
venezuela
opponent
disclose
##ullah
constitu
diplomats
butter
##print
identifying
##ahr
bitter
##bie
preval
machines
upr
##uild
##ji
giul
catal
yield
theories
trends
headline
equally
transplant
stance
##iece
brains
nico
##apes
wallace
##feld
saint
unidentified
##auk
noon
providers
freez
boxes
gordon
horm
asylum
outdo
premiere
christians
solutions
spencer
contrad
deeper
dang
helm
thanksgiving
##ieved
##asty
chef
##dale
##gate
##rae
##weight
chel
insect
aster
##organ
##ocation
kidney
##esity
operated
antibiot
##uther
brady
##uating
##hand
scheme
movements
celebration
disorders
flooded
##teen
challenged
gunshot
affiliate
horrific
corporation
evacuation
slammed
boast
exchang
legislature
correl
epidemic
flames
regulators
fundraising
disch
experiments
endorsement
fract
tournament
nonprofit
##lie
u201cj
immigrant
wrapped
glenn
sheen
colbert
u00d7
phenomenon
len
slate
progressive
intake
juven
ridiculous
##iller
##anka
millenn
lifted
abdul
##vi
butt
confusion
##acceptable
dian
dennis
si
eman
##rians
manchester
encouraging
daniels
##aternity
obesity
climbing
celebrated
condemn
anchor
graphic
##ml
##inez
teenagers
regulatory
##aho
employers
vary
##32
20th
##tag
##isers
topics
cigarettes
900
bot
ecl
publishing
tampa
dens
luxury
dent
approve
garcia
trips
savings
newsletters
archaeologists
newt
attackers
antar
concerning
associates
transported
##ocaust
nether
padd
monthly
ghost
gaw
ric
liv
##hum
android
grief
privately
reactions
palestinians
trucks
behaviour
competing
invasion
slide
displayed
u00f6
backlash
bp
cinem
loose
climb
appointment
juris
enlarge
analyzed
landscape
unrel
orbit
u201can
perfectly
theor
rip
molec
irre
revol
jeffrey
alien
pinterest
authentic
##ighth
##acon
wayback
loaded
demonstration
lindsey
mack
sentences
jeb
gabri
belt
parked
reviewing
tactics
alph
erd
seeks
explosives
##ommod
charging
romantic
##rett
classroom
juan
burger
frequency
motivated
berry
terry
subway
condol
kush
spots
yards
##fish
##etically
neil
holocaust
u2018s
criminals
preserve
redd
popularity
parenthood
electricity
bio
flex
tumb
jackie
panic
bry
congr
refusing
engineers
confronted
##icon
interrupt
excessive
admit
brill
tourism
ownership
##yard
tooth
##itious
##ternal
taiwan
hint
formation
gonz
aggrav
oz
singing
municip
pir
lengthy
slo
mini
technologies
stocks
dubbed
guidance
lip
ranked
thail
grim
accommod
contributing
u00f1
tremendous
util
toss
offense
obsc
tyler
lynch
muscle
thailand
chim
knocked
##front
##15
modest
interpretation
gw
gram
philippines
mysterious
##orous
##ader
shaped
unacceptable
burgl
hosts
##abe
hij
kle
##pton
fool
occasional
nerve
stern
donate
chocolate
cem
peters
angela
pocket
root
1989
appropri
incomp
presentation
netherlands
opr
exists
poland
boeing
bee
recount
discour
stanford
siblings
mg
gofund
partisan
bachmann
u2014who
cannabis
##13
##oves
##anks
calculated
##umber
securities
martinez
##uded
misdeme
sams
pride
##week
salary
enjo
mirror
passw
damaging
sufficient
searches
mosul
acquired
sketch
leban
collective
dup
shake
clay
hopefully
barg
##vy
alexa
affecting
##cott
hav
##agen
u201csh
disabled
robinson
ranks
maps
##oop
longest
shipping
retal
semi
gofundme
##fr
fever
pittsburgh
caribbean
bullets
jefferson
duck
huck
wages
##emark
upgr
boo
underlying
profits
checking
pediat
##opard
labour
barn
##bin
carn
indicating
u00b0
diverse
sophistic
boom
picking
rogers
helicopters
endangered
reiter
u201cst
brig
colomb
refr
tang
starring
##cca
workplace
125
ashley
navig
##etics
evans
##icting
keys
occasionally
elaborate
##oulos
reliable
suprem
ht
artificial
underwater
stir
##amo
obst
##agraph
rib
##45
u201cat
queens
mason
acid
fleeing
epic
dominated
puzz
unpr
experimental
peterson
superintend
physician
airpl
indonesia
extension
##comed
ud83
interference
programme
jaw
##yder
##omin
euro
accountable
portrait
##hafi
##net
##assion
uncomfort
hearings
naturally
praise
sounded
vin
bru
smooth
unfold
consistently
rend
##held
outstanding
cuban
airstrikes
smugg
##enna
grandfather
brun
scope
cheer
u201cpe
bleeding
##struction
districts
subsequently
jurisd
pale
##onic
brows
respected
differently
youngest
metropolitan
bent
impression
gentle
nicole
stages
responders
celebrating
u2014in
lasted
prisoner
impressive
endorsed
ank
educational
cox
dreams
##instein
##ailed
ratio
vessels
dirty
##abee
u201con
##ipts
rescu
submit
uncertainty
rapper
wayne
stopping
administer
holes
welcomed
neighborhoods
ri
sid
momentum
smartphone
frustrated
comic
qatar
proportion
suspension
junior
##loaded
relax
stops
preventing
rated
stark
##irm
aging
anna
employer
bitco
sacrament
intercept
rodriguez
##lev
hyper
roots
accidentally
rolled
drought
launching
absolute
prompting
190
profound
negotiate
##respons
doug
dor
##bart
interstate
ideal
survivor
dm
##itr
shan
##artz
credible
versions
##rane
##ikh
bread
determination
organizers
kab
##amous
monument
donation
exception
##yon
u00e4
frustration
recruit
newtown
tweeting
ease
u201cone
reluct
stein
processes
recru
##370
u03b
samsung
chan
seasons
##onda
brotherhood
amendments
kurdish
##aro
##ouring
geographic
organic
##tz
whenever
##cs
gren
coh
spreading
suburban
chanc
trace
briefed
painted
advocacy
beverly
actively
suing
##izer
revealing
toilet
kushner
tong
meets
significance
watson
oprah
centuries
facial
verizon
trafficking
galax
jolie
bog
##itar
reed
##oko
##ups
##ported
patt
wol
amn
agrees
concentration
delivering
kidnapped
superintendent
nyp
##chez
alexand
duties
##opes
##criptions
surfaced
strategist
weighed
cinc
brist
harper
abbott
##oa
##thes
preserv
median
impair
appearances
strongest
astrona
suburb
huckabee
consultant
lesb
anticipated
hannah
hend
##omic
bra
quake
pleased
tanks
96
burr
##eastern
perceived
chelsea
condolences
##ken
##opoulos
specialist
gawker
##lamm
stored
wishes
quietly
besides
distingu
shi
refuse
friendship
consumed
instructions
leaning
##chen
scramb
asteroid
marshall
hazard
giuliani
dug
pete
kenya
absor
hoff
firearm
insurg
beaten
mandatory
ammun
compr
filmed
johnny
##bid
archives
surveys
ci
plun
castle
comply
convince
expanding
gadhafi
arn
impose
stunning
u2014that
rit
moh
1980
motorc
propaganda
##inter
cargo
gaga
meals
##ultz
medium
designer
communicate
delaware
protections
stole
awful
allegation
prevented
mathem
ministers
grey
ammunition
dramatically
confrontation
u2212
stability
##iture
straw
blunt
##ontin
oun
##orld
categories
mors
shield
specim
halt
##keley
secrets
u00c
engaging
swept
##elihood
dylan
scary
transit
##lett
conway
proph
females
dj
##27
adequ
clues
qualified
unconscious
##aya
ont
bike
##isive
filming
contacts
participation
departments
##stage
flown
passes
repeat
bradley
speeches
##bound
ker
reh
unions
creates
sharks
##ran
ate
editors
180
fern
convictions
erupted
incorrect
cincinn
wanting
##shots
occurs
technique
stunned
mh370
lapt
##km
berkeley
monkey
improving
segment
interim
lesson
burial
attracted
##itivity
partially
devoted
1988
pupp
declaration
##inel
hbo
poses
publ
confused
predecess
conventional
bennett
chancell
nowhere
operator
reverse
credits
uncomfortable
orch
##iang
thresh
transcript
wsj
jets
##cel
midter
premier
##guard
functional
spacecraft
inequ
disast
accum
publicity
plaintiffs
intellectual
cincinnati
hors
sty
administrator
deceased
shadow
jared
arth
dispar
contrary
physicians
observers
aur
hind
##cked
parad
breit
##yrus
safer
confirms
eliminate
sacramento
accepting
heaven
incent
overcome
stealing
requirement
violating
honey
idaho
corrections
nickn
ml
tracked
3d
managers
cape
advances
switzer
advisory
lobb
installed
mild
wider
blaze
norway
lottery
affects
athlete
##fol
designated
walter
fluid
stimul
perez
container
##etery
##gom
seiz
clown
occupy
##hran
cemetery
replic
principle
reyn
amber
nypd
nam
##80
incorpor
sympath
##laimed
professionals
cbc
kyle
##esp
##aires
criteria
singap
collecting
emerge
pard
instant
participating
pomp
zh
##roc
##pec
metab
scratch
kirk
thumbn
##ucci
separately
newspapers
##etary
residential
philosophy
occasions
tsun
##di
abund
patriots
spicer
##eo
reel
##press
expressing
climbed
terminal
##onna
asp
undert
remem
minne
troop
organs
##anic
avo
attributed
furn
investments
congrat
##etz
infants
mcg
facilit
embrace
contempor
breitbart
singapore
140
trademark
assassination
aggravated
cod
##asm
customs
cyn
115
homosexual
crimea
sudan
excess
hans
tehran
garage
undated
ko
recession
sanchez
ft
##like
##mm
u201chow
1986
rescuers
overha
excuse
barrier
##mare
stranger
reflects
julie
inauguration
bite
hr
convey
outf
protocol
cher
gaddafi
confed
##uan
inflic
landmark
suggestion
benefic
memoir
newborn
attacker
brett
##appy
oliver
oxford
##acent
margar
exploded
tomb
melissa
osc
elephants
##vereign
u201cpeople
bened
impacts
virtual
nu
##itudes
##loyd
sne
explosions
achieved
nixon
underway
##ascular
kl
mp
##rov
##sky
battles
phillips
intimid
tension
stones
##umph
u201cthese
enthusi
toys
##ahi
menu
evaluation
##14
attitude
inflamm
urls
extrad
montgom
reminder
autism
improvement
laughing
columbus
mechanism
enemies
##ranean
mash
##ede
minneapolis
montgomery
leaks
paragraph
neglig
nursing
belgium
##children
reddit
hes
industries
tattoo
gors
##frey
##orate
rah
hunger
admits
unveiled
110
unnamed
exchanges
lect
coins
surprisingly
##asses
missions
floating
traumatic
##aukee
cel
brow
sovereign
knee
alexis
merch
unfortunate
chancellor
##yt
##urd
##trump
deserves
harbor
bloody
contracts
mansion
##ication
rats
##osy
##aceutical
whist
consensus
entrepr
160
jewel
nod
##18
notably
awk
biology
##ulu
insists
crystal
##osaurs
vest
tripoli
ignore
liz
universities
candy
figured
thanked
##breaking
vel
shower
misdemeanor
credibility
gibson
seventh
u20132
garb
sophisticated
ni
##gie
evan
excellent
lod
u201cch
veto
ruth
boun
lump
griffin
##iors
##xit
##waukee
thirds
##dog
suic
switzerland
##59
compare
flee
omar
fraternity
##abs
incumb
wondering
aims
unsuccess
##enh
##itic
conflicts
transmission
entreprene
spill
zimmer
##aser
##aven
intentionally
cot
glac
renewed
expedition
bust
backp
basement
gmt
101
bombings
##68
nights
hosting
rebuild
##umin
1960s
venture
hashtag
revelations
powell
awkward
yale
u2014it
calories
cigarette
nj
milwaukee
recordings
difficulty
neighboring
defeated
##ili
disgr
invalid
irr
treaty
thumbnails
hacked
manus
parall
recovering
avoided
scored
##anim
components
perception
juice
kiev
adoles
schultz
##tenance
fiction
makers
doi
nightmare
equity
neuros
reynolds
##nell
drones
florence
evangel
##ensions
lawmaker
opioid
anthrop
gorsuch
bil
dimin
contents
intrig
contractor
brandon
telesc
grat
postp
severely
generate
hunts
##mph
##you
rear
counting
tablet
##club
poisoning
ritual
aids
##oni
governors
influential
utter
harmful
boats
surely
grocery
reflected
ingredients
stumb
charleston
charlottesville
skeptical
reception
resume
##ultane
poet
offsh
distress
kimmel
marie
marines
oversee
spectrum
retailers
ais
transparency
bun
billy
koch
laughter
instances
sunni
participated
ballistic
steady
juvenile
mog
##rian
##isely
swiss
cooking
u044
fold
bran
powered
sandwich
neglect
clicking
frankly
certificate
##kamp
forbes
solic
##through
vp
stating
interaction
corporations
joked
##eded
##anth
bros
automatically
optimistic
municipal
vand
##case
warri
blocking
preferred
catherine
pand
absent
pean
simultane
350
touching
##thetic
##inding
agreements
occasion
gifts
triple
circles
grants
whereas
surviving
characteristics
logo
powder
mineral
candidacy
urine
##online
asc
submar
economics
##stitution
u201cvery
lied
##vo
##uting
##ecause
sanct
21st
negotiating
complications
##rophic
evolved
1984
understands
jenner
preparation
hollande
estr
fare
banking
pharmaceutical
sew
patent
sentinel
kit
mt
lightning
discrimin
cad
lone
intend
jailed
clerk
furious
prohibited
limb
casualties
fingers
twist
##ouses
practical
##raeus
##idi
steep
buyers
##fers
lever
detection
membership
pickup
approaches
graduated
##ipse
preca
cleaning
ivanka
dignity
sorts
##eters
compliance
u201cwith
hudson
lyr
##auth
palmer
meaningful
bishop
##oons
nightclub
explor
tunis
sections
acres
booked
##entions
##una
petraeus
urge
loot
pills
sized
strategies
ahmed
fitz
timothy
everyday
relation
delight
amnesty
woke
##mod
partial
mediter
considers
equipped
permitted
nominees
seas
presents
u201csome
snip
snyder
wondered
emanuel
threshold
dirt
intoxic
u0097
mentally
presumably
overhaul
suppress
enterprise
jake
porter
evident
19th
reader
gregory
##gregation
##jud
##fa
sab
contrace
maintenance
lieuten
unnecess
improper
sier
##rie
stere
carpet
indicted
u201ctr
cuomo
permits
u00a9
penalties
##agu
intensive
carlos
helpful
acute
accessible
separation
introduce
##bally
##itively
comparing
distribut
choosing
examining
isolation
nun
incoming
undersc
publisher
rage
sque
yorker
##udeau
indianapolis
nra
reef
##respect
resolved
mere
##enson
tsunami
emily
stranded
correction
pursuing
diana
##ige
nationally
blew
revelation
innovation
aven
destination
fright
##aching
slides
jumping
mediterranean
##fare
hughes
airports
psychiatric
parish
salmon
silicon
heights
sul
##asia
canyon
confessed
ballots
creator
unity
earliest
doubts
u30
##ws
stunt
succ
strain
bother
mull
##enter
spaces
carc
behavioral
##rock
robust
wag
travelers
quarterback
sequence
nepal
lucas
fabric
consulate
standoff
rockets
wreckage
mi
##aches
infamous
closure
bitcoin
fug
brexit
annually
archaeological
sha
trudeau
independently
accidents
dietary
rallies
eighth
wals
identical
breakthrough
observations
reckless
prie
steal
christine
emotion
channels
##otype
tray
artif
##zai
##leading
secured
gunmen
lessons
eclipse
nass
xi
fleet
revenge
nazis
benedict
shaking
sweeping
bos
##estone
notable
##luding
empower
rocky
mistaken
casino
exhibit
defensive
victor
mammals
uprising
##astics
guitar
resource
##iciency
priebus
##col
##vis
lasting
##otta
tenure
glasses
deck
threaten
u00e8
wisdom
baptist
crop
define
approaching
precisely
cubs
spider
handc
favour
manufacturers
functions
richmond
miracle
infer
##abad
arsen
counted
happiness
township
pione
rings
sang
##theless
monica
##icked
##ref
heather
dealt
1979
##rator
u0093
forgotten
spiritual
ze
projected
retreat
experiencing
electrical
##dling
drives
filib
critically
accountability
broadway
restricted
arthur
##long
##zh
##aman
relating
paramed
governing
revised
objective
belonged
overdose
##iker
throat
##beat
genuine
bobby
aerial
bergd
seth
vanished
gaz
##ando
brave
compelling
##acting
homet
##tains
monster
federation
secondary
layer
disputed
psychology
elephant
##far
beth
##loid
extinction
wrongdo
fortun
u2014or
##lington
wales
battling
errors
hometown
##laughter
expense
duration
lauren
dangers
territor
melania
##icism
enforce
unconstitution
acceptable
bullying
stanley
nurses
detainees
##ener
##owitz
nebr
##etheless
noah
studios
mining
spray
deliberately
mick
##mal
crude
cancel
matched
##hydr
interactions
deciding
consulting
inequality
inex
##isk
##acles
executions
importantly
chambers
##osystem
##section
compassion
contribution
nevertheless
banning
1985
morsi
cens
dumb
##16
betr
plaza
greatly
trusted
treasure
##bled
smiling
winfrey
u00e2
volcan
##48
##aria
subscribing
##akh
blake
denmark
supposedly
um
##eries
##orized
orth
caller
blas
priorities
theatre
bare
pyr
##xy
pole
inflation
handcuff
##bles
10th
supportive
commentary
mul
##rine
##amine
shah
farms
nonetheless
theresa
manslaughter
cs
seaw
u0094
crackdown
##okers
evol
aunt
consol
walsh
jill
mes
##erver
##arming
photographed
hoax
kin
##leep
evacuate
nebraska
ski
favorable
notorious
ian
##zi
dement
##opol
##eryl
jacket
manhunt
stephanie
brilliant
assured
narc
resur
violate
rises
sierra
##22
quarters
refers
snake
unlaw
taxpayers
blown
lawn
arranged
dys
##norm
shy
purchases
portray
moreover
weekday
discount
developers
u00e0
gast
##xx
u2014is
paras
provoc
maintaining
scholarship
##oos
external
haley
audiences
wooden
introduction
cake
##bish
prisons
fights
collections
##grad
##ennan
lions
##von
heels
scalia
impe
casey
brooks
eagle
rans
sic
alerted
bomber
inspiration
crowded
mortgage
supervisor
enrich
depends
##lete
daw
goss
stakes
honored
dinosaurs
adjusted
warehouse
tsa
##losed
semin
observatory
divorced
jesse
kris
luke
##ture
deer
##aka
##avor
protester
thirty
oval
cure
gosp
solely
dispos
limitations
sharply
harrison
acceler
nashville
unaware
communist
declaring
bronze
tolerance
gran
homeown
bulk
licenses
iceland
appla
deterior
hostile
##oped
investor
releases
households
dnc
wend
bearing
portug
grid
##achment
likelihood
respondents
bases
isil
shin
occupied
behaviors
##opic
##uces
simmons
primaries
textual
gps
##lon
als
denying
bergdahl
undergo
planets
tackle
paddock
fitness
##van
##vas
##urity
scout
transactions
mounted
vegetables
unanim
performances
undermine
processed
casting
dragged
yan
cnbc
##atoes
awes
absurd
historically
khash
ditch
##arity
whites
jeopard
ugly
lined
pepper
manif
mario
statute
printed
##ascript
##oggi
evaluate
litigation
outrageous
discipline
wrongdoing
hock
##low
orb
curious
meantime
applies
pornography
morm
##eff
marvel
measles
creatures
kenneth
nude
yelling
##pat
subpo
divide
javascript
##iology
##enberg
##usky
locals
1987
ethical
dependent
pc
u2014to
aclu
admission
caucuses
jamie
prevalence
gam
##uto
##iaz
makeup
alleging
1981
tribe
ethan
prosper
shorter
liberals
##written
shrink
withdrawal
baldwin
posing
emailed
encountered
nathan
linda
chop
comet
signatures
additionally
poorly
bour
abrupt
##including
telec
diplomat
sergeant
lakes
giants
shouted
khashoggi
roth
##roe
observer
tablets
clo
flip
associations
occurring
ecosystem
accuracy
shifted
oscars
dash
oc
##iya
##44
thunder
##ares
defer
abortions
plag
capabilities
hostages
routinely
rational
##dam
sentiment
ios
wise
##etical
##occ
placing
##ensen
belonging
caffe
intensity
rever
##adesh
hein
incons
joan
digest
parliamentary
emphasized
heated
invitation
sensitivity
struggles
kristen
adoption
receives
sandra
##uro
habits
educated
contractors
statistical
unconstitutional
bic
pets
stepping
weakness
privilege
autonomous
contemporary
lyrics
cp
whoever
honestly
brazilian
buffalo
foul
shirts
##alling
graves
assessed
valent
faculty
morph
derived
joshua
spo
info
campaigning
lieutenant
cents
mails
worn
blacks
labeled
habitat
ig
ore
aspir
interst
awaiting
gro
prey
considerable
margaret
nyc
##cano
##watch
incar
physics
airplane
altered
induced
surgeon
offs
competitors
##rics
u201cjust
arbit
famously
founding
sometime
commented
highlighted
brag
passport
hardware
conclude
erdogan
##lr
u00bb
bailout
malaysian
instructed
toddler
mohamed
##chs
declare
tumor
##uder
##quez
u201cex
ja
##ean
##mers
##oline
formula
sponsors
fals
vom
yank
##aults
##eu
##ieving
decent
promoted
angle
inspection
##bourne
horses
##uma
export
dealers
speakers
caring
chemistry
orientation
census
rut
##rep
substances
purple
ing
abnorm
emma
playboy
scholar
enhance
##kov
##66
##utive
arra
declining
attendance
evolutionary
agricultural
lebanon
garbage
quinn
warns
##lined
sidewalk
promotion
theaters
gir
delays
mend
##val
##ouds
heroes
organisation
influenced
attractive
mant
tennis
urgent
oliv
fundraiser
galaxy
tib
rebe
mills
##etti
clem
tube
ellen
dana
##ses
simpl
medications
therap
hebrew
offshore
sting
##ista
colors
doc
##nik
##fs
reset
##ologically
extremist
tasks
barred
load
technically
accomplished
reminded
bristol
pi
##24
chant
189
precious
implemented
columnist
tyr
geneva
slaughter
digging
innocence
##azeera
ling
haiti
offenders
everest
earning
##arged
osama
willingness
affiliated
embarrassing
aurora
##sl
##omon
##chat
unarmed
sworn
antiqu
tribal
dinosaur
mandela
##irs
alf
##arded
accounting
voiced
fueled
fantasy
fierce
retaliation
##lif
##ifice
peer
aol
##pin
reald
committees
successor
assisted
scroll
gravity
thread
shep
##iox
oceans
resistant
saddened
dut
jazeera
lets
##bank
tract
##tress
andrea
istan
supremac
##33
encry
20s
premature
bernardino
##zo
##eton
gras
colin
credited
distant
analyt
pipe
obligation
##ums
carp
carney
deton
array
istanbul
asleep
##otherapy
musician
cardinal
ridge
component
doubled
measurements
catastrophic
realdonald
##gue
indo
lynn
recommendation
duch
ot
##liest
##hist
suits
unrelated
sends
##mat
recept
blond
budd
caut
grande
rebecca
tut
##yers
##oday
##endar
volcano
troubling
realdonaldtrump
ripped
pressing
exploring
secretly
decrease
awesome
rup
decor
penis
melt
troubles
shouting
##mouth
##ogether
cookies
jenkins
outdoor
churches
1983
escorted
packages
##accur
acquis
fragments
u201cbe
disability
##ancies
swat
modified
pays
bangl
colombia
lenn
##itary
barnes
##ospher
##drop
##25
##itute
##reach
guant
##oof
extremists
nigeria
confederate
bend
##pit
##erie
u2014including
pont
solidarity
infectious
aus
insert
hotels
existed
dorm
vic
##terror
unse
levin
hopkins
literary
u25
##step
interc
u00e9s
ensuring
hicks
pix
worries
cafe
acceptance
determining
restrict
##olester
tables
rampage
giff
jab
##bm
charter
developer
boycott
dementia
##leen
keen
particles
countless
gesture
##eep
topp
drilling
##itty
liberties
trooper
weighing
##adi
rivera
ordeal
monitored
washed
remembers
purported
ambitious
liu
##elt
##weg
explicitly
allerg
selfie
characterized
mourning
wyoming
unnecessary
hass
##ptive
paraly
demographic
slipped
transaction
caf
u00fc
brennan
cried
immin
fails
bonds
adventure
cyrus
kra
thai
##alt
u200
fines
greenhouse
talented
aggressively
jung
inaccur
unr
freeze
rubble
elevated
mouse
##usc
spell
logan
##iosity
earnest
contaminated
u0092s
##rous
statewide
justify
ears
chiefs
pursuit
sf
tense
provider
raf
operational
generous
isaac
hipp
##31
sla
potter
vanity
strengthen
concentrations
witch
##abil
peru
##retion
portrayed
sealed
##ugs
taxi
revolutionary
unlock
u201cse
disrespect
cartoon
rented
polish
cheek
flick
tune
##rod
##put
carey
athletic
zach
denial
staffer
accidental
wireless
coordin
podcast
arnold
incumbent
aisle
sank
dealer
nominations
ecu
##anmar
efficient
sacred
antibiotics
vanc
##anium
warr
maintains
representation
imagery
whistle
##aters
matching
laying
##ipedia
underwent
collaboration
nons
clouds
##quer
guilt
subd
turnout
avoiding
stabbing
jurisdiction
bryan
##acher
myanmar
exploration
bombers
bailey
gore
programming
##linary
crashes
duncan
bak
##dp
operates
cooperate
muham
##borne
venue
belgian
giz
##ouver
racing
maternal
praying
counseling
framework
prescribed
fathers
trains
euros
complaining
shifts
imaging
##orith
##olo
sham
scul
crypt
##writer
strangers
supplementary
accordance
ough
tide
##ante
rash
mainland
specifics
platforms
kabul
##idt
herman
outlet
meter
earthquakes
cannon
von
1976
freezing
cumm
anat
##ovascular
indef
opposing
worthy
algorith
reiterated
##rim
brick
sandusky
injection
mead
respir
replacing
achievement
legendary
laptop
britt
viruses
samuel
prospects
argentina
browser
filibuster
##backs
imperial
unch
reson
observation
richardson
freshman
hypothesis
slavery
marriages
dominant
hoffman
simultaneously
seals
barric
costa
historian
counterterror
migration
satisfied
##bab
guz
operators
eyew
natal
lunar
licensed
inevitable
##nie
destroying
retailer
mutual
intact
intimate
fallon
##neath
broadcasting
rs
rih
voy
cla
##ippers
romance
wikipedia
abandon
bould
underneath
nationals
metres
dynamic
disgusting
chains
##udge
verified
subsidies
breakdown
kelley
bans
shit
backs
occupation
typh
sacrifice
pistol
nephe
fior
wang
prest
##acies
cov
locate
refund
u2018th
travis
watts
assuming
resid
regarded
beside
dental
##li
joel
##reli
identities
##ophob
vancouver
##iki
decreased
ontario
##iminated
shk
colored
##ocumented
colleges
difficulties
transparent
##erpt
valued
sampling
hs
##uitt
healing
offender
advers
excerpt
verbal
darkness
julia
precedent
cage
erect
mann
mercury
enhanced
macron
coin
nicholas
prolong
fib
##dled
ana
##acular
recyc
##erte
madonna
dunham
deportation
dolphins
hilton
##uity
shook
peers
##prints
kend
vend
##fires
##qq
reign
spike
##acious
fertility
overturned
hick
danc
thrilled
continent
sponsor
patriot
telescope
luther
zones
overr
##roy
mccl
breathe
rihanna
undermin
risky
variation
rifles
##gal
##ugged
##airy
misleading
hungry
hike
##wall
reaches
voluntary
jama
##lements
suggestions
steph
1982
fantastic
echoed
ought
hef
phd
norweg
volat
undocumented
clubs
pleasure
fascinating
gymn
##alez
plaintiff
moss
u2014c
u2014f
killers
blogger
tougher
delegation
lesbian
##function
energ
flies
impressed
appealed
athens
counterparts
gust
kings
##erb
subjected
mechanisms
compromised
gly
participant
1969
bride
irma
traditionally
composition
hatred
undercover
piv
apoc
surrog
utility
holidays
##aul
overlook
commem
asset
refusal
trek
livescience
banner
prostitution
shakes
unbel
u201cv
flesh
formerly
hammer
imminent
consec
##avez
economist
reconcil
enjoying
##gments
cv
yelled
suck
monarch
fireworks
origins
grandchildren
curb
paintings
pediatric
##ching
subsection
goodby
controlling
##igenous
density
akin
mtv
##kes
##elor
quad
##arez
barre
balls
reproductive
vincent
junk
lamb
appreh
assaults
altogether
beyonce
midterm
shkreli
kg
croc
delegate
laughed
emir
curiosity
categor
caffeine
pp
##eta
picks
penetr
settings
dumped
arrangements
warrants
dive
mim
chavez
carriers
mornings
radi
furthermore
mobil
elevator
lava
diane
cork
jin
staged
chin
##odox
risen
intersection
bland
wildstein
##boro
tongue
##stock
##aux
disputes
hallow
abdullah
fertil
breed
cancers
challenger
cardiovascular
joking
##xon
##ked
infring
barriers
steen
chairs
dubai
##bling
##wart
html
##itement
entities
##afe
atmospher
artifacts
prank
believing
impacted
improvements
permanently
tariffs
toyota
##rin
##edral
shops
##abouts
blaming
defam
sells
disturb
##right
##stairs
fry
unle
coron
latino
##35
##americ
##iments
##ateur
calendar
bryant
abuses
intends
indigenous
northwestern
filling
unlawful
##lem
dock
franken
hp
##bag
insiders
urg
carrie
exercises
qualify
ninth
displaced
servers
greeted
persistent
titles
sd
##aba
listing
##space
hayes
u00f3n
fiance
pension
tul
interactive
feinstein
surveyed
triumph
lobbying
sizes
##ibutes
noaa
minorities
corey
gospel
abed
##berger
boot
deadliest
locker
correctly
u2018the
pulse
predecessor
evangelical
##comm
genome
committing
supermark
appealing
shifting
submarine
##gio
##itate
heal
alike
chile
claire
invested
curry
overwhelmed
poured
ct
vik
seated
leaf
answering
sara
feud
excluded
burglary
arbitr
counterterrorism
dairy
abstr
blasted
substantially
trayvon
cites
u00ae
mcl
criticizing
ladies
astros
altitude
##loe
protesting
##mingham
gau
relied
retwe
matches
dissent
muscles
bridges
##ux
##urer
ordin
bureaucr
consciousness
kam
ral
resum
collision
insurers
widow
reacted
clarify
hilar
mistr
##quir
instinct
abducted
feedback
cathedral
gonzalez
reelection
sculpt
##wick
##ubs
issuing
assaulting
digit
harvest
bunk
hos
##bach
steam
janet
hamm
magazines
essay
lamar
hod
##rad
threatens
embraced
skeleton
halloween
fict
alice
##ogs
attends
haram
electronics
ailes
cattle
wings
##ulates
##earing
##cripts
delhi
unusually
deployment
paramedics
fcc
##atal
concealed
priests
giffords
unbeliev
##67
##urt
swall
laughs
manufacturer
lau
wow
##ea
stap
defender
koreans
birmingham
melan
gaining
href
kc
nag
wi
doe
scal
martha
u00e9e
respiratory
fiorina
consecutive
ousted
shaw
arc
sheer
megan
102
raj
watches
170
laser
fifty
muhammad
pon
drops
whereabouts
delivers
certified
mig
itunes
offended
barcel
photography
cooperating
ferr
transmitted
passionate
pam
##ci
##emia
raids
michele
respects
1970
intentions
boulev
pile
perf
scottish
lanes
##uates
slim
sooner
1950s
mogul
reply
u2014d
routes
1st
##olics
brush
olds
patric
hardest
geological
moms
rhode
shelters
hockey
lis
vib
##caster
##essa
centered
##struct
ceremon
eaten
colonel
abbas
##ocated
monetary
teammates
restored
illnesses
sympathy
pyram
eyewitness
fraction
outer
baton
##ipper
inhab
spears
probable
testament
prosecuted
rhy
mounting
haul
strat
captive
ahmad
siege
##power
heck
slave
sanford
connor
midst
salman
separat
loyalty
cheaper
lac
pt
ry
shareholders
undisc
barcelona
dv
wives
##64
hailed
bystand
ordering
punished
bachelor
taxpayer
ave
u2014m
sharon
foley
restoration
slept
qaida
manifest
danny
lauer
raz
incon
guine
libert
1975
u201cdo
belongs
abraham
##oured
adap
clause
1978
stabil
insurgents
consolid
tier
onset
edt
concuss
retain
possess
##ophys
u201cbecause
##olesterol
norwegian
scattered
elon
jeans
eyed
shoppers
radaronline
insects
steenkamp
mayer
hunters
predomin
pine
thorn
##iman
convinc
recreational
inclusion
oath
bez
##ogy
##conn
administrators
hurting
curtis
backpack
boulevard
pond
##imm
troll
listened
shotgun
televised
languages
surgical
towers
expertise
##borough
punched
offenses
invite
##urring
directions
placement
correctional
sticking
ud83d
compounds
##izable
sob
cared
leonard
##otypes
interrogation
fargo
rt
adverse
##inski
christina
intervene
nutri
##tering
socialist
teresa
edited
easter
instrument
lex
discretion
buses
popul
minded
microp
produces
structural
nasty
##hard
fruits
abe
##ailing
commons
decides
newsweek
denounced
focuses
proceeds
##iasm
bangladesh
ace
##reed
atomic
boring
panama
wand
rect
##ikers
##itters
liability
lanza
insisting
nad
wes
##enko
unst
genius
nationalist
##28
##sein
chunk
suite
##avel
instantly
costume
gradually
layers
karl
whitney
##uously
##hill
##mans
confer
##usters
enquir
relent
aggression
contamination
##hot
cholesterol
unint
plague
grip
minors
probability
reinfor
somalia
bast
eis
##icz
##andowski
plates
firmly
villages
##anche
mau
rey
##urance
abusive
cares
postal
##ernick
cheating
gunshots
paltr
opted
riders
reilly
verge
pedest
catching
beverage
reluctant
bass
tenn
steele
credential
broadly
traits
outlined
obligations
lloyd
nh
##hem
schne
luis
horizon
mathemat
fm
##ais
dispr
capability
snakes
hedge
pompeo
tiff
##idy
workforce
##ollah
fallout
foreigners
destruct
spirits
spectacular
carlson
##igg
spinal
manuel
accuses
appet
dayton
karzai
cec
##met
##attled
consuming
creature
emotionally
mercy
mammal
goodbye
kut
pause
u201cany
starred
snapped
##gyn
kathleen
furniture
##page
emmy
responds
cornell
klein
cotton
ransom
##osc
comcast
##unted
##ovich
185
michel
salon
sacrific
sanctuary
##broken
##aneous
societ
corrected
rouge
lith
masc
##even
whip
timber
##ahan
filmmaker
sadness
saman
symbolic
initiatives
enthusiasm
atmospheric
gur
iq
toggle
balcon
implementation
ultra
sustainable
aston
hollow
##71
remed
105
subtle
assertion
metabol
jewelry
unre
blowing
slain
freeman
spacex
admir
arabic
tapes
gilbert
arrangement
administered
cohort
##gets
bets
coordination
shiite
chrom
##atorial
desperately
outsp
backyard
clearing
boards
intelligent
balanced
1977
1968
attendees
cypr
schmidt
ain
ingest
tox
forbid
brink
meyer
backers
##attering
responsibilities
paula
subscription
exchanged
disappointing
emphasis
pdf
duchess
divid
wu
reim
##igma
idol
skill
surrender
graduation
recipients
parallel
butler
stef
loading
baseline
hyd
nuts
comparable
disciplinary
tire
##tic
sexuality
mormon
kills
measuring
sadly
##rina
##orph
usage
recons
failures
neurons
hannity
duterte
##38
atop
fron
trap
billboard
mush
homs
u201ccr
stripped
farmer
launches
hammond
mumm
##chin
amph
bless
marking
specialists
observe
breastfeed
blasio
guinea
ai
vas
##rs
##fk
##wald
##unting
faa
drill
wildfires
psychologist
pursued
switched
##opy
franco
fatalities
mashable
incarcer
ecuador
jazz
sina
wint
pew
interpreted
embarrassed
litter
mum
compiled
maid
sexy
terrifying
travelling
##iciently
translation
sinking
ki
##omez
booth
damn
##ozy
stall
u2014as
middleton
firefighter
fossils
enrollment
reversed
persuade
fond
##70
##pot
leap
demol
eddie
directing
filings
midwest
favored
miley
prospective
cautioned
portions
catholics
kicking
exhibition
yoga
##wreck
commence
barrel
##ounters
##hani
codes
exagger
slip
sanction
neighbour
screw
constructed
abnormal
tat
##cation
##iates
depp
##awi
confirming
globally
animated
imagined
bonus
imprisonment
aj
dere
mn
##aj
##think
##awl
flower
enrolled
unhappy
adjacent
fitzg
##itial
##iler
##urry
endured
lifting
adequate
hover
pruitt
accuse
applying
roose
limiting
pageant
##losure
sporting
accompanying
flavor
grows
1973
gol
lover
##mith
##inging
expose
encounters
750
outraged
##anthrop
##arium
##irmed
spat
dragon
forming
##riage
profiles
beaches
dishon
lanc
til
wired
extending
boarding
functioning
immunity
embryos
convenience
gossip
fog
##oust
##iberate
boots
methane
attendant
fragment
feminist
##ounce
scans
lesser
draws
randy
landsl
cheney
specimens
pardon
##eem
##icia
##owned
boundaries
##eny
##ilation
myers
helen
cups
motivation
blanket
mish
##kowski
##edict
##reated
wherever
entity
lighting
reflection
u00bd
legitim
germ
##osity
drank
famed
runway
oppress
anxious
annotation
instruments
##zb
degr
coma
clue
marit
engines
circulated
supplied
cind
##aha
disappr
heightened
alexandria
2nd
##piece
##enza
##ourse
##ieves
sword
##iffe
initiated
persist
hello
peanut
boulder
gomez
drain
##offs
##cha
amended
justified
1972
##122
inquiries
fucking
fitzgerald
##eon
##igious
injuring
ideology
accounted
unsuccessful
rnc
##ho
allied
coral
speeds
soda
##arians
##otes
acre
messaging
doses
pse
vine
##ysis
inspire
accurately
umb
##nut
u201cwhile
001
cb
##bir
##ctica
shattered
##usk
meghan
scouts
schiz
watchdog
##limited
##onnie
clinics
reunited
beyonc
acquisition
nephew
samantha
shap
u201ccon
crushed
##pring
format
displays
rim
chad
unauth
leaking
consp
##minster
debbie
kaep
kan
##bec
##ych
chew
hagel
unear
newark
##ahim
samar
coordinated
drowned
daca
tours
availability
goldberg
traditions
##holder
disclosures
rupert
sochi
warfare
metaph
denis
contentious
negotiated
rosa
coaches
coleman
naming
##acht
##velt
predators
adul
monroe
allege
188
revenues
adolesc
mint
##hu
##inform
##asse
##jan
##eur
##asha
burke
angelina
dismant
cockt
settlements
interstitial
patricia
vag
##orah
traces
u201cal
worship
##aco
breeding
devil
dining
shallow
##recy
intentional
suburbs
bout
rapp
##oux
contempt
##insky
1971
microsc
antarctica
password
cf
sway
stal
cheers
1967
consequence
evaluated
mechanical
forests
##anton
##liner
gasoline
tabloid
jind
jup
##ido
spare
joh
excitement
450
memorable
katy
manuscript
kaepernick
##gart
##90
##kk
##unning
cob
llc
regulate
minimal
insights
euth
lens
##urg
proxy
deliberate
irrespons
operatives
voluntarily
imprisoned
recruited
niel
hast
##iked
allig
11th
greene
chapel
crust
precinct
gardens
rosenstein
wrap
courses
marched
consume
cope
##ei
##anamo
sake
##uala
sunset
sensation
wade
##rez
brib
sober
loses
financing
smartphones
magnetic
robertson
bits
nord
##otal
notification
grain
richards
traded
##ommon
paperwork
u201cwhy
relieved
attitudes
captivity
possibilities
precip
1965
descend
guantanamo
##las
##hift
##obs
spouse
##endered
peg
##ques
prejud
travels
1974
ipo
lungs
##ostic
mohammad
bubble
extradition
##babwe
stalk
append
secrecy
seniors
violates
petro
sprint
roosevelt
nan
resting
economists
deepest
zimbabwe
sticks
bmi
otto
euthan
##thal
seeds
spends
preference
edu
##brid
uranium
##arz
megyn
skr
solved
legislators
leslie
batteries
disappointment
preservation
kau
##ocese
blessing
ern
contracted
reflecting
bowie
gabriel
hogan
inhib
##ilitation
##lean
shelf
shaken
##ensible
syrians
aval
makeshift
admitting
##uman
u201cnow
##ensively
blackberry
linking
diplomacy
introducing
concludes
subscribers
outright
grieving
backup
affirm
audit
eleven
guaranteed
outlook
pseud
rides
##itative
regress
##ems
glimp
cancelled
labels
lacking
acknowledging
cartel
lavrov
vandal
uphold
authorization
shootout
hussein
glimpse
rous
##terior
alarming
deen
maneu
noble
##hea
tommy
princeton
exceptional
accusation
lewandowski
dynamics
indefin
fitting
quint
erin
establishing
interrupted
maritime
lamp
##chair
##ianc
descent
organizing
problematic
hacker
reacts
exhaust
##21
##olly
jupiter
cum
##witz
##alous
##quin
##acey
##grounds
speculate
##ratic
marcus
contempl
abstract
##orton
##ema
anytime
undergoing
fundament
advertisers
pf
##nels
##enth
untr
contests
captures
northeastern
olive
chaotic
cortex
batch
leather
poised
glam
contributor
u201cwas
assumption
leverage
heter
##orie
stu
sachs
thrones
waist
1963
subpoena
fran
##usa
finances
humil
holdings
fastest
hormone
entrepreneur
lips
preview
slams
careers
clearance
civic
heartbreaking
collar
construct
sergei
ncaa
##pecified
natalie
cer
fits
##hop
##ghai
misunder
celebrates
variables
reservo
molecular
alpha
ou
##aton
singh
snapchat
petersburg
enabled
scare
petty
##parents
##ophren
cardiac
chapo
ranged
thoroughly
##atz
tracy
runners
rogue
cantor
vander
##ski
stairs
doj
monitors
themes
obese
indirect
serb
silly
danish
tribes
inspectors
bronx
tumblr
estranged
aub
eg
troy
uss
designs
troopers
cautious
convincing
destructive
sark
##inery
coat
surpass
speculated
propose
greens
archbish
chapman
freddie
recipient
pockets
reconciliation
diox
distinction
broadcaster
fatig
comparisons
apartments
masters
schizophren
wond
u2122
##iva
courtney
kurt
inflicted
paltrow
pest
insane
cycl
ceasefire
underwear
prone
clips
assail
conscience
merit
acquitted
enquirer
rains
##sons
inability
##usible
publications
realistic
magistr
definitive
accusers
belongings
sincer
ost
pes
ss
tina
##46
beta
signaled
crem
##ugging
detailing
##ieval
tuition
bands
dk
tuc
##47
##99
sheikh
rover
prosecute
predator
connecting
climbers
kissing
fulfill
branches
deaf
roast
charities
stays
hawking
grabbing
innovative
overwhelmingly
vitamin
shanghai
##lass
##illery
##awling
obstruction
blair
##phis
bolton
##36
beings
rolls
lacked
4th
##achi
genre
viable
freely
rubber
abduction
wrestling
##ulent
crops
donna
provinc
payroll
unspecified
ignor
reopen
seizure
huntsman
provocative
dart
exports
assign
effectiveness
hemis
slideshow
trending
exxon
interact
##rystal
prolonged
hir
##rit
##girl
circulating
lowered
wilder
migrant
assembled
reunion
typhoon
topped
blessed
##ylie
depressed
##guards
transformed
##repres
livest
cough
rider
##ationally
herm
##qual
letterman
u00e1n
u2014was
balcony
gins
pund
hew
##esta
neal
##izations
##strom
suspend
cait
succeeded
shepher
kos
##inos
offset
##ellation
colony
costly
financially
orthodox
rhyth
pne
##amer
wors
grams
assure
shoulders
##ulsion
valentine
credentials
pairs
unm
upheld
overl
halted
miscar
kob
vague
newest
u2014he
##adequ
presumed
biography
drunken
eruption
dip
tig
ende
visitor
extinct
collusion
independents
conj
unfavor
buyer
commanders
interfere
inflammatory
inaccurate
chlor
interfer
katrina
deposition
constituents
boko
cou
kaz
confession
freak
declines
borough
illustrated
abundance
dioxide
pneum
kap
lance
##rol
##oding
eliminated
terrain
lockdown
pleasant
motorcycle
cindy
unearth
lately
##ongh
memphis
apprent
acknowledges
lapd
archbishop
bore
jal
tends
##opath
trunk
unlimited
sci
mcch
cruelty
##modo
taped
##zed
shoe
##rys
continuous
coca
pigs
##ingham
commod
ideological
tunnels
converted
crocod
fictional
ces
katherine
##iston
parental
deported
specify
visas
##enne
terrified
classmates
mcn
clever
demonstrates
logic
parenting
eagles
tucson
obsessed
dispatched
nickname
fianc
pbs
##uum
##eno
##opular
18th
malicious
##holm
owen
nassar
gizmodo
guzman
tempt
frances
chand
seize
##ulative
colour
systematic
snl
liberia
dui
ralph
wald
inning
ampl
smokers
prediction
lacks
gallons
andrews
rangers
##moil
dictator
peng
cros
##ensual
1945
##bu
##war
joins
flour
shelves
deposits
uter
ink
##elve
##sten
alumin
reserves
mega
canal
continental
u2019reilly
murderer
robots
turmoil
inspiring
wendy
unauthorized
das
jpm
nike
beard
##issance
webb
fetus
lub
##uably
wears
##ainted
insuff
thankful
escort
scandals
##ogenic
lovely
randomly
hump
##daughter
##try
cola
dual
##cul
##estation
crush
arrow
judy
objections
stuffed
beneficial
eug
##dles
alv
composed
conting
flake
grandson
applicants
undisclosed
dire
jp
##zer
trio
newman
mammoth
altercation
ya
chatt
chips
u201cafter
proving
charitable
14th
requesting
abdel
beverages
sinai
onstage
##imeter
lemon
genetics
slowed
disruption
homosexuality
lomb
##face
##stead
##uri
sof
scam
israelis
##ommun
u201cwell
montreal
jenny
owed
distinctive
tossed
kad
##upp
##orf
##berman
earhart
uncommon
rehabilitation
premiums
flawed
##erable
brock
regrets
philanthrop
speeding
linkedin
skepticism
ingredient
discharged
intoxicated
skrip
trophy
performs
cracked
mik
##cht
##ipher
swath
diving
pg
wounding
##tor
##iri
shipped
seism
##unct
u201clet
militia
slee
##zech
ashamed
unbelievable
tended
dea
chasing
amateur
misch
musicians
ambitions
anchorage
tattoos
sodium
marginal
outspoken
kuala
beau
chor
historians
ignoring
blasts
bc
hd
##ben
input
inadequ
heidi
wass
outreach
aggreg
deserved
culmin
fragile
cute
nab
##23
drake
electorate
marketplace
presenting
socio
##regard
attraction
penny
gardner
abruptly
offspring
lovers
nunes
sherman
plug
indians
caliber
cement
analyze
u2014with
invasive
salvador
limbaugh
commencement
provincial
qur
vamp
wield
atroc
smiles
smashed
racially
u201cbl
harassed
forgive
precaution
wished
##tw
##stop
##uter
neo
weed
downing
proves
artistic
operative
divisions
panetta
ashton
mcmaster
antarctic
astronauts
henderson
hott
rays
##elman
shak
##ardi
emplo
mattis
analyzing
rental
##utt
##cker
##osition
tres
genetically
##books
motors
extract
u201cdon
kinder
##29
##atri
ineff
##chn
usda
startup
solomon
supers
berk
mcdonnell
corresponding
institutional
hoboken
mosquit
sided
seaf
roommate
commissioned
tactic
disasters
spear
spying
##inement
radioactive
rumor
contested
lumpur
prosperity
u201cbr
handing
refuses
divisive
bundy
defamation
ced
wiped
saga
reps
enact
twelve
camping
moines
classification
commenting
superher
alternatives
##points
hydrogen
lighter
mell
inh
u201cman
enacted
brav
##acp
assignment
minus
cultiv
mocked
mocking
mia
wool
##pal
afterwards
104
corrid
suffers
illicit
ancestors
intriguing
binge
##will
##iltr
sheep
plumm
graff
##anson
u2014not
##ogg
births
proteins
lonely
##foot
eventual
portfol
environments
surround
sightings
unfolded
##arios
##isch
packaging
1964
mahm
tant
##top
adher
##geries
cockpit
##din
##had
##mite
forty
##eard
resil
quarant
regulated
indonesian
margins
bugs
discharge
plunged
isot
convert
conceded
##atti
johns
victories
cpr
fuk
rant
##88
spree
##ellar
brent
meyers
videot
slog
unpopular
sovereignty
falsely
wonders
uf
##icist
stump
chilling
parach
commitments
finishing
##panz
prohibits
ket
sot
##cient
bees
davidson
balloon
u201cmay
shipwreck
hypoc
chimpanz
bezos
pedestrians
frost
legalization
bishops
schwartz
sailors
puzzle
jungle
jak
soup
disse
106
looph
closet
reasonably
accessed
keystone
faithful
ellis
##ahrir
portugal
tahrir
##rix
##kirts
tran
##ivals
##aws
efficiency
halfway
richest
austria
bottled
u201cyes
duo
scaram
freder
relying
ounce
yanuk
folk
rejection
tunisia
nielsen
owe
##icular
obit
denise
melbourne
renowned
orchestr
doping
whop
airing
launder
injust
walt
coffin
naacp
integrated
kaine
##lake
farming
cheat
stationed
irresponsible
##ollo
alger
disabilities
##eredith
undec
satisfaction
prophet
cans
##ram
##isible
##ammar
##ifiable
invented
texted
drafted
jpmorgan
nail
shawn
expired
grandparents
prohibit
liquor
outskirts
stimulus
mushroom
coke
hence
##leting
##uda
consists
milestone
loop
arguably
conflicting
embedded
tortured
taco
rehears
volcanic
lingu
##ulin
ort
campaigned
silk
gallup
airstrike
##ahahahah
dolphin
bites
hutch
meredith
ours
investing
finale
kimber
predictions
strauss
gorge
fugitive
mold
viv
##chool
secular
flush
confusing
treats
persec
woody
dressing
nicolas
volatile
rope
vod
smoked
specified
alley
u2018d
expressions
distinguish
##mail
##pool
##irk
seb
manual
issa
135
murdering
generating
daddy
archaeologist
disagreed
grammy
coordinator
appetite
gotta
ng
vern
##db
##found
##kind
anes
abol
crashing
strick
advise
##ograms
agreeing
recommends
pursu
3rd
coul
gy
mature
sauce
clad
reli
strongh
colo
indications
wildfire
christianity
colonial
tactical
escalated
recounted
scaramucci
dude
nitr
rode
##emic
crater
##ovan
depicted
miners
175
u201chis
sensors
wallet
albums
aquarium
pearl
mcchrystal
##opp
unite
newton
plots
guerr
oversees
clarity
marshal
borrowing
hi
##77
broker
accent
copper
wheelchair
forthcoming
unwanted
passwords
homeowners
predominantly
9th
lid
##urb
ala
drif
coy
wrist
kindness
cooling
dunn
prepares
ucla
bella
##mic
cybers
saleh
##onomic
disturbed
##soever
meddling
slaves
aviv
francois
unsafe
tendency
exploit
reopened
pup
##otle
knees
explored
redistr
upgrade
astronaut
czech
hiking
sally
tapped
withhold
potent
cables
meteorologist
supermarket
vicious
##34
##leas
abilities
leah
uploaded
##robor
drowning
libertarian
##anity
spur
canon
marin
##ologic
airways
artillery
fema
rudy
negligence
emirates
##isi
##wealth
109
freel
manson
asserted
unpredict
bain
dough
pics
arlington
downs
fined
titanic
suicidal
##61
stiff
##usions
whatsoever
mcgr
hitch
scientology
portman
madrid
##ascar
embarrassment
ounces
gratitude
##icable
##iffer
crist
underest
##atched
johnston
u2018h
hurts
hurricanes
traject
genuinely
bury
rack
yose
##lys
usher
stroll
judd
envoy
recipe
preparations
kor
##inis
##irical
arson
caes
silva
tyson
instructor
pierre
wp
shorts
chrys
healthier
sunny
severity
circulation
robbed
networking
panels
appointments
bacterial
diaz
ez
##drew
##39
sheets
upside
slated
populated
discoveries
basin
##lining
darren
gangs
astronomers
pork
##hma
##otion
##brook
opera
bolster
##estrian
enthusiast
unified
soy
obtaining
motel
pierce
brittany
ses
siber
stair
upro
relate
guided
implant
##azed
concessions
condemnation
gases
lago
leuk
u201ctoday
activated
commonwealth
positioned
370
vaccines
batman
griffith
adaptation
exhausted
fiber
jos
lud
##agh
annex
divine
driveway
optimism
lil
mb
##arf
withdrew
trent
cheering
##writing
prohibition
pant
##mi
proxim
##actic
addict
longstanding
enduring
artic
verification
stormed
respective
rainfall
##keeper
overseeing
breastfeeding
infiltr
retiring
patience
111
shortage
branded
swiftly
horiz
broward
traced
honors
merced
maduro
odom
ds
gaps
gaming
##amy
chester
brien
cries
##iph
##ocks
solitary
travelled
reactor
departed
bucket
deficits
eliminating
stalled
shannon
sep
productive
##boards
armored
exposing
automated
warrior
hilarious
reconsider
mak
vick
##moon
##itan
dew
##user
abusing
##ibal
blu
runoff
organize
heartbroken
ledger
jealous
proposition
scenarios
sequel
fashioned
dispatcher
transformation
lax
##kok
u201cgr
overweight
undergrad
surgeries
belly
gloves
peacefully
semitic
diameter
schwarz
unearthed
##ims
securing
##erys
founders
comeback
hallway
supervision
zhang
hassan
jahi
uh
wary
##oportion
imports
##cribe
lifel
soros
fetal
tornadoes
poetry
garr
inad
boarded
360
housed
termination
u00b0c
corker
##hole
##nan
ans
cloth
daylight
showdown
sexist
humane
modeling
raping
synthetic
perpetrators
cecil
##85
monte
##inton
endanger
##health
westminster
varied
kickst
brutality
phillip
dhs
lining
wit
cran
cripp
disgu
scor
kne
medals
farther
realm
u2018you
santi
pouring
vomiting
nonsense
mps
wan
relies
confinement
odor
ebay
facilitate
pengu
aligned
##uding
adrian
slogan
originated
louisville
liberation
steadily
havana
abedin
resumed
rushing
yang
anom
marion
finland
##atories
16th
pleading
##goers
##oyed
seller
constitute
##making
shack
johan
slaying
humble
##anners
criticize
seasonal
zomb
##agne
contender
defining
publicist
enters
madd
lymph
satellites
predicting
paradise
contraception
ibr
u2014an
felon
institutes
kilometres
##isp
raided
floors
assessments
bangkok
accommodate
fent
cluster
##uba
sox
genoc
endless
retained
distraction
technological
aiming
ashes
arsenal
5th
void
##with
notifications
factories
17th
u00e7
##afts
norman
advisor
statistically
vertical
##ischer
##sex
extends
malware
charts
kuwa
##iott
grove
obl
remorse
feder
##annah
imagination
nikki
disgrace
disproportion
hemisphere
apprentice
gerald
##asi
unil
merr
postponed
koh
##iop
##mn
ree
unb
brat
##troll
imposing
u00ef
vacuum
##tert
##unner
##uber
warmer
12th
swamp
##beit
##ographical
boris
buddy
hawk
enthusiastic
aluminum
jog
riley
##orously
##itutes
weaver
##manuel
newsroom
guate
filter
organisms
embark
georget
remarkably
eyebr
containers
terminated
buffett
licensing
schizophrenia
yosemite
panc
##dain
fres
unequ
emm
similarities
impaired
hazardous
comprised
explorer
bh
sut
##chwitz
hague
clashed
remn
##otto
corrobor
motives
criticised
renov
forgot
mosquito
monkeys
barrels
lugg
dehydr
spam
##gev
##ecd
168
1960
purchasing
frustrating
impeachment
ranger
##55
chi
incidence
suscept
reductions
assisting
floods
discred
weighs
unwilling
masks
dade
dixon
medi
handout
pilgr
1966
applicable
mixture
rodham
sequences
raymond
fishermen
conceived
##cm
heir
deuts
outgoing
intermedi
moroc
occurrence
dismissal
mitig
brigade
auschwitz
fundamentally
gub
behead
involunt
celebrations
planted
asthma
glacier
stuart
ew
ike
kathy
pricing
spiders
manages
charism
policing
physi
rebell
restraining
punct
jacksonville
withdrawn
creepy
plagued
ports
vap
expend
donnell
generic
protoc
protested
rockef
beds
smithson
variable
acquire
worrying
gambling
luggage
gos
wink
##bial
##jah
thwart
consensual
cultures
pathway
sounding
hypoth
nyt
publishers
ltd
presumptive
narrowly
fist
chased
unins
throne
debated
exceptions
promptly
binding
touted
shir
unin
spont
governance
skies
chev
glen
illum
surfaces
reconstruction
fingerprint
unemployed
inevit
derek
kun
##ng
bean
heath
fearing
splash
smuggling
tiffany
##ulk
bloc
##atte
positively
limbs
flores
curve
accuser
riverside
plausible
inconsistent
cory
##elia
hail
peop
regain
documentation
convoy
diary
awak
micr
strictly
output
sniper
clooney
portfolio
##isly
beats
slash
harmed
affection
##gett
vulnerability
utterly
hottest
fury
thieves
##arn
##otiation
##ctv
repay
allison
##inda
laund
holt
thoughtful
labs
purse
miranda
##check
explanations
supremacist
shepherd
aka
gum
##matic
plos
percept
downplay
empathy
interviewing
rocked
##sterdam
wolves
incentives
dawson
bik
nol
pts
u201cmost
overtime
protects
tomatoes
predicts
amput
breasts
manufactured
dread
gav
slic
##icul
drills
medieval
southeastern
announces
tasked
ranges
culpr
leonardo
authenticity
recruiting
trespass
mahmoud
smithsonian
shelling
##acas
mines
slot
certainty
outbreaks
gwyn
merchand
80s
hut
rug
##26
##erty
seab
invisible
128
assessing
mateen
adapted
##nia
##omi
cleric
incomes
bulger
complexity
territories
inadequate
bacon
xin
hastert
disl
overhead
charm
winn
chemotherapy
battlefield
correspondents
u201clook
unexpl
avalanche
buch
nost
nih
leh
##otte
bigot
angered
citation
photographers
diagnostic
alfred
hated
tally
unjust
u201care
##isha
frontier
stockholm
demonstrating
acquaint
suppliers
mentor
inaugural
incorrectly
baff
yo
spurred
intest
airspace
playbook
carroll
u201ceven
retrieve
bosses
ginsburg
##adh
chill
13th
solving
revive
1950
correspondence
levi
altering
exceeded
mosquitoes
gays
zip
##gone
##ionage
apollo
##tedly
expectation
cardinals
savage
fiery
cater
hil
mumb
##inces
marital
distribute
##lessness
dispens
jamal
mentions
rallied
pneumonia
rockefeller
iphones
yon
##76
##pd
##thood
minn
debuted
burk
educate
cracking
ramsey
implementing
flexibility
##odies
##ourt
allergy
agu
completing
##oven
insults
devos
honoring
counselor
munich
rutgers
niss
vibr
##79
u2014for
billed
questionable
checkpoint
volt
cooked
wheels
u03bc
deposit
jeopardy
chanting
curs
kell
stagger
congregation
sev
##ods
slower
u2018we
discovering
martial
wildly
grassley
##committ
unfavorable
georgetown
honda
pab
ripp
wax
unav
concord
popping
looming
marching
texting
billionaires
##kinson
inherited
correlation
incentive
u200b
nause
##rial
sta
twisted
socially
hybrid
inclusive
seaworld
bree
torr
wt
##atus
saints
unim
dole
strains
##ucle
pressures
valerie
awake
jumps
shells
navigate
disastrous
stumbled
heller
##thia
##ologue
calorie
u2018m
plead
avery
rumored
exemption
##imon
##essler
weiss
amsterdam
soap
quebec
sprawling
ivory
windsor
cousins
urgency
kickstarter
cows
jelly
jfk
##pear
##icides
u201coh
skilled
booker
burg
##heads
fairness
shutting
praising
wheat
stretched
escalating
cay
##cos
deborah
completion
u00b1
highlighting
u0627
gestures
appropriately
santiago
cody
fay
s1
wre
beans
stub
##urge
ariana
outcry
serena
##ushima
diets
jackpot
honour
apologies
railway
gibbs
pyramid
umbrell
##onal
##enburg
notify
##ptions
themed
summers
holders
practically
ambig
pulls
lucr
marshals
ruined
huffpost
##fell
##isy
bypass
americas
milan
internationally
landfall
devastation
embeds
escalation
protocols
waving
discipl
baron
mediaite
identifies
##ytes
insufficient
cnet
wig
##atable
forc
##ceph
##amph
slowing
proclaimed
gloria
biologist
tolerate
cte
##lib
beir
confined
moist
imported
joyce
varying
discourse
lucrative
gdp
pave
grues
##elyn
emper
throws
advancing
cycling
gorilla
skripal
mong
rust
##inke
slope
engulf
loos
parkland
trev
sellers
cleaned
danielle
pipes
exploitation
hispanics
sarkozy
wasserman
tx
woo
chanted
ard
drum
blade
depicting
militias
walters
bargain
wagner
gazette
metaphor
maz
nig
##anos
cellular
installation
entitlement
peoples
dense
lur
nts
vall
marina
emmanuel
execute
specialized
magical
boliv
humm
nud
##uv
##note
leo
incap
lawful
##heim
vegan
covert
sincere
hinted
relaxed
bilateral
flows
surrendered
mortar
clarke
##screen
outpouring
paramount
deferred
jindal
bitch
dame
duff
fancy
kane
pact
##ju
##100
dried
30s
streams
scream
cookie
ruins
constand
brend
##entional
southwestern
u201cdid
organizer
intensified
##worthy
hust
forfe
trim
##ishes
##athing
remot
pools
erik
discusses
spacey
considerably
pedestrian
integration
interface
millennials
appendix
gown
pall
griev
carly
geoff
variations
og
##sd
##elp
##ansing
likewise
surreal
needle
harold
farrow
entertaining
colorful
symbols
prosth
rol
##leck
##etsk
u2018c
opposes
influenza
recalling
restraint
suspicions
abbey
kang
brok
u2014i
##quet
thriller
##ucked
britney
communicating
cycles
mourn
architecture
fatigue
clement
gul
tucker
wiz
##42
##eday
abst
maya
goodman
15th
##apeut
screamed
reasoning
espionage
logs
unpaid
knocking
fukushima
##wind
toe
reince
##mental
##about
##abling
##okhar
##ogram
egyptians
alcoholic
u00b7
preferences
bargaining
ptsd
ntsb
dh
##utz
plac
confisc
118
sandberg
extracted
mailed
archaeology
exploited
regression
genocide
kol
##fig
herb
groom
##iann
##assed
underage
goodell
popped
erick
superstar
revis
volumes
granddaughter
weakened
concentrated
appreciation
succession
hin
##jar
u201cob
##answ
thereafter
happier
markers
professors
stockp
podium
ovarian
ethnicity
warriors
##steps
ibrahim
##obe
##erity
grapp
dems
potato
##afee
doctrine
encourages
brooke
calculations
owens
dynasty
dodge
seizures
suicides
dzh
##olph
##actory
descriptions
endure
vienna
terribly
distraught
webster
sensor
apologizing
ramos
distinguished
ortiz
cue
tore
onboard
##othe
candles
booking
performers
##orrh
senseless
depths
defects
excavation
carnival
eleg
##oro
stack
wasted
fah
##ooked
justification
donetsk
favors
repeating
computing
trainer
corners
mutations
yielded
lifelong
gwyneth
##hell
##umar
restroom
extensively
morr
interventions
aliens
sympathetic
populist
microphone
gel
tipped
##enerys
##ocy
sung
meta
u2014they
tissues
dishes
insulting
clayton
dome
jas
vault
##lene
##omatic
u201cameric
intol
blames
maher
calf
boyle
240
breakup
biom
tales
yellowstone
bicycle
inadvert
fow
##gger
##inas
##isations
u201319
yours
annie
advising
placebo
##idae
epip
230
albu
sequester
exhibited
hungary
undecided
unpredictable
cunning
##itives
##umbs
clara
crus
recess
##iewicz
remainder
antibiotic
slogans
jor
##rio
##uer
unacc
busch
refres
assumptions
ruin
illustration
prestigious
takeover
##bron
barring
1962
olivia
cyprus
landslide
balk
##mand
stint
redacted
corpus
dictators
flaws
bunker
tents
##chem
scoring
reduces
##uffle
blockb
##obile
turbul
alternate
masked
bac
ouster
##stated
brack
u201cwho
cooperative
rodman
maneuver
gubern
##201
upstairs
##tra
flank
syed
maur
bodily
minimize
catalog
mistakenly
fortunate
shakespear
tigers
beirut
framed
overly
tebow
edin
performer
pitcher
somali
cassidy
concussion
dare
shab
phel
quo
accordingly
chairwoman
degener
respectful
u201cwill
##baum
translated
magistrate
gruesome
campuses
crowley
priorit
boxing
cracks
forgiveness
championships
garnered
refriger
dunk
kits
##ement
##fox
timely
locally
sunlight
lineup
hotline
negotiation
circus
bucks
jacobs
chipotle
##information
gubernatorial
fidel
zo
##due
##49
shine
##iegel
nearest
floated
martyr
49ers
bolt
hobby
delighted
unstable
kimberly
##esus
##0001
##irez
joa
happily
classmate
filmmakers
superstorm
matthews
stretches
plotting
surgeons
poisoned
unexpectedly
alberta
##hua
tol
##olulu
neural
cherry
perkins
mayo
##ulture
airbus
submer
irony
lowering
feeds
emphasize
pharmacy
outfit
vil
##sf
##bod
##omer
fren
##aste
realizing
shooters
judged
salem
maggie
cooler
wheeler
descended
incomplete
styles
superhero
glee
wip
alarmed
plight
peaks
courier
hardy
waits
norms
submission
daenerys
riots
patern
##uish
##ori
congo
crunch
signaling
handles
feld
projections
expectancy
shuttle
u0430
yemeni
encryption
lennon
whistlebl
chorus
yates
##mind
##00s
regards
teaches
remembering
laundry
bats
dic
##iq
##zen
##ocene
repairs
resisted
mara
flipped
confron
honolulu
pretend
lockett
ramirez
u201cgood
neutrality
capsule
ankle
carpenter
paralyzed
cerv
##lich
##kh
distracted
robb
enforced
louise
inventory
refrain
##responsive
kep
ramb
vogue
grind
thereby
monuments
aca
salaries
rubin
dedication
helmet
gymnastics
inhabit
fogle
ler
lough
liar
nt
##master
##itous
albeit
chess
supplements
insens
eli
severed
##naire
futures
creators
stemming
contradict
staggering
dzhokhar
casc
gina
##atisf
neander
##aints
exac
##ptic
scoot
swap
cheered
raft
glory
220
civilization
selfies
moonves
neurological
philosoph
lori
rouhani
laundering
kon
##andra
##akis
orc
##group
modifications
revoked
##etto
separating
hampton
proposing
battleground
suitable
oriented
manipulation
societies
fid
piano
##alay
anders
##elin
stip
explet
readily
markle
112
##uffed
austerity
printing
uniforms
purely
injustice
##ivision
##iances
##loading
steering
economies
lightly
blogs
derail
gmail
handcuffed
unanimously
hosni
uninsured
exacerb
lia
ner
##edes
##ective
injunction
garland
fixing
gala
planetary
implied
bahr
vows
##olar
gramm
##ype
##beck
competitor
##break
disposal
paterno
baham
##lave
spine
doomed
disbel
##amaz
##oids
##lsen
specimen
##enhagen
theological
inland
##itism
wholes
scoop
##roads
discrep
shrine
coward
cinema
gauge
tidal
yu
##ray
##uper
##atra
align
withheld
homem
mccabe
godd
bully
fifteen
sediment
pharmac
triggering
patterson
pursuant
fount
sans
##fold
##ivoc
unresponsive
cobb
lego
tops
traders
pregnancies
therapeut
fifa
condemning
dilig
nutritional
fortunately
antiquities
ordinance
edinburgh
greed
salad
statues
##regular
albany
mirr
retrieved
u03c
vigilant
unfairly
recreation
parameters
pioneer
trajectory
inevitably
hond
##reet
##ilight
sag
##uling
crumb
u2014one
##velope
133
methodology
qualities
quantity
axel
accomplishments
cbo
##lia
contenders
imperson
mapping
prevents
parkinson
freeway
resisting
icahn
reminds
separatists
hier
vivid
##rise
##dc
##image
exotic
envelope
clapper
metoo
##forward
multip
##burst
graduates
consulted
venom
pitched
quantities
arraigned
tibet
obituary
cc
dale
nm
##asso
##istically
blat
acoust
paink
penned
ambition
vanessa
spreads
podesta
duplic
therapist
##ubscribe
proximity
nissan
ecc
hoy
mund
##otics
##ogyn
##eez
debts
gluc
copenhagen
villagers
psychiatrist
porch
meltdown
punk
riy
aniston
neat
registry
headaches
negotiators
savannah
appreciated
prostitutes
linear
disagreement
nutrients
sincerely
##itating
##stan
marily
##ecurity
marker
kindle
commentator
baggage
substitute
falcon
fingerprints
forecasts
kenny
inflammation
ude
##sk
##mia
exoner
mons
objected
visibility
labeling
cleanup
abrams
dmit
scrambling
fusion
rag
##75
##95
##uds
cannes
governmental
1000
unsure
##glasses
alec
reinforce
composite
molecules
nate
##gence
##itus
##amar
truce
schem
##coni
springfield
sophom
mercedes
kfc
##imated
peps
knowingly
##ometer
delicate
slump
collectively
welcoming
climber
rainbow
microbi
ottawa
gentleman
emperor
##igo
backstage
idlib
injected
connectivity
measurement
proceeded
disrupted
levy
friedman
sebast
submerged
cite
ibm
contend
stormy
melting
##colm
censors
decorated
cocktail
##iak
isab
unansw
manchin
blaz
demise
meme
123
staring
salis
questionnaire
##rophe
multim
wrongful
precision
lieberman
fisheries
enlisted
##querque
wilderness
kahn
##mala
##aniel
lease
arpa
resent
decisive
admissions
patrons
tightly
nichols
u2014has
alphabet
albuquerque
gem
hw
rounded
vind
wong
##otine
##ollect
##economic
flame
barrett
##shed
guardians
boxer
screenplay
1930s
algorithm
cybersecurity
rewards
beam
prizes
spar
u201cget
disregard
quartz
decomp
##proof
homework
##rien
swir
marty
ecological
someday
pumping
##committee
70s
bind
##bird
##inness
##urances
unfor
##quest
womb
interpre
obscure
evolving
alligator
graffiti
insec
##ifax
bored
650
corpse
rigorous
mam
macy
grades
betty
informant
coupled
rhodes
pinpoint
spectators
reproduction
jinping
aes
pains
##inally
##olent
trench
spelling
delicious
unsolved
extremism
premise
attendants
promotional
clarence
anticipate
##bnb
deliberations
benchmark
incompet
cynthia
territorial
cull
pesh
##irst
alp
##ocate
suz
carved
handwritten
slap
logistics
gallon
essence
implicated
improperly
quadr
adolescents
salisbury
croat
expire
##ignant
worksh
schiff
posters
##enegger
authored
feds
rulings
erad
misogyn
malcolm
practicing
biased
shelby
procedural
jacqu
microbes
prolifer
millennium
indefinitely
remotely
bison
gand
gyn
xia
##eah
upward
##lette
cald
moz
##official
vacant
coordinate
caval
coincidence
luk
sidelines
##bard
##obi
##stant
poem
greet
papa
buckingham
hawaiian
battled
achievements
databases
inexp
poker
sund
orph
##aci
##ahas
masses
damon
camel
pushes
villain
##guy
sectarian
bullied
epidemiology
paleont
discriminatory
shakespeare
90s
##inqu
##elight
##utory
ensemb
grin
u2014t
peril
informal
moons
losers
##boat
railroad
hugely
fierc
screenshot
boasts
queensland
frightening
bystanders
niet
yak
##je
##zel
##ioned
grill
compelled
expelled
depot
guam
##brand
behave
improv
packing
recognizing
kenyan
u06cc
naj
epidemi
stamps
surrogate
##esign
pren
commands
apost
burton
obsession
##burse
supplier
vegetable
hansen
arpaio
krat
##enas
hezb
sein
u201cby
##ovych
103
salute
##shine
slew
mobility
lengths
dependence
tumors
recycling
morrison
unanswered
##waters
##entric
staging
fores
##endez
plains
schl
smear
airbnb
##bral
breached
terrific
synd
punching
obstacles
blonde
dancer
kt
##aic
chast
repress
usc
rooted
downgr
warmb
config
##hips
burd
allegiance
horrified
##ozone
ivan
evaluating
toxicology
moderator
livestock
lb
nim
nucle
##fight
##pc
anecd
##illas
##ifi
##inks
transfers
glor
dwarf
sums
relentless
germans
hondur
dab
nie
##chron
decree
parr
##uchin
immense
mali
u201cmore
defenders
width
sickness
tastes
rejecting
unanimous
yanukovych
##oj
##vet
##around
u2014even
rochester
##ublica
genital
129
lauder
figuring
pulitzer
veterin
spectacle
battered
catastrophe
revolt
reservoir
brendan
7th
doss
nr
rams
##edd
toast
##gee
##ansson
u2014are
finn
##amese
loser
combine
digits
darker
spotify
calculate
reno
vegetation
tricky
reservation
dianne
##folk
frederick
u2010
spies
##olling
propublica
angels
hyde
barracks
lucy
u043e
outlaw
spinning
flexible
pediatrics
kcna
sulf
zur
##bone
ants
crushing
detr
woodward
creativity
550
outsider
tamer
squeez
pundits
bae
fries
unborn
manila
prehist
screams
roller
##ieties
advocated
wide0001
elevation
tanz
legitimacy
warmbier
##osta
idiot
arrog
##beh
referencing
malik
##boys
u201cdis
hateful
sparking
honesty
accelerate
disturbance
guatemala
##houses
##enstein
##olith
u2014at
capturing
burnt
mattress
u00bf
vigorously
translate
conceal
nigerian
kuwait
merchandise
hezbollah
nails
nerves
tin
##ao
##ulus
spice
spilled
lem
blows
worlds
currents
saturn
commercials
katz
dublin
eldest
rendered
dugg
kw
lah
wf
##ouf
##ilder
alto
skew
visibly
bloodshed
dispers
u201clike
elliott
kraft
schwarzenegger
null
##icacy
priced
shades
polite
twilight
incub
insulin
commentators
borne
macd
stems
diesel
marilyn
nhs
##edia
##eart
##eyer
persona
affleck
powerball
designation
constable
fellows
u201cmr
ethiop
ankara
accelerated
bert
yacht
##hm
##etamine
alison
hai
contag
107
patron
homicides
medicines
u00e9t
achieving
cryst
selective
rigged
mcmah
reversal
portrayal
cummings
orn
underwood
thrive
headache
generals
negatively
cellphones
precautions
toppled
osw
waved
##poon
thatcher
##ondo
restoring
irregular
eurozone
safeguard
1961
mourners
scrutin
moody
dalton
sneak
shrinking
frog
outline
reminis
guides
pressured
instruction
corb
119
streak
emerges
inspections
writings
ambulances
mysteries
inherit
outdoors
##ophobic
ceremonies
##manship
pals
chalk
u201cne
compress
whats
knot
patty
judging
eros
statutory
proceeding
promotes
adjustment
philippine
kutcher
eugene
bahamas
liam
yam
upstate
117
loch
shutter
##friends
##umenthal
intercourse
ratt
zar
##ados
##ollen
summar
disconn
closures
tribun
prayed
awaited
stephanopoulos
##ilia
##uti
trails
upt
##pted
coch
charming
singled
collector
u00a7
laz
pens
wich
##ras
##vance
weaker
unaff
willis
knives
demi
productivity
##ueling
envision
balloons
recognizes
paths
sarc
hugs
intercepted
entrepreneurs
wipe
##fman
##vez
spouses
blumenthal
##heit
interestingly
welch
straightforward
fraudulent
venezuelan
incorporated
commemor
inconven
stronghold
bauer
##kar
##advant
prud
##atural
##cribed
embattled
observing
mentioning
synag
molly
hayden
opioids
leno
ras
##lain
##ffer
disqual
smash
##rique
directs
bombard
actresses
vaccination
##404
ultras
handcuffs
meadows
vodka
##ahassee
dors
hog
##fi
##icem
humid
raqq
##mington
trader
indicator
tuned
tallahassee
sinks
boasted
enrichment
mistress
pizz
##41
pratt
##este
##ouncing
u201cim
airborne
continuously
##vedo
smallest
misrepres
u201csomet
developmental
durbin
satisfy
involuntary
swan
##lusive
consultation
volunteered
recruitment
yankees
indoor
neighbourhood
hanks
tate
##bd
##oys
##owan
scaled
inviting
##ometric
113
designers
granting
canadians
sergey
janeiro
fuels
crafted
namely
diminished
busted
fs
##esis
cane
backdrop
##iaries
manufacture
columns
##gevity
riyadh
keller
rude
##yd
thigh
##levant
heating
eva
summoned
##aleigh
davies
##oubtedly
influences
nicotine
quoting
mckin
puppy
minerals
carcin
eh
tender
##orable
##adian
shields
##ogens
sunrise
137
messenger
##balls
greenland
oversaw
savvy
profitable
dragging
tubes
kindergart
disbelief
hikes
##eson
stam
seam
##icker
harb
singles
lowe
crawford
punitive
anonymously
dominican
adequately
bothered
klan
ubi
##irus
segregation
scra
confess
arrivals
afflu
radd
215
criticisms
touchdown
freedoms
thermal
switching
dominate
cic
dos
lays
nets
thiel
u201cover
watchers
personalities
iceberg
khloe
clarified
hugged
scanning
fractured
pharmaceuticals
parasite
applauded
johannes
kerr
zah
##atr
##iters
##aders
ches
##aga
##ells
##ellers
u2014al
usgs
partying
impending
108
clintons
debra
diarr
methyl
deriv
kissed
777
unleashed
sophomore
nintend
niece
piss
rw
##tles
nex
preschool
##reep
listens
animation
hamburg
cornyn
contestants
anticipation
longevity
u00f1a
kens
tires
##gary
disadvant
monaster
mri
farook
##asonable
avid
u201chas
jeep
abdomen
heroic
compares
betray
##vasive
expletive
biting
##cor
##wig
##inarily
comics
goers
fahr
monologue
contamin
yorkers
slice
##archy
kyi
##urgeon
bahrain
caldwell
rotten
##card
##ailable
flop
##ahaw
legion
157
debating
secretive
valle
float
210
drinkers
competent
crosses
ambush
sprayed
mcdaniel
durham
mh17
pirates
enjoys
preserving
favourite
hypothetical
raddatz
waking
##felt
ston
leone
##ensis
provinces
barber
30pm
gunned
islamists
offerings
##esticides
impairment
rebellion
hull
norton
##kal
##onium
exile
##arts
u201capp
u201cgo
##ibles
recounts
##ovic
malley
rankings
flagged
u201cwould
quarterly
kicks
##boarding
advantages
concepts
lobbyist
chrysler
ming
pesticides
sop
zu
##table
##lav
##namese
fec
contention
blend
setback
condom
sunshine
systemic
hardship
builds
productions
volk
u201ccomp
dahl
rift
##anas
##rection
##iderman
suu
##robe
sitcom
screened
broadband
iranians
##anyl
u201ccan
museums
supervisors
insurgency
blockbuster
sz
sow
tipping
##iating
tod
##oly
crane
fey
##prod
betting
deflect
instability
slur
amongst
dealings
scrap
halls
bullock
creditors
bombshell
vietnamese
stretching
botched
arraignment
clemens
grasp
corridor
gorgeous
ix
sig
uae
vint
##imeters
suited
caracas
##amped
artwork
fearful
disorderly
dorn
##89
##wear
daytime
passages
propri
steak
merits
fluids
resolutions
vetting
detonated
##cons
shia
unman
spite
assurances
blues
paran
2000s
startling
organisations
cancellation
thanking
undoubtedly
barrage
icy
hebdo
scrambled
socioeconomic
aq
zion
##new
spiegel
indec
backgrounds
simulations
patel
possessing
paypal
##plan
guarded
kellyanne
rowling
virtue
mercer
hugo
harrowing
dysfunction
tulsa
mnuchin
pok
tas
onlook
cheryl
suppose
pyth
forecasters
reservations
##human
nicknamed
disrespectful
wesley
cunningham
homemade
cir
diction
hints
wc
##eong
almond
##ibe
u2014though
pee
##actors
##eys
conform
elusive
teammate
u2018wh
graduating
saddam
prejudice
tamerlan
60s
ding
jae
lena
vox
##hap
##69
##orical
##ignific
##aways
perimeter
##enched
evacuations
##wright
guarantees
loudly
stephens
pivotal
acevedo
umbrella
nintendo
bitten
ion
lent
vow
##leum
ariel
##acuse
impuls
##ierrez
enforcing
cubic
harmon
hazards
psychiatry
persuaded
clan
appalled
monopol
##river
145
##itches
grader
u201cnew
occupational
weaken
swimmers
##giene
declares
bmw
##68404
looting
purportedly
cps
lending
nina
rus
shapes
outburst
u2014on
##loads
parody
steer
##atorium
encomp
destabil
##lusconi
forwarded
halluc
bidding
berlusconi
announcements
portraits
11559
leukemia
1155968404
dizz
neon
##ivik
##antically
##ieg
enabling
norfolk
breivik
syracuse
potatoes
rabbit
chromos
susceptible
##eer
shores
resh
condo
murkowski
drugged
sufficiently
##afta
displaying
defeating
bonuses
novels
##thesia
unequivoc
ubiqu
streep
choking
##agin
blizz
##ulton
guinness
##roots
transcripts
##ennial
austrian
270
titan
goth
nd
##worm
##stad
ammon
##love
careg
menstr
policeman
petitions
archdi
u201cfrom
champagne
salvage
bigotry
phelps
hank
thc
alps
alicia
conley
exited
##empl
clergy
##phos
u2018f
merger
hygiene
hoover
lavish
autobi
overdoses
rebuilding
auburn
uproar
hinder
sb
##ibo
drumm
##assing
downward
winston
avoc
congresswoman
substantive
eyebrows
turing
##lc
##isans
fracking
segments
warpl
readings
esteem
oceanic
predictable
kirby
quantum
prevalent
conferences
loughner
eater
gn
tian
##bands
##jour
shaping
triv
notices
newport
autumn
smiled
lateral
propelled
reds
snack
u2018oh
seekers
carolyn
amounted
interval
bulls
##olitical
astonishing
frontr
pend
rc
##lane
##hou
##wo
##atible
##urst
saul
everett
continually
##working
specializes
##askill
celebs
finalized
mixing
ivy
boosting
delaying
##angelo
u03b2
lingering
atrocities
ensemble
gat
gret
ufe
##uy
##dings
##mt
##inges
reaff
##amon
##ashi
155
mcgu
surfing
logical
olson
##marked
breaches
frightened
fiancee
fentanyl
raqqa
wanna
##fo
uniqu
##ourage
sexism
arresting
u2018b
basil
randall
gravit
jihadist
nausea
nguy
tainted
repet
pepp
directive
bark
fedex
classical
indicators
characteristic
settling
mutation
owes
phrases
diverted
theoretical
intimidation
reimburse
whatsapp
athe
bj
ego
poul
aber
##arta
worm
outd
condoms
##otti
shoots
banker
collects
malfunction
260
concerts
navigation
betsy
forbidden
##esco
##arry
notre
spitzer
edges
violently
journ
benz
detector
liable
advocating
dominance
dentist
farewell
nuns
johansson
freelance
fitted
gow
##asion
##stown
overth
depicts
receipt
viewer
robotic
churchill
eastwood
moses
wooded
horrifying
bernstein
##daq
juror
ventura
youths
gutierrez
whiskey
hijack
##birth
vandalism
##hire
engr
##trak
housew
playground
prevail
conventions
activism
individually
academics
##rehensible
venues
pumpkin
##osaurus
unsuccessfully
tractor
unchanged
chimpanzees
disciplined
inadvertently
##leton
sailing
alumn
attach
##ickers
##ugu
highs
sunglasses
passports
particle
midday
celeb
practiced
budgets
paired
undergraduate
erosion
hhs
spaw
##isexual
finest
internally
messy
equation
bombed
averaged
tributes
u00fcr
ecst
barbie
traumat
irrelevant
salmonella
pamela
sanctioned
petroleum
theology
##eley
haunted
##berries
rohing
chrome
114
payne
urges
garfield
rallying
cathy
1953
##belius
proudly
genesis
partnerships
miguel
timberlake
xinhua
nguyen
aided
casket
thumbs
##arazz
onc
sebelius
##ulator
poles
allred
appell
frein
grounded
packs
promotions
contestant
##ommunic
font
tah
wester
##gling
styl
##amil
sho
##ocar
hasan
flurry
calgary
u2018no
165
url
latimes
attribut
overshad
nasdaq
oregonian
supervised
hooked
dumping
tagged
adolescent
apprehended
culprit
pablo
staunch
fahren
bisexual
lug
tn
##len
##money
u201a
shov
strapped
##luded
addicted
annan
slapped
testifying
critique
##henge
premises
jenna
pedro
sequential
pledges
tumult
ravens
mlb
aspiring
narcotics
prehistoric
##ridge
##alg
##000
advises
curf
torch
motorists
endorsing
appropriations
seismic
perceptions
kre
##icans
shen
##ifa
amtrak
inclined
perth
menendez
micha
adopting
metabolic
fy
##urable
u2019ne
dej
exting
##anto
##omey
downed
electors
116
saturated
225
roadside
engineered
logged
paparazz
constituency
miscarriage
bikini
nak
theod
stigma
arose
##ibu
soared
blitzer
protr
receiver
hostility
revival
prostate
embryo
dishonest
crocodile
pav
alib
strokes
sunk
##lamation
replies
ironic
endorsements
grassroots
dowd
borrowed
fernandez
hpv
caitlyn
uterus
joaquin
dossier
einstein
kylie
lame
tread
##hey
##adena
chaff
recollect
smarter
factions
halft
europeans
wrongly
hyster
trustees
speedy
entries
temporal
bruises
fountain
fischer
yields
exert
##iken
implicit
defiant
harness
clearer
borrow
misled
scrub
fairy
wilmington
toughest
exclusion
##people
grimm
engulfed
feldman
1b
cn
daring
ein
olsen
##mented
u201cle
dove
anno
proportions
pasta
restriction
ratios
reactors
echoes
##john
escalate
confidentiality
mugabe
lodged
evolve
excerpts
mcmahon
cott
tinder
congreg
##agher
##akov
arise
marj
sylv
provoked
u2018it
mcaul
radius
pretending
seriousness
vulgar
dolan
absorb
absorbed
spatial
mumbai
insensitive
archdiocese
lash
mates
##enthal
hect
withers
unhar
peek
##weather
defiance
concession
verb
combining
favorites
shipments
flagship
sparks
boundary
renewable
reassure
shapiro
##sch
##eous
trove
weep
sped
u201cdr
indul
demograph
memos
##iolet
specially
neighbours
nominating
distances
intruder
stimulation
resemble
napa
havoc
ftc
betrayed
lauderdale
6th
lol
##bol
##bons
##xia
touring
sears
trades
u201cout
##itte
paral
medics
constitutes
schedules
heavier
ricky
retrospect
1944
cocon
dissident
##orthy
withdrawing
adventures
pearson
hormones
##lifted
allergic
cafeter
faint
lily
##block
beacon
unreal
claud
##oused
contends
##erville
defends
prototype
metals
handsome
observes
rapist
influx
euph
rosenberg
resembles
mathematics
tribunal
mcauliffe
rupt
##rated
u201cwhere
belle
##ummy
##airie
maf
mccart
browns
deductions
luckily
scalise
halftime
bere
hm
##nity
##87
thief
##adan
shear
##illers
une
plastics
##appa
glas
ecology
abandoning
allergies
dissemin
confronting
gian
##world
shred
choked
lebron
##herent
##avi
relates
##anging
finals
sonar
gloss
caroline
rollout
palestine
becker
wolfe
insistence
eligibility
courageous
excluding
patches
kercher
##hardt
assailant
stricken
raleigh
##ilot
newfound
grains
grizz
##ussen
impart
baroni
127
prosecuting
auditor
hamid
communicated
becky
enhancing
##iyah
shadows
inherent
jpg
reminiscent
fahrenheit
unharmed
ctv
oste
rook
tb
##alyp
brides
##acial
backward
##onte
economically
ceos
touches
foia
extraordinarily
flavors
sailor
homeowner
ioc
lashed
rasm
yuk
##oise
##gow
shade
##estra
spared
brod
doyle
feas
invention
strained
prefect
undergone
discomfort
sniff
peta
costing
palo
moran
veterinary
skinny
lobster
durst
autonomy
correlated
predecessors
stereotypes
u201cmaybe
hates
mating
tying
bris
coates
surged
transp
30am
accepts
persian
methodist
punishing
venus
stripes
##scale
categorised
ikea
jod
puff
tarant
vt
##53
angr
reese
##ansk
needing
subt
activate
ladder
oslo
mandated
tammy
##bourg
manipulated
obstacle
u00c4
##occup
anatomy
censorship
blizzard
bates
fulton
gle
##lord
##fly
sap
tricks
rove
medically
infin
foundations
thrust
elk
40s
moreno
escaping
floodwaters
sights
ironically
dimensions
tampering
gabrielle
bruno
eisenh
wielding
acoustic
tanzania
rohingya
cctv
hats
matur
tir
crap
roe
laf
acet
rebuke
surprises
inspected
piles
u201cme
beatles
##comb
graphics
implies
remnants
lumber
##blo
##azier
probes
turb
islamabad
gods
##ycles
khalid
clifford
lodge
bounty
vinc
##urpr
##ghans
socks
##photo
subcommittee
skype
globes
##rington
goldstein
iraqis
variants
grabs
dyke
brewer
erected
intoler
annoying
tau
##wc
##illes
##osph
unhealth
warship
126
restart
octop
controllers
narrat
validity
wichita
bb
cud
floyd
##enos
hab
##ieri
instrum
portable
verse
deliveries
subjective
harassing
cosmic
astronomy
pasadena
profoundly
grenades
sculpture
remedy
vampire
ineffective
haiyan
##phosate
kara
lum
##nis
exh
scales
co2
owning
informing
patents
187
specialty
heartfelt
undo
roseanne
magnet
affiliation
siri
undertaken
rhythm
dmitry
yuan
sac
afghans
offence
invoked
##ovo
weekends
u0e
martian
theranos
rampant
fernando
sabot
##lifting
caves
fen
wholly
u2019b
##unts
##astically
##orne
declass
embod
awl
superman
nominate
methamph
regulator
poorest
stonehenge
reacting
sighting
perspectives
sibling
borrowers
hastings
quarantine
bonnie
cale
ruff
sigh
wen
unofficial
goat
outages
##track
appalling
cohn
workout
defenses
diff
authoritarian
chooses
emergence
locks
jointly
ventures
bulletin
congratulations
##ophobia
hydro
orchestrated
instrumental
cyan
omin
yaz
##haw
##vic
##url
fork
shane
##ulse
brakes
pluto
obey
publicized
ignited
grayson
rabbi
buttons
postpone
incarceration
volksw
hath
watt
exod
stepfather
##text
entirety
##lux
squir
objectives
derailed
cyberatt
tolerated
lobbyists
privileged
ecosystems
voyage
dancers
glyphosate
guerrero
kee
woes
##pel
##onder
##arro
##agua
##quis
desired
metric
##letcher
blooming
fuller
patrols
connects
bono
brutally
notoriously
cummins
kendall
maureen
endeav
cly
tad
rewritten
##opathy
##iba
imf
menop
177
homo
rescind
strait
punishable
mastermind
brewing
moderators
rafael
peggy
alvarez
degeneres
##jad
##94
##ouched
##ivities
##oka
amusing
##ensed
##ometry
kidding
waiver
badge
bowe
saudis
exposures
swimmer
u0435
embracing
broncos
##ibrand
ancestry
skeletons
u201ceveryone
ribs
mathematical
indirectly
reeves
unmanned
##aney
shor
##ocial
recapt
recurring
defines
nightmar
juic
misuse
religions
320
constructive
torso
stressful
venice
wiret
compensate
blankets
masturb
paso
##enzie
lebanese
accumulated
inserted
volkswagen
kemp
nascar
##hin
##zan
u2015
spiel
offline
twent
wrench
##anke
handy
122
generosity
morales
selfish
conditioning
considerations
objection
waitress
strengthening
lewd
jordanian
##ochond
adjusting
assertions
gamble
abundant
narciss
chattano
trevor
dell
egreg
lak
lure
##arus
wast
faq
millionaire
activation
revived
tallest
sectors
strangled
granite
##patrick
caesar
therapeutic
curfew
cess
##fax
rejo
##etric
fortress
##arden
##ipted
marble
buys
barcl
gunn
u201chigh
checkpoints
unsett
marrying
flickr
barricades
parachute
cerr
rena
yen
##cz
##olin
yous
u2014p
scent
defund
##places
administrations
cnnmoney
shortages
certification
practition
maternity
briefings
kramer
u0095
intervals
prohibiting
peanuts
laure
endangerment
seinfeld
berman
fletcher
sorrow
pric
alc
##aternal
blink
politic
skys
streamed
##plus
urugu
arabian
intervened
bells
dwind
convenient
negligent
uruguay
mama
hears
frames
exempl
##ocity
broth
discarded
weddings
swelling
rests
25th
sonoma
costumes
##burger
laboratories
upsetting
dodd
adulthood
employs
unavailable
kepler
diarrhea
tapping
##ui
##waves
frig
schr
legalized
shareholder
responsive
##umble
contacting
despair
approving
sensational
harmless
hanged
outsiders
perpetrator
distributing
gavin
chattanooga
##hall
##iga
##pps
brac
grac
##quette
##eca
##gro
##rene
##ospace
arche
husbands
panicked
benefited
##armac
counselors
teddy
terminate
infrared
foolish
neuroscience
succumb
nug
yong
##olk
decept
traction
obstruct
highways
##hement
realised
##ielder
snacks
bankers
financed
benign
##onymous
consultants
translates
##osterone
tackling
midterms
intoxication
whopping
persecution
zombie
spontaneous
ultrasound
sok
newer
plut
##izers
pervasive
carmen
joey
##ercuss
voicem
reprints
supremacists
rousse
serbia
mesa
##lio
##mund
##andro
repercuss
compuls
perj
##quist
airlifted
pubmed
cambod
##obil
naomi
vaccinated
handguns
neglected
retweeted
exaggerated
nolan
axelrod
frontrunner
pag
##gren
##weet
##uese
documenting
destiny
restricting
lyon
pinned
darling
elders
resembl
hefner
synagogue
##ignificant
##alypse
kot
kessler
lund
vr
pry
##chang
comr
enables
outlines
##sole
##activity
monter
coats
143
footprint
begging
420
pedoph
astronomical
disgust
buddhist
aggregate
yonhap
mesh
wwe
##rical
##mentioned
orang
##ousal
genitals
confid
mccaskill
circular
miserable
doubling
advertisements
sensory
applicant
u201ccons
gallagher
occupants
dubious
coordinating
libraries
axis
gillibrand
subsidiary
portuguese
hippoc
infringement
arbitrary
staples
cobain
deutsche
capped
gq
ping
##rus
inund
##ente
##illary
chatter
traps
##aby
perp
##orman
thru
veil
u201cthose
organised
augusta
bulld
cleaner
commanding
sedan
shameful
upright
rationale
descendants
untrue
pesticide
wizard
8th
apt
pike
##escent
soaring
fluct
##issible
##ahe
poop
servic
proponents
antide
malibu
physicist
unpleas
u00a31
precipitation
cis
nond
ish
ars
strand
##riety
facto
unsubscribe
attributes
transporting
reneg
levine
transplants
corpses
orcas
hulu
nairo
slick
reeva
brass
faulty
prescriptions
overfl
transc
procession
broadwell
exercising
battal
unfolding
apocaly
vintage
glasgow
avert
jub
forged
##esting
goof
servant
statesman
slay
##atta
##perform
acosta
conversion
dreamed
dilem
whisper
shirley
laps
lazy
xl
##uh
##eze
##43
##mc
##ulia
##isting
spelled
presby
likened
downloaded
garrett
lifes
tayy
scarlett
manuscripts
dvd
baked
dpr
roster
xml
rewr
shining
webc
unesco
adolf
clippers
apples
reliance
moammar
growers
boyd
philly
foxnews
piled
wynn
kaiser
cosmetic
jarrett
ud83c
algorithms
journals
zinke
prairie
##amel
##irable
indy
consort
passive
swearing
massage
examines
hypert
listeners
##arthur
lgbtq
freezer
hefty
ponder
fowler
orphan
kindergarten
resemblance
nairobi
moll
##1d
##park
##icter
##ivation
claw
scathing
##ensibly
quiz
donovan
showers
patton
cheated
groundbreaking
weighted
torres
##writers
reminding
omaha
honeymoon
glucose
proliferation
dong
gan
kagan
vaugh
##vp
seym
spun
clam
caravan
stricter
flan
##ryn
consisted
##media
efficacy
elaine
authorize
advisors
songwriter
ashore
warranted
sampled
underscores
heinous
giraffe
morocco
nieto
macdonald
unhealthy
dion
panda
raff
##isse
##ersion
##ussy
provocation
busiest
spokane
mening
starr
u201chave
simpsons
okla
##henko
beaver
soror
u201cext
wealthiest
##blog
mitochond
exemptions
prolific
privileges
excavations
plaque
asteroids
rahman
analytics
kazakh
fresno
##amiliar
seymour
lively
rethink
choke
discounts
vehement
frontal
280
drawings
hangs
inquirer
u0438
await
gifted
u201cmany
##vine
hepat
abide
enr
yearly
complement
phar
##integr
lawson
refinery
collided
castile
selena
rosie
synthes
patriarch
plunge
skiing
wahl
##cb
forge
sage
conception
##ulously
##ourke
##iza
feast
##erving
airliner
continents
salah
entourage
lows
panther
curator
spraying
nickel
deduct
ipod
prominence
recipes
##partisan
jerem
jihadists
schneiderman
misunderstanding
duggar
antidepress
laced
console
fraser
resorts
noises
acclaimed
##ensional
indis
schn
elimination
denuclear
172
mcqu
admired
burnett
calcium
leaned
hartford
outpost
vibrant
superscript
ubiquitous
loun
raced
tik
##nick
frantic
##artan
u201cof
carbo
##achers
recorder
deplo
poets
murky
146
totals
u00e9r
amazed
concluding
repealing
##ontinental
seaside
dots
lend
ply
##comp
##inent
conan
u2014so
phi
phony
gregg
develops
golds
rodgers
##oshi
dreamers
besie
disruptive
u2014were
tags
cortez
excavated
isaiah
discourage
lecture
pontiff
admiral
ignorance
fiercely
repercussions
tayyip
cues
jed
piers
zaw
souls
educators
coastline
talents
countered
coaching
u062
mechanics
boosted
verte
mathematic
squeeze
vikings
heterosexual
u201cblack
horizont
##ommunications
unpleasant
kass
lenders
raging
uv
##cd
##lease
beers
fro
##ivable
##emost
newcom
branson
presiding
##inkle
##ango
flatt
##yside
caliph
modi
pollster
##ijah
insurgent
controversies
bowling
roundup
pumps
illustrate
jurisdictions
vendor
reinforced
ef
rows
##rent
##yll
clutch
drift
##amps
myri
flare
##lude
barron
openness
161
technician
statutes
destinations
mindful
capitalism
missionary
wishing
##guided
skulls
manipulate
horns
u00f1o
ernest
nitrogen
forcibly
uniquely
u2019brien
ail
##bull
foremost
crick
marl
contributes
calvin
u201cthen
curse
ticks
kidnapp
bathrooms
nestle
skeletal
hinds
toxins
confiscated
overthrow
dop
linger
render
sands
tapper
##leader
##oplan
chal
orion
offences
allah
carne
posture
##unders
irving
u2032
##usement
mortg
sickened
concentrate
fetch
tackled
attracting
replica
thunderstorm
affirmative
outdated
cafeteria
methamphetamine
gt
stacey
prag
##oco
herd
goodwill
swollen
sentiments
u2018what
candl
copying
funn
u05
superb
painter
accompany
u201cnever
lesions
disneyland
illustrates
injections
vendors
wandering
vernon
kensington
eats
faded
##120
##esident
wasting
shaming
##oshenko
coaster
lasts
filters
testosterone
##byn
144
legalize
commissioners
baylor
oddly
receptors
incarcerated
rehearsal
paparazzi
dill
vowing
vista
##jack
##gre
##inth
##oufl
##elines
sax
emory
researching
geophys
neighbouring
revision
audition
characterization
recommending
tonnes
tragedies
lambert
dwight
disagreements
mcgowan
apocalypse
mitigate
pb
sq
##uve
##ilis
crab
theirs
elites
extortion
funnel
contributors
u0631
deposited
scanner
##vaney
seafood
pasc
##86
##cho
exams
backwards
imply
restitution
distract
situated
forehead
apparatus
casts
fatality
unfamiliar
preventive
houth
sequencing
collapsing
collaborative
infantry
##especially
aspirin
mantle
gowdy
narratives
exodus
ktv
lig
##fam
##amic
##imps
byrd
loads
devin
50th
hearted
successes
apparel
emergencies
browne
chapters
interpretations
forums
exclude
upgraded
discriminate
physiological
ks
sings
##tar
##stick
##unc
rooft
##ovsky
turf
extrav
dangerously
yellen
pumped
booze
manifesto
sesame
charismatic
gravitational
rasmussen
ginger
zoe
##sana
##law
##horn
reich
churn
u201cabs
plas
amelia
interm
premed
housekeeper
explode
compliment
malala
fairfax
embassies
semester
dresses
rudd
tenth
baghdadi
disgusted
solicitor
looted
onlookers
mafia
presbyter
carbohydr
napol
uva
##adder
atlas
adele
sock
##qua
knit
##itional
storyt
suspending
geek
##exts
ensuing
trailing
bernanke
cerebral
lester
oxyc
brazen
850
reconna
smells
airplanes
anthropology
conjunction
hippocamp
dyer
gerry
##ady
##aprio
compact
##avier
deplet
formid
erratic
##adoff
regulating
planting
departing
inhabitants
fences
sinal
thy
##atient
##entin
alam
##estorm
trinity
lepage
sliding
headphones
possessed
convened
bests
distressed
singular
u201cher
circadian
determines
begged
consisting
ivf
vulnerabilities
exceeding
##iculum
trespassing
skyscr
apocalyptic
cinn
##aus
##alley
##adic
aldr
chloe
##abul
herr
useless
overh
##raf
kidman
camoufl
paulo
melted
rapids
crowdfund
hacks
spiral
reconstr
microbial
omn
salvation
pdt
cynical
snipers
mulvaney
encrypted
overlooked
stefan
ostensibly
egregious
kale
pax
##si
withstand
spank
colts
providence
slid
leveled
equifax
enclosure
destined
blasting
royals
elegant
dicaprio
dprk
pint
##hed
##kg
##isman
##urally
dept
trag
thriving
discontin
maliki
##oya
prosecutions
reboot
satirical
u2019donnell
santos
honorary
ventil
affiliates
rhetorical
latinos
rahm
zachary
ernst
dictionary
bam
bounds
ld
xen
zuma
##fill
conrad
coerc
decay
metre
121
swear
systematically
policemen
protestors
woodfox
semitism
aerospace
aquatic
diamonds
restrictive
schneider
mascul
spearhead
cus
eul
gently
penc
##bold
reeling
preston
##opl
##akia
##akable
easing
mccr
jackets
satan
khal
ramadan
calculation
ghana
autopilot
hindu
##bags
winters
##idis
stature
##agara
upscale
u00ab
skate
powerpoint
searchers
50s
detecting
athletics
tuna
clarification
kurds
laptops
merchant
consolidated
sleeve
erickson
honduras
poultry
mccartney
mortgages
sinaloa
lured
rica
##itant
##omas
aloud
readiness
relevance
setup
blackburn
ideals
groundwater
hunted
keyboard
disperse
necessity
jonah
1959
frieden
pirate
##iggins
bikes
cache
tory
##93
amen
sykes
simulation
datas
u2018t
hopper
varies
frankf
u00f8
1956
u201cright
excellence
enterprises
##espie
gastro
unreasonable
coulter
frenzy
kratom
aiding
##pable
thes
deception
sule
spor
##ublished
##lov
remake
guild
poaching
pops
186
bids
blueprint
exceptionally
standardized
1948
antonin
kalan
ricardo
carnage
cbp
demographics
nus
##dock
##enting
##cki
hait
drastic
##issy
goodness
##oxide
sixty
ruiz
prostitute
abram
bogus
accumulation
401
madoff
taser
##jet
deeds
grieve
incurred
firestorm
beforehand
eden
elena
realignment
proclaim
castillo
##lights
##unta
cyst
chickens
cowboys
taping
scripture
bravery
u22121
compassionate
interfering
reliability
flanked
formidable
bask
kkk
nay
rd
vests
##vest
anita
semen
weber
adorable
strings
induce
sche
cardboard
restrained
encouragement
warmth
flashes
slamming
u201cnothing
stirred
braun
bureaucracy
awlaki
a3
tara
vie
##idan
##ampton
##aggio
unic
spit
centr
##ixed
charred
jeze
motions
crises
negotiator
disappearing
lieu
inquest
clerks
incorporate
ceremonial
dn
dwell
uw
##hh
##fun
##esch
##otive
disin
drastically
feces
##orned
showcase
downey
investigates
airs
macc
refere
skating
##icester
sonia
##afa
forcefully
morally
abdom
ringing
bipolar
gillespie
navalny
erdely
applaud
intermediate
grammys
##olithic
cerruti
jezebel
roc
sas
##cup
##kers
##asis
##ckley
leicester
peaked
quipped
##iversity
variant
spanning
guessing
adjustments
intensely
rewarded
ravaged
undercut
underscored
avenatti
surpassed
unilateral
dehydration
##tub
##bane
toled
topping
##ompl
chun
chants
groped
contexts
##crimin
flashing
##although
countryside
skirt
132
copied
entang
lineage
personalized
complied
combative
hallmark
pathology
corporal
emeritus
bait
1947
transitional
accommodation
veterinarian
dd
##inelli
##orio
oft
##elo
onion
chore
farr
realities
u2018p
gluten
journalistic
stockholders
limitation
spirited
sirens
bergen
professionally
gerard
ancestor
richer
bentley
jensen
yog
##dad
##07
shay
##orting
u201cunder
##allen
evap
varieties
misinformation
misguided
hurry
proposes
triggers
uncontroll
aspirations
vicinity
metabolism
demolition
prenatal
hathaway
waff
xvi
##cam
##ieth
##adors
spew
coli
evenly
vein
convict
acids
debunk
##govern
thankfully
closes
advertised
scheduling
##cloud
retribution
inherently
hijacked
colombian
bystander
federally
sebastian
myriad
nafta
qat
qaddafi
wires
##57
##thals
arist
dob
stray
decry
paycheck
devote
initiate
biologists
squar
##ycl
modeled
hurdles
bayou
trait
1940
laurie
ninete
bravo
hinckley
mirrors
stoneman
alumni
tumultuous
oy
osh
xbox
##lies
##nard
##wings
##51
fringe
seg
u201cad
graf
donn
blanc
provoke
elton
seeming
recognise
##ropriately
deprived
1955
##locked
patriotic
asserting
preceding
carcass
razor
vanderb
##mandu
tragically
kud
##vc
##atism
congest
exterior
afore
marian
slurs
romania
impress
nonpartisan
##etermin
locking
machinery
poorer
derog
hype
disagrees
cowork
fisherman
rituals
telecommunications
whistleblower
neanderthals
perjury
dul
kand
pn
##oting
##utter
##aments
u201cper
bricks
resett
residency
relieve
getaway
decency
medina
harming
executing
travers
armor
pathogens
hawkins
##blue
dissatisf
rigid
aziz
argentine
alexandra
loopholes
pepsi
dejesus
sokol
dilemma
2d
cels
kub
##anski
phyl
##eka
u00eda
companions
esa
factual
afflic
u201cthank
131
antagon
ruler
mexicans
madness
recognised
tearing
magnific
dissol
colonies
kardashians
whitaker
##lecito
lochte
reconnaissance
bing
nile
sizable
vince
beet
atf
haar
peripher
##asey
infidel
impover
##rob
playoff
lett
curriculum
flock
technicians
analysed
circumstance
elliot
supplemental
aux
puppet
avenues
deteriorated
resilience
gynec
plasma
aforementioned
bav
##02
##pour
##kat
whipped
wee
reclaim
##ahar
calder
supern
malaria
williamson
turtles
ruby
contracting
definitively
retro
chicks
classrooms
cedar
##urprising
##abulary
aap
##cock
##vation
##anan
asd
saus
scant
thrill
couric
downstairs
apar
murderers
primates
u00f4
ellison
mitigation
echoing
moderates
certificates
##keeping
undermined
cinnamon
bung
humph
jagger
ying
##oum
reapp
##sted
neill
envelop
quir
medved
nationalists
mae
diab
choi
understandable
sheriffs
fatty
packaged
swims
thirteen
rejects
hemorrh
jaws
indoors
receptor
moisture
nudity
appellate
kalanick
vanderbilt
rattled
tucked
heist
unthink
##allah
resusc
##inejad
soot
##actor
##rolet
handler
skipped
tomato
comedians
evacue
darrell
kristina
satisfying
ingraham
hungarian
rodrigo
toilets
##keepers
coveted
jamaica
johannesburg
hepatitis
fost
rita
zak
necr
seizing
##usable
##oden
u201csec
plume
schwe
surfer
smelled
humili
restruct
jude
verbally
indicative
##maid
queue
constraints
progression
baum
1942
renewal
overdue
bridget
microscope
siberia
monastery
##bee
toomey
stain
##eto
shul
##uddin
##ustomed
##ubstant
agr
wraps
##reatment
defl
midtown
damning
choir
dogged
councilman
psychologists
logging
u00b5
controller
1954
vastly
kristin
habitats
sophia
thicke
fracture
suppression
mullen
intercontinental
unintended
abdominal
dared
kham
lenses
tid
ump
##bital
##fw
##atics
##sty
fris
bynes
##ocrat
reptil
amc
grilled
discern
takeoff
violin
rangel
deduction
bolst
scarborough
recruits
huang
rotation
solemn
sewage
lancaster
commodity
chevrolet
unexplained
dictatorship
foresee
contagious
renaissance
dull
gale
het
nipp
ting
wj
##naires
##asive
##ivated
##ocytes
##ieu
##okia
polk
bluff
candle
179
stafford
bushes
resigning
strengthened
automakers
automaker
dissolved
literal
foam
transmit
optimal
unlocked
disproportionately
suzanne
battalion
flanagan
elic
##ilst
##odo
exor
spa
herz
u2014like
##crunch
missp
histories
erase
despicable
oksana
branding
khou
kilograms
pledging
u2265
inflict
viktor
croatia
fend
mous
##inum
prow
alarms
gogh
clich
incest
soaked
blanch
believers
possessions
antip
sollecito
treason
u201csp
telegram
liabilities
reprim
fantas
uganda
chefs
u2014from
fonda
##arc
##store
stor
chol
ames
showc
##ounted
chevy
pauses
denounce
encamp
tracker
ensued
diners
cyclist
preceded
simpler
shutterstock
besieged
cush
##daily
evade
##ishi
deme
demp
centrist
mayoral
footh
clocks
casualty
chatting
posterior
fractures
contraceptive
rsus
claude
staple
hydra
discredit
blatant
banners
foes
sv
vinson
##orient
##asa
neb
spiked
recurr
elijah
sunken
glowing
##ameda
sharpton
u201cyour
towel
commercially
specter
symptom
dimon
rendering
bounce
u25ba
melanie
lexington
tatum
contingent
kadyr
ropes
sich
tus
tarmac
##iently
##bay
##thy
chy
herbert
mang
huma
##shaw
angles
improb
suffolk
felix
shipment
splitting
culinary
utilities
disgraced
sandwiches
pixar
plummeted
robbins
oswald
medvedev
ae
damp
pensions
vance
##rano
##kr
##via
##aning
sack
alameda
goog
##crow
buenos
lauded
sugars
judgement
sawyer
pretoria
dismissing
barbec
dickerson
inappropriately
u03b1
lecturer
niagara
diminish
guitarist
kellogg
workshop
dess
##itud
##itano
atoms
##esson
abh
##abi
sheila
crump
pert
##aval
qui
metall
gunpoint
mcafee
babys
u201chad
collectors
madden
variability
broadcasts
u201cunf
detainee
grenade
euthanasia
humiliation
philosophical
monsanto
coconut
kazakhstan
deploying
sore
udd
##kell
##ativity
##etter
itv
chow
u201cind
bras
brake
##encia
guad
captors
124
hourly
juda
midway
rodents
pacs
mirac
skyd
disclosing
robberies
forensics
psal
outfits
vapor
ely
s2
vect
##cot
##jam
##oit
##yans
inaud
anterior
andr
##eliness
haired
abiding
##ogene
jock
backer
teamed
profiling
greeting
glance
staten
crossroads
mountaine
dolls
snowfall
cyt
nautical
treasurer
pyeong
gaines
dimensional
unconv
exceeds
accomplishment
cumulative
nostalg
pavement
presbyterian
denn
gott
pits
##stra
##uns
adelson
##iko
groping
##assic
annoyed
nightly
147
processor
##igroup
embold
nyse
motivations
decreases
errone
perceive
u201conce
angrily
hypertension
guts
hikers
nanny
##aracter
intuit
carlo
commute
1937
para
slipping
harbour
urinary
portal
roadway
ballet
balancing
wording
capita
popeater
strengths
motorist
bathtub
qualifications
u00a35
kirsten
fulfilling
sioux
plagiar
resilient
roland
wide00012
monopoly
beng
kom
kyr
##kids
deir
##auch
attic
##enship
belts
centres
geography
domains
germanwings
u201cdoes
stresses
installment
championed
naples
tangible
orbital
therapies
oppression
glamour
paranoid
consortium
impoverished
giles
lup
tighter
##game
stacy
artery
outbound
pey
pecul
expires
redirect
strewn
starvation
interviewer
mcmath
palmy
canceling
##orrent
##aurus
stockton
australians
villa
matrix
tarn
##joined
niche
##peace
u201ceverything
galaxies
aspen
dividing
downplayed
python
peculiar
fd
##ti
stahl
##olia
##opr
filip
fares
recep
u2018w
diocese
accessing
239
remarked
cereal
darwin
buckley
jerome
mouths
isolate
sweatsh
theoretically
inconsist
kaufman
surroundings
hypocris
acquaintance
ambiguous
prosthetic
menopause
spielberg
vehemently
zan
##idad
##igs
allan
u2014you
canv
phosph
tep
fein
##weigh
regim
elvis
anguish
biases
safeguards
pathways
crawling
galv
u0645
laurent
taller
lamented
molested
mariah
u2014will
composer
flavored
u2013201
ignorant
ominous
vertebr
kitty
mats
##gado
##zal
afters
adren
##loqu
righteous
elector
simulated
projection
citigroup
characterize
lewinsky
transferring
blankenship
indictments
astronomer
myths
cpac
fellowship
ethiopia
humidity
inaudible
bows
oaks
vip
##slist
##live
aron
##ichi
recap
mylan
depiction
endurance
concede
elle
goodwin
judgments
techcrunch
glin
texans
hostess
designing
u201cbig
trustee
utmost
acquitt
ethanol
bakery
palmyra
pawl
wb
##cill
##illions
amusement
agon
feathers
blurred
aires
paused
marches
panhand
##ophag
saras
barrow
integral
unveil
unveiling
jaime
clemency
adversaries
pupils
jorge
caliphate
celsius
awe
dorse
fats
klux
wart
sak
alm
frazier
##oso
##agged
##icht
outward
grape
perch
emil
invision
edgar
campaigners
calibr
refined
149
singers
fung
burgers
roadblock
intrusion
persisted
doctoral
mansour
reinstate
altar
silverman
##olitics
craigslist
dorothy
u0442
sewer
amphib
loophole
redistributed
michaels
toledo
biod
fade
ozz
##bly
##wire
##eder
sah
seahaw
ley
enrique
##ogo
conducts
##obic
extraction
##steen
senses
registering
olf
skyrock
shroud
vitro
lobbied
ahmadinejad
worsened
swirling
mcguire
ferv
kd
stained
fraught
##opal
adhere
progn
emo
councill
##prom
removes
##iera
debit
134
##lerosis
conservatism
admire
behaved
##theid
380
1957
1952
cocoa
orchestra
shaun
spoil
instincts
vagina
scooter
spawned
barclays
carnegie
dorsey
duct
##bitt
##vable
toes
##umental
haqq
trian
offend
adobe
u2014if
canine
timet
overview
##aceous
probing
calves
vii
mommy
homophobic
embro
forefront
citations
unfounded
sprink
suitcase
ignition
u0440
creep
kathmandu
mosques
helmets
overlap
bard
whilst
exoplan
clusters
willow
##ultural
bett
##aughlin
modify
sanaa
valuation
##shit
kinda
policymakers
marketed
primitive
madele
330
u201cpart
dominic
u00a32
warsaw
gadgets
kalamaz
lesbians
stabilize
mushrooms
painkillers
haaretz
kalamazoo
burch
cgi
sri
sasha
##ciously
##mall
##3c
##ainable
##ocating
brawl
willie
contended
bladder
showtime
u00e3
unsurprising
cataly
dismember
definitions
deprivation
neuro
wolff
melanoma
holloway
mummy
enthusiasts
merrill
pyeongchang
dag
foy
nir
racked
surn
tarr
leis
##asta
grisly
relay
asserts
insured
allev
potus
classics
costco
##queen
curtain
fills
gradual
##egal
assumes
selecting
u043d
disrupting
endangering
unheard
clowns
samaritan
burgess
theodore
caleb
lp
lilly
##72
##hurst
##oza
##isal
stacked
cliffs
outweigh
interacting
meditation
protagon
mccann
garment
acquiring
exhibits
muscular
smoothly
disparity
disparities
glaciers
mischief
withholding
shoreline
premeditated
hypocrisy
gliniewicz
madeleine
fx
##itures
##igham
u201cel
arter
prefers
u20131
latitude
periodically
inspir
berger
towed
tyco
rumours
qualifying
banging
pigment
abbottabad
penguin
aesthetic
unthinkable
aa
bild
eternal
iod
jade
varg
rech
saves
dex
plumb
expulsion
subord
standpoint
commenter
heartbeat
moratorium
domino
banana
sensible
u201cmake
soundtrack
honorable
1941
scanned
reproduce
plateau
jacobson
revered
nutrient
judaism
bf
ek
oust
xavier
yar
##pret
hauled
abby
##apnel
plank
meek
disdain
accustomed
parano
demons
majorities
christi
denouncing
lineback
glover
approx
finalists
1940s
##spot
daisy
loyalists
loretta
imperative
u2014she
sloan
shinzo
##eeper
u2018this
pfizer
dina
falk
##lair
##viously
ingen
##esters
butch
offending
manic
dislike
guessed
idf
elm
souza
##cester
pais
magnes
veron
##opsies
notebook
hairs
naive
treasures
vocabulary
horowitz
subpoenas
tranqu
mcgrath
schemes
autobiography
kron
nast
vain
##09
##mill
##ifier
haskell
amar
marx
##avis
##lob
senegal
memes
norris
analog
u2019malley
windsh
multin
fortunes
fleming
therm
1958
portraying
reluctance
##nikov
bs
hugging
jad
wim
##iners
##chy
frat
outset
scav
##loff
wellness
distrust
halting
totaling
mindy
armen
rhino
ample
papal
fueling
folder
ambassadors
shrapnel
tanker
scarce
validation
phenom
poroshenko
explorers
##connor
ingested
linguistic
##lyssa
humming
geoffrey
dorner
witherspoon
rookie
triangle
inver
shaft
arming
plotted
##awar
monk
skipping
cameo
badger
malta
blockade
cube
1939
quantitative
gorillas
argento
volcanoes
undermining
ezra
nightmares
voicemail
bis
bisc
pess
rican
##uard
##itations
##rea
printer
sao
ald
conjoined
##ocratic
ari
canaver
relocated
booming
safest
136
risked
freight
homer
homin
grandma
##ophen
greenwald
reflective
picasso
casinos
1949
u201cnobody
huddled
notoriety
abdulaz
congratulated
orbiting
hewitt
shabab
redskins
apartheid
lister
meryl
ti
tilt
##jj
sabr
hairc
u201cqu
u2014un
##athom
deterrent
miscon
275
##ukes
vanilla
temperament
neurology
shrimp
knoxville
barnett
supremacy
deteriorating
overlooking
penguins
pilgrims
attributable
humiliating
magnesium
dann
gaze
lapse
rugged
##orig
uneas
brighter
slashed
raul
##shake
excuses
angola
counterfe
thomson
rosetta
prominently
installations
knights
groceries
stimuli
fabricated
mickey
mimic
hodg
swallowed
stubborn
alpine
frankfurt
eph
mens
pom
##fts
stats
exter
aman
amassed
coven
autograph
harms
colleen
generator
accessories
periodic
##oba
competed
##uka
permitting
structured
environmentalists
kathryn
replicate
addictive
quadrup
affluent
phylogen
coded
shouts
ascent
alum
friction
chained
repatri
brood
ama
##athed
endoc
simone
sexting
judith
milligr
statistic
optical
greenpeace
hurdle
snowstorm
overseen
imagin
morton
springsteen
platinum
maximize
ovation
steadfast
fulfilled
pattinson
betrayal
trivial
evacuees
leisure
biker
irene
pony
poke
rin
ves
yas
forrest
##chr
shiny
adr
ems
helium
barker
numb
exploding
30th
estates
lima
forceful
pollut
u201ccl
follic
reconstruct
mourns
dodgers
kayla
undertake
neurosurgeon
discounted
unrav
sacrificed
stalking
discrepancy
warplanes
impartial
camouflage
gull
##pop
ofac
##elcome
##estown
##anders
exe
outing
faults
incend
mayors
myr
firsthand
redempt
redef
rulers
trey
versa
expresses
satire
##esha
masterpiece
wardrobe
reefs
levinson
anatom
kendrick
gusts
thornton
fronts
sabotage
jeremiah
aftersh
lakers
yrs
yiann
##aad
##but
##hots
stellar
primate
##ithner
tru
placent
u2014all
evasion
quitting
smashing
childbirth
photoshop
faction
irwin
rapes
ensures
bowman
roses
##ilitating
insulted
gentlemen
scramble
residual
##girls
cyanide
enraged
u201cabsol
magnificent
sarasota
bale
dl
jug
kash
pussy
touting
prints
isle
hailey
unden
##istical
##ongs
##bermann
knuck
wrath
addicts
explores
turnaround
swam
##plate
pena
unfit
##eshi
bloggers
fetuses
gigantic
carcasses
##farlane
goddess
multimillion
horizontal
napolitano
crowdfunding
kb
lament
##jin
##edience
chau
crest
interven
monsters
regained
postings
##affer
payout
mighty
geithner
fallu
toni
rodger
mandates
torped
bleak
installing
u22120
huntington
java
sketches
##rieu
weaknesses
bolivia
wahlberg
cpl
##oor
##fil
##alc
##alach
##style
hemp
sabb
chern
##elles
##ipiac
upload
scars
rooney
##aterally
smok
insanity
retali
##white
reflex
meng
pai
shuttered
##laus
ramifications
consequently
catches
##gener
tasting
punches
obliged
separatist
disapproval
dismantle
endeavor
nexus
deceptive
rewrite
##itudinal
paranoia
cret
cumber
fod
zen
##bra
##fin
##word
shelly
sheryl
sailed
chapp
exits
bred
brushed
graz
##avia
couns
decap
autistic
transf
##erga
u2018n
admiration
tightening
##falls
stemmed
dimension
exploiting
hoodie
intimidated
proprietary
dempsey
4s
g20
oder
##eight
orbits
goose
worsh
brigham
cron
manit
accompl
commuters
strive
infur
snoop
guarding
accessory
babylon
lesley
randomized
2022
noonan
paradox
quinnipiac
mclaughlin
humiliated
##cephal
brokered
derogatory
alyssa
cw
hale
##hic
##gd
##pas
##stands
##igail
##amoto
##iveth
##istine
u201cop
thereof
invaded
syl
coloss
remini
depict
demean
lookout
researched
sanitation
##tech
entom
landlord
treach
berm
wwii
diagnoses
noticeable
squadron
smuggled
tunisian
enriched
daytona
abnormalities
wholesale
galveston
hare
ie
rourke
##jev
##good
##fields
##igor
chu
weibo
spans
amos
overre
##heed
203
visions
procure
virg
footsteps
immort
figur
landfill
winding
hopeless
365
galvan
stressing
translator
kilometer
tumbled
subdued
wandered
zurich
rousseff
candlelight
multinational
huss
korn
wah
revere
##stood
##olta
##amins
spate
sphere
thro
##swick
doubles
positioning
digs
lyme
subscriber
juveniles
eclips
parallels
coronary
euthanized
traumatized
paralysis
seahawks
embroiled
737
dazz
murs
vald
wifi
xx
toured
##reb
stif
isi
tramp
##agle
##ococc
bracing
assurance
boiling
harlem
stealth
topless
terrestr
landrieu
presenter
biomed
scripts
undet
traffickers
u201ccould
circumc
conclusive
u201cgreat
amyloid
decreasing
verteb
irrevers
remembr
kobani
hilary
unimagin
windshield
4chan
ej
fus
pors
vets
##ye
##anian
u2019connor
cheng
tril
mari
caret
careless
defied
##bride
slipp
condone
u0d
misery
customized
combines
decidedly
##married
##oshima
pelvic
tonya
gao
whitman
gateway
cavity
gonzales
u201ctrump
recycled
mishand
kaplan
chandler
algeria
fayette
##journal
brisbane
biodiversity
faux
muss
nokia
rer
wm
orte
##asted
manned
deform
##lander
2050
##contr
raiders
##parable
landis
improves
illusion
u201cde
psycho
partnered
batac
udc
meteorite
snapshot
##zyme
jihadi
u201ceverybody
velocity
scrolls
fertilizer
lancet
commodities
bots
fb
pug
tand
##lace
##etus
reput
outlining
u2014l
presse
##ilee
impasse
snatched
holed
pots
##arrow
##flower
gatherings
pathetic
darkest
salesman
punishments
exploits
pillow
algae
booed
brunswick
puppies
infert
swallow
demeanor
bataclan
bhar
mound
nes
ripping
yulia
alask
notch
byr
abigail
crock
upi
timed
cara
prevailing
realise
##igraph
focal
##iscover
precurs
dismay
truthful
royalty
vacated
interpol
assemble
barbar
repealed
validated
fascist
ozone
paradig
vetoed
empowered
paralymp
subdivision
sacrifices
reliably
siberian
implanted
arrogant
alibaba
chaffetz
ailing
dud
ejected
lank
sled
##firmed
shim
alamo
hagg
fliers
governed
defor
##riet
sana
##oxic
paints
averages
recognizable
advancement
wireimage
fabulous
swinging
piracy
newborns
seawater
jellyfish
ktla
overshadowed
##aheim
adrenal
ome
sothe
##ienne
##yah
##oula
##trod
marrow
monoxide
relocate
watergate
janice
impressions
marketwatch
primetime
challengers
assistants
behaving
satanic
squid
bedford
attribute
astrophys
oxid
warden
tailored
javier
hesitate
urgently
hammered
reyes
conspiring
assailants
articulate
eccentric
wrenching
plutonium
sorority
emoji
linebacker
incendiary
sotheby
fum
kaf
mst
pipp
sald
##corn
##base
##atin
##eler
chats
plowed
monumental
inducing
boil
posthum
racc
irvine
witnessing
garn
osbourne
louder
crawled
abduct
toddlers
dimaggio
stringent
mgm
motorcade
guru
stockpile
interpreter
crystals
mitochondrial
timetable
##gates
##82
##vian
##itas
##otr
forb
asym
##umont
truman
sucked
##endra
disob
marquez
indie
edmond
greets
u2018y
footprints
bananas
sharia
cypress
flux
hampered
u201cgod
kisses
drafting
railing
renting
sinclair
undertaking
distributor
##abilia
housewives
wartime
u00e3o
5m
kph
lsd
witt
waco
##arie
##arized
dee
worms
phases
implying
detrim
geology
glend
radically
similarity
malt
morality
panthers
packers
olbermann
fascination
loneliness
reassuring
##organization
kidneys
bourdain
energetic
baffled
inexplic
acquittal
cz
ole
##iantly
##pic
fray
unres
orca
upbeat
usb
membr
barra
testifies
parkway
holtz
britons
burlington
##sworth
multic
237
u201cser
piper
renamed
ghom
jerk
stimulate
bragged
bribery
biomark
restructuring
terrestrial
bah
dashed
hof
muk
vile
##oi
##84
##63
anaheim
##staking
leopard
##derm
disintegr
feather
ops
warc
centimeters
idi
continuation
swipe
secretaries
hospitality
pottery
footing
staffing
scripted
lifeline
attribution
rowe
mountainous
grenfell
antiquity
unsealed
auctions
##pes
##vs
##54
cro
allocated
guiding
legends
nationalism
teller
debacle
ante
episc
baseless
rebutt
sensing
rapists
screenwriter
lyric
memorabilia
hurtful
##ehler
tearful
caucas
poisonous
nicely
blinds
andreas
reversing
hijab
carniv
sofia
incapable
detrimental
tup
tlc
##iative
##number
##adata
hex
##ffe
draper
flipping
wrapping
consular
metrics
turnbull
profanity
sixteen
devised
u00e5
24th
painstaking
birthplace
eighteen
casually
##iciencies
foreclosure
compromising
desktop
accommodations
zeit
littered
squeezed
pascal
reptiles
1m
eich
hulk
zam
zoom
##core
##ayor
bew
##imi
shun
##emon
u2014especially
##ooks
##inkel
inscription
slater
154
romans
lara
divul
osso
welcomes
ramadi
strategists
emphasizing
u00e1vez
perpetrated
feminine
lagoon
unreliable
vpc
bragging
claus
cvs
unleash
arbitration
screwed
employing
hutchinson
caregivers
chyna
bode
lact
##rik
##uania
sto
weary
sput
brom
##ichael
scour
partisans
misses
execs
bodyguard
erie
erased
volley
273
turtle
cooperated
u201cfirst
mentality
exercised
beautifully
daunting
vigorous
cruiser
newlyw
ferrell
wrecked
hubbard
defectors
dhaka
unequivocally
monterey
yiannopoulos
ortega
dai
gs
kappa
pue
tetr
vor
sucks
leigh
enzyme
u2014pr
nook
rightly
halper
privat
predatory
lockheed
detectors
apologised
macarthur
trailers
bradford
automotive
##addy
cannibal
theatrical
resembling
parasites
vasquez
liaison
scrapped
prefecture
danced
gou
lansing
tones
##busters
##ouk
atom
cram
u2014we
##trial
carrey
##mination
skid
frontman
alcoholism
patrolling
##agnetic
harmony
greeks
comparative
tightened
retirees
novelist
cowboy
mugshots
rendition
##espite
prestige
lithuania
jacqueline
vinci
tikrit
accomplice
##ivethirty
benson
fivethirty
jk
jagu
kisly
maced
poc
deed
adhd
agitated
overpass
##ryl
belcher
filner
causal
mcgee
mccon
quicker
##enchant
sweater
tenants
walton
consistency
obamas
munoz
fascinated
masse
inventor
dartmouth
leahy
trenton
disguise
##ourtney
dolezal
ebert
fisa
lul
nhl
ria
thur
shoved
uphill
u2014just
peep
accred
wrang
supplying
billing
limo
nonvi
doubted
packard
storey
avoidance
narrowed
molestation
hazing
unwitting
daley
intimidate
hiroshima
turbulence
##greens
lettuce
fivethirtyeight
kislyak
##96
##oton
asians
cone
seep
##alls
cland
expands
drudge
marvin
##cro
blister
blitz
poignant
defra
apes
efficiently
##affes
realization
greatness
mural
messed
bloodied
preventable
symph
jetblue
vegetarian
expansive
kelsey
intersect
sympathies
congratulate
residue
societal
disapprove
duplicate
episcopal
bpa
fiat
fuzz
nos
rost
wii
yun
##97
##utting
stash
seac
##ullo
noticing
leve
quakes
quentin
maver
headlined
visually
safari
162
copeland
variance
updating
u00e9d
innate
apologizes
mortem
cartels
entertainer
inflated
acceleration
sidney
mcgahn
kobe
extradited
submarines
sobriety
burdens
feasible
ventilator
peyton
clandest
binary
lacey
rr
vagu
##mus
##yf
onsl
##andy
##osti
outage
desirable
##wayne
u201ctwo
affirmed
deval
denials
coping
diapers
scrib
greenberg
horrors
##hries
1933
calmly
sinister
screenshots
ribbon
bruising
gridlock
humphries
loosely
grievances
avocado
eisenhower
octopus
thesis
nusra
dans
fon
mounds
pst
##taking
##itos
stig
conve
frisk
expiring
guill
nearing
differs
fourteen
empirical
snps
understandably
u00e9l
purdue
bali
clinicians
depressing
sheldon
weakening
hayward
regretted
tuberc
bursts
evidently
anomaly
unconventional
pessim
iz
s3
sask
vulture
##entary
stool
##urious
##endo
##awled
carm
overst
##brush
retreated
##enei
glitter
lars
rocker
##ofi
biote
bowen
layoffs
sync
rainfor
reinstated
1936
##estration
dictate
cortical
coincide
styled
lombardo
kohl
buchanan
ripple
wfaa
cambodia
squarely
donnelly
omega
daly
gid
hue
lal
mikh
ripe
wack
stare
unnot
u201cz
u201cres
goop
brenda
canned
downfall
insom
eliot
mapped
corr
visc
solst
glow
verses
bedrock
cubans
##cliffe
uniformed
tailed
imperfect
wrestler
liverpool
architectural
commemorate
envisioned
bombardment
intolerance
alleviate
geys
kumar
mald
tug
wels
##arin
##isen
reza
heel
##season
frantically
##illac
spino
u201cins
noel
1900
belize
defected
ape
206
waterboarding
mcqueen
robbers
robbie
290
heavyweight
u201cfr
shelley
resolving
##habi
somers
dispatchers
sophie
stevenson
ruthless
persistence
vaginal
contingency
jakarta
kneeling
epipen
inundated
##etermined
bonn
boca
motto
ned
ratch
suther
yelp
##rador
hailing
##antes
##emate
crooked
u2014n
appalach
presided
counters
quart
hels
##uchar
paterson
davos
larson
morgue
##ynski
balances
cooke
nasal
towels
occupying
vacancy
u2014because
toxicity
udall
strangely
cassini
resembled
capsized
chlorine
adherence
emmys
menstrual
lafay
barbecue
cors
cuff
fret
##icists
chir
exhum
##anti
u201cint
crad
u2014re
evid
howell
schul
minaj
##rium
metadata
##porting
roommates
combinations
310
odys
lyons
comfortably
litig
bullshit
vetted
taj
wyden
thickness
puzzled
empowerment
victorian
meningitis
bona
cured
guth
##enha
stagn
alas
unmarried
##antis
doom
crank
disarm
happiest
starving
1371
christensen
148
awoke
breakout
traveler
keynote
khaled
adamant
winehouse
nicar
reunite
ayat
retaliate
underscore
hickox
chewing
cyclone
thwarted
u201cobviously
cochran
recollection
encampment
gin
mets
##mary
##pub
##vd
##unity
dover
disav
carb
cobal
##nington
playoffs
conco
elis
serum
koreas
142
sonic
complains
malone
u201cyeah
semif
shady
contradicted
u201chowever
anthropologist
##riminal
worsening
isotope
unaccounted
derivatives
khamenei
improbable
onslaught
hanc
jails
tt
##mir
##ppe
exiting
outnumber
craz
uphe
attain
roch
courty
helpless
groupon
criminally
boardwalk
##umbling
u201csuper
##orrhea
legislator
subset
evaluations
eruptions
innovations
aeros
paddle
denton
trolls
exhaustion
cremated
anesthesia
detractors
marjory
auditorium
redemption
porsche
lys
nah
vucci
##sburg
thugs
##eses
whirl
##stalk
##olice
##aryn
compartment
coo
strips
flak
blades
impulse
##azar
handlers
rested
taxa
cleansing
turks
ticking
diploma
funerals
forgiven
awaits
sustainability
seminary
heinrich
refrigerator
hiker
sip
wines
waged
##iggs
##oda
bloss
newslook
scha
demo
##azer
universally
bigfoot
swarmed
buildup
opener
misinter
##ynd
crimean
##ortunately
sharif
##flies
attractions
dermat
icons
tighten
provisional
miniature
obstetric
barricade
najib
##ocarbon
ghomeshi
hush
nel
och
rund
##burs
thaw
wht
##olson
u201crem
##herty
plum
polled
amish
canvas
compatible
disorient
relayed
##tsa
flir
bliss
surplus
guang
longitudinal
worldview
airasia
retention
corros
158
engel
waived
u201cplease
olympia
hawks
rowan
cartoons
youthful
desperation
siegel
undermines
perfection
expenditures
drummer
lafayette
ia
nour
wicked
yosh
##jia
##green
##elig
frogs
##ibus
amr
mee
peas
flashed
runaway
blackout
programmes
reviewers
##verse
combating
purity
texture
trainers
mcdon
luncheon
meteorological
repaired
intrigued
scholarly
perfume
assignments
turbulent
vargas
unnoticed
gp
maze
arising
arbor
doo
perks
mona
preacher
decriminal
##orkin
##uca
slager
hospice
sourced
138
cutter
u201cbre
settlers
u0648
somber
##ilitary
tentative
videotape
underestimated
resentment
cottage
humphrey
uneasy
u201cabsolutely
rauc
tusc
zig
##0f
ina
##story
##ande
pretrial
joanne
blum
regimes
veiled
##eworthy
debilitating
devotion
coptic
hostilities
morale
domest
livingston
screenings
heaviest
rogen
semia
ventilation
kurd
railed
tarp
nursery
obligated
u0092t
pioneering
unravel
sfgate
eduardo
frigid
lounge
storytelling
icloud
jang
kins
koen
wander
yi
##cion
##vie
##ilon
##adr
heed
##imet
hapl
##ortional
unab
u201cen
clog
scaling
attachment
coburn
confessions
needles
delet
redesign
pauline
superst
fearless
walgreens
neurode
sticker
renee
liberated
pelvis
##aminophen
fundraisers
mckay
bubbles
analytica
demolished
glamorous
acetaminophen
mursi
remembrance
sutherland
db
ee
kant
luz
nsf
paw
wagon
##rite
##iations
##estones
una
commend
oph
terri
edmund
##coal
hospitalization
suggestive
competitions
bales
examinations
memorand
olig
hypother
sequestration
fluores
calculating
anchors
spicy
coincided
stirring
bruised
functionality
harvesting
disproportionate
vaughn
olfactory
kry
##pb
##ono
abel
incr
scoff
preempt
handwriting
nighttime
swings
realizes
lof
commenters
jobless
mccorm
competence
breathtaking
##hrer
harvested
venge
scarf
quantify
hubble
istock
u2014have
comprise
stereotyp
mascot
berkshire
videotaped
seventy
slumped
oncology
u2019neill
nineteen
exorc
kourtney
mits
vog
##itimate
##odone
bye
byron
##apo
##acker
dooms
carla
##eye
##eco
maynard
defying
termed
barak
handic
issu
differing
eyel
morbid
u201csc
sweeth
existential
countdown
appointees
unpublished
mathews
reinv
buffer
rewarding
sinkhole
ayers
u2014some
astounding
tacoma
catalan
##itrust
u00e8re
refunds
shaky
bratton
embarked
cretaceous
unimaginable
seacrest
ayatollah
cill
hirs
jc
latte
mch
pell
riff
tails
##jor
##zinski
##arat
leib
##cci
worris
crut
crafts
fax
phoned
##inty
decried
downright
summed
servants
sussex
antitrust
travolta
nonstop
23rd
graders
logistical
muammar
shelton
hangover
levitt
collaborated
akron
mckenna
julianna
obscene
neuroscient
municipalities
docs
bureaucratic
stallone
annexation
crippling
disguised
obliv
##cephaly
tycoon
biomedical
kum
wo
##cile
##guez
##urous
aless
##opolitan
coherent
belarus
##heet
edmon
##aird
bret
changer
freaking
waver
jeanne
##ompan
teachings
jewell
professionalism
kidnap
assassin
bundle
u201cwithout
sponsorship
unseen
monarchy
golfer
hastily
precincts
refreshing
contradictory
maturity
intermitt
haqqani
raucous
dipped
gond
hanna
miy
##b0
##banks
##eau
##atops
##leigh
reins
storing
seating
##usional
u201cinc
##ectomy
perished
scanners
ids
barney
markings
geo
mcne
ageing
218
basics
tvs
##ethical
u00e9n
crisp
##untled
trustworthy
rodr
1946
wearable
pigeon
pharmacies
lorenz
tangled
celest
cadillac
arsenic
toxin
sotom
rambling
improvised
brothel
yogurt
inspirational
odyssey
gator
rite
wn
##code
##bek
##62
##elier
##chq
congen
tripp
u201calthough
tequ
genomes
buoy
starter
listings
##being
angus
basal
ceased
conductor
rebek
respectfully
hershey
integrate
lucia
nicola
epicenter
distributors
surrogates
penetrating
chunks
relentlessly
adolescence
rugby
dorsal
indecent
unrealistic
claudia
pryor
milligrams
slippery
byrne
mikhail
worrisome
sotomayor
dap
gb
hq
lana
##lot
##nuts
##gang
##fest
##map
##idas
shaved
##orean
##arty
herc
crescent
reconn
u20135
surrey
edison
nationality
harley
differed
steered
##vester
incidental
uncert
enclave
melinda
nova
automobile
afforded
praises
cucc
u00edguez
strawberry
sudanese
##zhou
digestive
cryptic
cocktails
hewlett
configuration
laureate
slayings
phenomena
insomnia
aaa
ducks
pfe
wies
zel
##ihan
##bil
##92
##older
##aday
##opa
##ulosis
weir
orr
arian
clout
pertaining
##actively
##inki
boone
homage
easiest
labe
burials
generates
##iji
psychopath
arabs
mailing
mistreatment
dads
##innon
mechanic
sighted
pods
antibodies
vitamins
hanson
repayment
exonerated
declassified
trilogy
courtyard
501
pelle
sins
tides
##city
##asher
##iless
conqu
upbr
draped
caric
belfast
303
glitch
krug
splits
##rosis
##ochem
##namara
feminism
cinemat
premiered
irrational
pierson
resonance
disturbances
stalemate
crippled
tibetan
glorious
grizzly
##boldt
auf
dice
eck
fiss
hires
ih
ostr
tusk
##wing
##erations
##inia
##onge
onetime
stard
u2019c
wept
grinding
##sov
surging
##ersonal
u201ctake
2030
leftist
swarm
billboards
geographical
##forth
waller
bader
bashing
escapes
greenville
shocks
dismal
macfarlane
erica
royalties
##gaard
weaponry
gabby
boomers
browder
concussions
##lassified
underestimate
acquaintances
cervical
lerner
u201csometimes
repetitive
schnatter
infidelity
pawlenty
placenta
ossoff
eaves
ips
kier
kyl
##dh
##onso
inception
stur
stared
troph
trapping
unreg
reprehensible
##002
crib
perdue
poehler
retake
slender
washingtonpost
empath
protestant
misbeh
distorted
extramar
pricey
spectr
jurassic
##ymes
##ewski
skeptics
rancho
cosmopolitan
sneakers
resurrect
maddow
sweatshirt
extramarital
cin
psy
pounding
taw
##dele
##1b
##esi
##aren
prism
sheds
frail
unatt
u201cred
polo
twists
faulk
evelyn
##ava
query
joints
u20133
##urned
colder
edible
concurr
sergio
condomin
humility
modification
powerhouse
walkers
risking
custod
superfic
motif
lifts
muir
complicit
submitting
##comings
festivities
homelessness
morrissey
tossing
browsing
bosnia
spoiler
coordinates
shapley
##dailynews
torpedo
irreversible
cuccinelli
etern
luf
##jay
##station
##essional
spikes
u201cag
u201coff
agence
relinqu
##istries
205
hars
avi
hardened
u2018a
##obos
rebuffed
pulmon
papini
complicate
frustrations
disruptions
outsour
thinner
adjour
felonies
wiping
incompetent
sylvia
perplex
indiscrimin
haircut
pollutants
rebuttal
solstice
semiaut
labeouf
condominium
eerie
pud
pau
penchant
sorkin
##rice
##aroo
##alan
##isance
static
congl
framing
##earns
##cco
himalay
##croft
schia
speculating
edged
communal
swung
currencies
futur
epstein
superiors
bathing
##ogenesis
nydailynews
feroc
concerted
lanier
1938
dumpster
crowned
rudolph
mcgill
beneficiary
hesitant
disgruntled
prosperous
meadow
jokingly
pyramids
pragmatic
fungus
intervening
spinoff
edmonton
lh
ns
ronnie
##ril
##nings
##vn
theo
inaction
notting
##apolog
grapes
mankind
##inted
##cred
needless
##phen
proportional
essex
151
popcorn
proclamation
orderly
##annie
keepers
antiox
devout
larsen
florid
opting
u201csince
favre
ballroom
hurled
osaka
uttered
fixes
bayer
diagnose
depressive
spanned
departures
jennings
owing
sediments
microcephaly
philippe
wsb
steelers
taiwanese
scratching
avengers
dispersed
scrutinized
inheritance
basilica
sokolich
feinberg
plumbing
##original
fas
##lis
##psy
##arious
inhal
##otrop
conroy
##atement
coating
schro
##ashev
159
u201ctheir
stepien
224
burge
misman
africans
unfl
observational
dreaming
clinically
progressives
rhoden
rosemary
meaningless
rainy
jacques
pitching
haters
conceive
akh
u00edcul
divert
utilize
u201conly
beneficiaries
bunny
folded
accelerating
threads
evangelicals
abolish
drifted
pancreat
pissed
rcmp
denuclearization
hindsight
ozzy
helsinki
cobalt
hancock
dime
dhabi
frem
gc
##jak
##2d
##fu
##atan
##edel
##imo
grueling
likeness
##icki
downstream
confounding
behold
epoch
collier
advertiser
biographer
rescues
amazingly
greenwich
respecting
##asca
progressed
##iatus
retrial
sustaining
nye
stretcher
##ersea
clarkson
blindness
unconfirmed
bartender
hopefuls
upgrades
nuanced
telescopes
pivot
inconvenience
goofy
pencil
clandestine
dix
gated
ober
raged
##eners
##ilated
##stones
##olini
##adas
prized
combs
##okee
displace
trumps
mayhem
mediation
syph
deficiency
airwaves
barbed
retina
filtered
sushi
1800s
victimized
shortcomings
connie
emblem
glove
##liners
eighty
sociology
dinardo
plantation
condemns
1935
axios
deserted
cordoned
adaptive
prescribe
slaughtered
lemonade
suleiman
vector
deforestation
gchq
ritch
waging
##c1
##hoe
tout
u21d
asphy
hak
##agra
u201cab
upwards
peck
##ogical
##lices
emw
coated
deplor
milton
##weeney
elbow
metz
chechen
irrig
stoppers
epile
robbing
##hammer
seasoned
login
abdes
diversion
earns
scientifically
jammed
bedrooms
pillar
bumps
u201creally
sloven
discouraged
algerian
drifting
ludic
unilaterally
beheading
##chemical
mundane
disadvantage
extingu
tuberculosis
domestically
antioxid
kov
munch
pawn
tame
##lift
##anza
##illi
##apest
arthr
u2014by
imam
sclerosis
underdog
serp
##ontent
152
module
iris
##anni
representations
vera
multipl
##uki
bulb
fortified
ridden
riddled
catcher
1943
liquids
dustin
ancestral
polyg
municipality
u201cshould
laurel
unintentional
hovering
unbear
gosling
forfeiture
corbett
referee
panhandle
treacherous
welsh
lama
sif
##wal
##inished
whitt
##char
##andan
orrin
##endously
plaster
manually
overboard
overcrow
decipher
esqu
156
viability
esther
183
numbered
lois
organism
responsibly
accountant
capitalist
##lantic
bandw
motorola
implication
dickinson
exchanging
revolver
conveyed
barricaded
hsbc
revisit
goldsmith
hypothermia
abdeslam
lbs
paved
##rh
##inence
stink
##olis
forear
alignment
spher
##icef
enlight
##ogly
compounded
emerald
invites
quasi
u201ctoo
subgroup
transgress
propulsion
sugary
taxed
##nalia
163
immoral
nonf
mattered
audi
separates
bulgar
u201cdef
weld
horribly
comedic
sorting
barbour
booster
conceptual
gilmore
implants
reservoirs
renegoti
thunderstorms
##functional
iodine
evidenced
guthrie
syphilis
bounced
lighth
td
##cers
##pace
##iculous
alma
##umi
abl
##sover
##loban
gupt
veered
millionaires
wedge
esque
southbound
avatar
139
##aneously
141
166
mcbride
limestone
legality
legalizing
cambr
visitation
rescuing
estimating
novich
ipads
950
shrugged
publishes
reconcile
grossing
markedly
luxem
tacloban
breadth
disparaging
coding
spells
staircase
pippa
memorandum
cages
gurn
ness
##iu
##ilant
##iliated
trous
##ortex
gru
parapher
parsons
ministries
downside
defy
defunct
playful
skim
pett
immens
painfully
circled
bloodstream
silently
penit
cameraman
u00e9hic
constituted
oils
slowdown
nicki
tendencies
owls
compensated
reciproc
collaborators
nicholson
dye
hypothesized
buttocks
heinz
shepard
vibe
clyde
sausage
veronica
novichok
aly
fuss
garg
lore
##a9
##imedia
##sef
plc
amir
##auea
reclusive
parc
desmond
thrilling
numer
identifiable
hardline
denom
babe
u201chere
divides
rebound
biopic
340
rodent
olympian
skinned
foil
stunts
embraces
pronoun
dwelling
philosopher
artificially
untreated
embryonic
simultaneous
fitzpatrick
corroborated
grappling
u201camerica
u201camerican
infuriated
paraphernalia
bamb
eased
ls
merg
inhum
##ompt
bearded
trier
unicef
brody
reside
yearbook
##ongo
##isson
downhill
camped
homecoming
charcoal
sexes
mcderm
limous
equator
circling
favorably
clicks
bowls
predictive
meteors
cognition
mysteriously
expeditions
psi
millennial
livelihood
cinematic
cohorts
plunging
stereotype
adultery
coyote
diligence
uptick
nw
rna
##cence
##jiang
##gles
##pad
##vol
##adia
##antom
##iao
monaco
earners
populous
##aphyl
libyans
distaste
physiology
bowel
introduces
widening
apologise
1934
cherokee
nugent
hydraul
sylvester
upbringing
2m
fad
hunch
komen
liner
nal
tet
ub
##iency
##uilt
whaling
shrew
chong
haunting
##orte
##abl
arias
u2014after
##ogne
emission
1912
##onson
apat
provoking
delgado
startups
antics
glut
murderous
groundwork
malia
collisions
deepwater
budapest
flyers
##ainties
##ylent
giud
u201cclear
sarin
weights
navarro
bullies
tariff
anchored
fetched
hartman
comprehend
mcmill
##frame
stumbling
cremation
u03bcm
prudent
aqap
orangut
u201cextrem
catalyst
paisley
amanpour
emwazi
hl
nupt
##sville
degrad
##ulas
peach
drums
coer
warhead
##unda
##riages
harriet
humboldt
##insk
##aldi
petr
##uggish
diner
bowed
comedies
raton
bobbi
visionary
roofs
natasha
intimacy
mackenzie
u00c9
tyrann
analytical
lombardi
sotloff
##withstanding
breeze
jasmine
neatly
skyscraper
vaguely
misinterpret
uncertainties
ck
cate
pang
s4
##hay
##osely
##arte
leeds
##ovis
##atham
##grab
##prot
genus
##omething
chartered
sims
waterfront
##shell
acronym
devon
puberty
angelo
mindset
dinners
coldest
initials
accomplices
shrunk
beckham
u0432
bulletproof
u201cprob
##zyk
ridicule
tailor
dearly
facilitated
##rovia
resurf
jeopardize
mcclain
crocodiles
neonatal
haitian
boll
capp
gus
kern
lyle
oj
rails
taps
viking
##bels
##dan
##81
##words
##vae
##icus
##omorph
##igley
saunders
##ighting
u2014of
compel
daycare
flaming
boiled
retains
delinqu
severance
federic
winchester
harding
salam
frey
mccoll
##ointed
480
ignores
##deen
steroids
pronounce
assassinated
u201cpresident
densely
u00f6r
slov
u0441
paramedic
landslides
microscopic
contemplating
peskov
exacerbated
gaffe
kaw
tpp
tbi
##rough
##lough
heim
fridge
##opsy
##ocer
oracle
meh
alliances
##loo
invade
flung
desires
##oupe
poems
genomic
centen
##aughey
captives
prevailed
payday
snapping
motherhood
mustard
footnote
revoke
admon
##obar
fairfield
truths
hangar
nava
wheeled
stickers
alej
##oche
dominique
hillsborough
subsidy
descending
smugglers
scholarships
eyewitnesses
indefinite
coughing
maddox
rattles
flattened
upheaval
fatt
hc
hb
pree
##rates
##mobil
##atical
alito
chp
##aines
haspel
aden
##ipras
manate
compton
soylent
donkey
passer
suspense
chargers
salty
saliva
libel
equals
designate
collateral
##psis
worded
sleepy
clicked
ethn
wilkinson
rosenthal
##ehy
strategically
preparedness
hazel
intrigue
pandas
pixel
nhtsa
u00e7ois
disgraceful
amputated
winnings
rusty
nigel
duffy
fahrze
unsettling
dopamine
elicited
bending
cakes
lte
zac
##isine
conyers
##essen
##oung
##cke
trot
spoof
phara
monrovia
bele
snp
anto
##afr
closings
instituted
averaging
tripled
frankie
counterint
wilk
cabins
containment
freshwater
gangster
harrisburg
switches
foos
kalash
shedding
attractiveness
hedges
sulz
barefoot
maiden
misunderstood
hermene
thyroid
doomsday
ib
muc
nsw
wann
wylie
##90s
inelig
prague
##ithe
##odr
##arted
butcher
upton
inciting
##ervice
indign
harrington
syrup
erika
ledge
felons
curated
horrendous
u2014when
##ersei
sedentary
rivalry
bumper
untouched
coincident
bitcoins
mildly
tattooed
merchants
voyager
conspic
bluet
paradigm
baking
cersei
higgins
hiatus
io
kamp
lipp
oven
##gm
##vale
##enb
##cted
itiner
unethical
noteworthy
##embers
brisk
manley
##loor
u20134
boos
retaining
starters
swast
questionnaires
mccull
generators
##aea
u201cdeep
ensured
occupiers
coached
tsipras
disclaim
dragons
electroc
alberto
utilized
stumble
empowering
peruvian
chatted
cowardly
hoyer
qatari
coworkers
canaveral
luxembourg
hess
latt
nests
pumm
somm
sweeney
##aque
##bows
##lastic
##fan
##58
##asper
##ombs
stow
stitch
chili
unv
noor
queries
##eke
desantis
locating
elin
slopes
stewards
blackmail
u201chey
sherrod
antique
jeffs
derided
watkins
ridley
corrects
u0646
kilauea
savopoulos
pornographic
transforming
narrator
omitted
liners
defective
medalist
muddy
harshly
inferior
dysfunctional
override
degrading
marginalized
prioritize
unicorn
fodder
rebekah
immensely
pv
pone
pins
sepsis
##ifference
##ocular
##ipel
appra
embe
##ishment
quell
##cruc
watertown
deadlines
keeper
centerpiece
217
baltic
environmentally
insurer
photographic
attracts
detectable
##meh
heroism
finishes
wikimedia
boasting
swallowing
humpback
##leasure
sliced
overheard
tarrant
covenant
geyser
embezz
bord
gerv
jpl
kah
nv
sapp
##ustered
##oger
lifeguard
authorizing
slop
calam
menacing
moose
starved
waivers
camille
constellation
crossings
totaled
surrounds
pathologist
learns
purposely
lyft
u201cfox
appointee
u0644
sticky
reprieve
mutually
rossi
portrays
tolerant
rawlings
1920s
architects
chimps
paragraphs
prematurely
resonate
fertilization
roasted
cougar
quran
disconnect
##occupied
cyberattacks
succumbed
kalashnikov
sulzberger
1a
jugg
wd
##aan
##mg
anast
##leased
chas
tric
##andre
unification
##eary
##ellations
brunt
ploy
expiration
scouring
##ishly
blur
mediated
##eneuve
testimon
muster
hopped
cameroon
##iscoll
organizational
rounding
towering
admittedly
taboo
heroine
fanning
##spin
##namo
u2014there
grossly
radicalized
akbar
##aloosa
bryce
navigational
incumbents
lithium
cyclists
culmination
chimpanzee
chevron
protracted
practitioners
bulgaria
gupta
aung
lass
tester
##aith
##mor
thefts
##inates
##urp
##opod
chilly
haunt
trout
brace
proactive
outland
allocation
monstr
u201310
smelling
milo
welles
discreet
breeds
##retary
slack
snipp
christy
openings
176
optics
obsessive
surveying
chaired
28th
unfinished
roberto
climax
##recogn
complicating
brightest
predictably
wyatt
perpetual
barton
##model
topple
scalp
sobbing
pseudonym
ailments
quirky
regimen
approximate
arthritis
bluetooth
cern
horton
mj
muted
nit
##bite
beams
shriver
##seat
##uben
assay
mila
##ursion
takeaway
##nesia
startled
businessmen
loy
stepmother
limbo
imprompt
epit
volvo
##iatric
rammed
amygd
supermarkets
crosstalk
sutton
vallejo
funniest
spearheaded
mccrory
kandahar
precursor
semiautomatic
impromptu
kod
ritz
vw
##sr
##uaries
##hub
##entown
##adino
##earted
spoon
##abc
##emy
carriage
roaming
commuter
handshake
campaigner
redeem
chechn
extensions
##enga
palae
epith
revamp
broom
legislatures
ambushed
madag
fasting
mandalay
juliet
gonorrhea
promoter
ufff
u2014this
molesting
fuji
prescribing
constituent
theorists
scratched
kirkuk
icelandic
vomit
maui
tilted
dismantling
bulldoz
inconsistencies
prognosis
mcdonough
fading
kok
paternity
rue
##uition
##pi
##inctions
##oway
mecca
noisy
marred
liking
recuse
##grown
fluke
##arean
##ierre
mao
promo
situ
mcs
100th
212
nbc4
marriott
##imester
louie
constitutionality
definite
rodney
470
malls
##gregor
subsidized
injecting
nuisance
##bledon
patriotism
isotopes
infiltrated
merritt
incompetence
arteries
wimbledon
degradation
##cruciating
chechnya
bd
foe
sis
vans
##74
##liss
##n1
##gov
##aty
##isz
univision
clut
wray
infused
legged
patagon
cores
looms
angie
floats
pollsters
sheridan
expressly
garlic
rancher
influencing
tabs
occupant
manipulating
ranchers
2025
seventeen
##aguered
parasitic
bribes
anomal
slices
rwanda
tarantino
obstructing
plymouth
infertility
bharara
biss
hms
lust
pity
rie
##kj
##vre
trimester
repris
u201creal
clinging
driscoll
relics
schiller
transient
recorders
procur
romero
214
optional
##holes
trusts
beaumont
drewn
vacations
comforted
emphasizes
shirtless
u223c
alterations
steril
backlog
puzzling
cherished
ascend
mendoza
residences
koran
cascade
hierarchy
incubation
lifespan
storied
nicaragua
301
bering
eco
icc
mullah
pcr
rory
wavel
##ooping
##52
##56
##erra
segreg
##users
##uner
brokers
canber
marino
##quan
teas
##grove
annoy
handel
botha
farrell
estes
182
extant
##tenberg
llp
sherlock
kingston
purge
bedtime
entrenched
chronicles
columbine
reintrod
junction
gravel
rabies
hatched
interrogated
dupont
friendships
##author
jealousy
renovation
isabella
peshm
gatlin
ecstatic
eject
lut
lill
pik
sj
tass
##bun
##niss
##qa
##oslav
u201cph
polished
accr
statehood
recounting
thrott
arrows
u2018g
midd
analogy
youngsters
mcnamara
weston
u0cb
cleans
combust
capitalize
osborne
acknowledgment
lovell
sweetened
teleph
lyndon
tremors
tremendously
declarations
channing
comprises
deterioration
cautiously
pediatrician
crumbling
stamford
carbohydrates
hippocampus
gervais
##iagn
toad
u266
##adays
shasta
unmarked
notions
notwithstanding
exasper
encephal
brash
drained
monks
##ovirus
##anga
highland
highlands
endemic
passers
##ewater
swell
girlfriends
u2018well
##uggets
okin
woodland
undersea
extremes
##doct
##aucus
necklace
blowout
cassandra
namib
suppressed
exhaustive
##two
misrepresent
sporadic
foreseeable
aftershocks
nonviolent
ludicrous
ineligible
wavelength
canberra
cj
mlad
poking
##dal
##hel
##flight
##pen
fritz
abys
splin
leves
prover
emitted
callers
indifference
suri
knowles
este
u2018he
antid
homan
erotic
deepening
displeasure
pretended
intra
intricate
hamburger
alexei
favoring
ticked
##losures
dismayed
forestry
sirte
maxwell
pillars
trickle
ninety
gastric
buddies
cvd
alligators
philanthropy
cultivated
moroccan
awakens
insecure
peshawar
finnish
ufe0f
unsurprisingly
##ompanied
beleaguered
kop
nach
zap
##clusive
##build
##lund
##98
##otch
##thans
##ivol
notifying
goalk
##iche
meats
compass
invoke
opm
autopsies
editions
politely
barking
breyer
setbacks
subtr
delusional
slashing
153
announcer
164
marchers
burma
fixture
##door
miracles
icbm
headquarter
sirius
buzz60
610
anticipating
dickson
polarizing
reopening
eagerly
pearce
digitally
mummies
crustace
amplified
mellon
catering
bracket
depleted
waffle
retaliatory
vertebrae
amygdala
cout
cms
fencing
kgb
nau
rife
sult
tj
##uette
##bot
##wer
chung
comets
##odic
leaker
leagues
##ustainable
arb
polio
agony
u2014ex
phthal
##assium
coeff
commotion
myspace
flam
newsstands
impunity
inscriptions
majors
distressing
snatch
jeh
u201cspec
merry
325
rods
brookings
u00e1namo
intensify
rotating
sewol
bosn
reimburs
pundit
rhythms
ketch
beheaded
aguilar
downgrade
contaminants
protagonist
immortal
rainforest
unbearable
hydraulic
coerced
lark
linton
##cf
##73
##1a
##alis
##omics
##then
subr
spilling
clare
polanski
##ipation
phantom
##grass
desks
pataki
hardworking
antim
potassium
fathered
birch
revisions
u00e9mon
microw
utc
derrick
conflicted
moonlight
correctness
literacy
##claw
u201cgiven
u201crep
megal
gwen
reluctantly
scouting
energized
whopper
mcgraw
maurice
wastewater
priceless
mcqueary
surname
bewilder
symphony
elisabeth
drewniak
peshmerga
dwayne
tect
vying
##turn
##uero
##otected
##lead
##still
##chap
##iral
chib
##ivar
##ustral
##tro
overreach
##onds
schae
poetic
mccoy
mccarr
sherpa
foxes
##ofe
ballard
selma
kras
u201cwar
casings
commanded
pinch
dunes
withdrawals
catalogue
grammar
trademarks
landmarks
bourbon
dashboard
enhancement
olivier
pixels
guzm
trolling
lurking
hysteria
u201cunfortunately
unresolved
eavesdrop
pulmonary
bick
dir
glean
hens
tart
zuck
##zad
##atre
hadi
plur
drilled
sofa
whichever
attire
pars
nowadays
infinity
##uchi
fours
caus
loom
shortest
furlough
dias
lander
223
burying
encycl
celebratory
culturally
melody
ethic
cooks
mortal
##iotic
dismissive
contrasts
intensifying
mckee
##605
cosmos
jarring
hendrix
strawberries
telecast
kunis
dwindling
##ubstantiated
hussain
fumes
suss
tg
tijuana
zep
##np
##fp
stitches
##iever
u201crel
hermann
doha
u2014about
scold
maroon
##aviolet
carell
statehouse
invoking
##cross
bobs
helena
minivan
subc
farage
limp
typed
27th
medicinal
sleek
combing
voicing
jewels
computed
enjoyable
nyu
u043a
collaborating
ultraviolet
capsules
bitterly
benton
accumulate
lizard
seminole
sucking
derailment
interpreting
repression
comrades
antidepressants
tranquil
koenig
pharaoh
dotted
js
lach
wob
##wash
##eri
##edown
bethes
stoked
stokes
##owars
##estinal
unprof
##aband
worsen
mejia
u2014where
teased
backseat
fins
disco
schoolchildren
directives
cavern
u2018if
radon
banksy
fairbanks
garza
rubbish
tenant
worthwhile
screengrab
willingly
knowledgeable
terminally
maple
habitable
demonstrator
stakeholders
artifact
resurrection
possesses
discredited
incapac
wipes
chromosome
coercion
pnas
metallic
faulkner
mccullough
fou
hib
rath
vouch
##tec
##oui
uneven
##acr
marissa
knicks
stripping
conscient
demint
legg
##bright
believer
veins
mole
deadspin
captioned
snark
petrol
ideally
##ueless
u201cwhite
mailbox
##cheduled
verdicts
experimenting
collapses
gestation
symbolism
chronicled
humorous
mugshot
scratches
##iazza
remedies
gyll
ushered
warships
kidnappers
extravag
congestion
trophies
schiavo
nottingham
bethesda
faked
koko
wk
##bble
##du
shand
sacks
##opods
excruciating
u201cstr
afar
peac
manig
expel
##avity
monet
commissions
apiece
electrom
rediscover
caj
programmed
messing
furor
diaries
riches
distanced
tomas
##elliger
persever
hyund
u201cmod
scandin
##rante
hellen
u043b
huh
caveat
rioting
##acao
cmdr
ghosts
tumble
wolver
fugitives
resurgence
apprehension
tirelessly
sleeves
horizons
aguil
transpired
dessert
hirsch
outlandish
cuc
deng
lous
noses
nodes
pach
vl
xxx
##pre
##zing
reent
clamp
##uble
##umps
roan
secession
pressuring
yorkshire
communion
secondly
viewpoint
glue
circa
##balance
commonplace
beginnings
##ofsky
disposed
jonben
discriminated
787
gadget
boucher
u015
chimney
nassau
spoiled
yanked
dealership
enactment
dehydrated
kangaroo
disconnected
caretaker
hyundai
kink
kitt
scept
zamb
##a0
##gc
##kl
##uru
##illand
wei
repell
u201cother
u201cfl
gripped
##ipa
##ousing
##avers
overhe
roaring
cologne
desist
deprec
##riarch
receipts
snails
heartbreak
##umbled
wilde
stocked
##hany
armour
jonas
macro
papad
cooled
retracted
mutant
tanner
molecule
navigating
##chenko
##opolis
penetration
ferrari
consolidate
dividend
alvar
seabed
discrepancies
insecurity
unaffiliated
tasman
bloomington
paxton
osha
blistering
superficial
bosnian
##thorne
##ulatory
##eared
##orexia
aboriginal
##alla
usern
workings
strap
mayweather
donuts
##urnal
edits
simm
cheet
halle
deviation
##ograd
archipel
eroded
enclosed
##inoza
##array
benefiting
derby
krak
mockery
gillum
u00b0f
bluntly
fmri
stefani
swaths
[...]
