[PAD]
[UNK]
[CLS]
[SEP]
[MASK]
!
"
#
$
%
&
'
(
)
*
+
,
-
.
/
0
1
2
3
4
5
6
7
8
9
:
;
<
=
>
?
@
[
\
]
^
_
`
a
b
c
d
e
f
g
h
i
j
k
l
m
n
o
p
q
r
s
t
u
v
w
x
y
z
{
|
}
~
¡
¢
£
¥
§
¨
©
«
®
¯
°
±
²
´
µ
¶
·
¹
º
»
½
¿
×
ß
æ
ð
÷
ø
þ
ı
ł
œ
ƒ
ɛ
ʔ
ʻ
˘
˚
α
β
γ
δ
ε
η
θ
ι
κ
λ
μ
ν
ξ
π
ρ
ς
σ
τ
υ
φ
χ
ψ
ω
ϵ
а
б
в
г
д
е
ж
з
и
к
л
м
н
о
п
р
с
т
у
ф
х
ц
ч
ш
щ
ы
ь
э
ю
я
і
א
ב
ג
ד
ה
ו
ח
ט
י
כ
ל
ם
מ
ן
נ
ע
פ
צ
ר
ש
ת
،
؟
ا
ب
ة
ت
ج
ح
خ
د
ر
ز
س
ش
ص
ط
ظ
ع
ف
ق
ل
م
ن
ه
و
ى
ي
ٹ
پ
چ
ڈ
ک
ں
ھ
ہ
ی
ے
۔
।
অ
আ
ই
এ
ও
ক
গ
চ
ছ
জ
ট
ড
ত
দ
ন
প
ব
ভ
ম
য
র
ল
ষ
স
হ
া
ি
ী
ে
ৗ
அ
உ
ஊ
ஒ
க
ச
ட
ண
த
ம
ய
ர
ற
ல
ள
வ
ி
ு
ூ
ே
ை
ಖ
ಟ
ತ
ದ
ಪ
ಮ
ರ
ಲ
ವ
ಶ
ಸ
ಾ
ು
ೕ
ฟ
โ
๐
ᄀ
ᄋ
ᄒ
ᅡ
ᅥ
ᅧ
ᅮ
ᆨ
ᆫ
ᆸ
‐
‑
–
—
―
‘
’
‚
“
”
„
†
‡
•
…
′
″
›
⁄
₀
₂
€
₹
™
ℬ
ℳ
←
→
↓
↗
⇑
⇓
⇱
∂
∆
∈
∑
−
∗
∘
∩
∶
∼
≈
≤
≥
⊤
⌨
ⓒ
─
├
■
□
▪
▵
▶
►
▼
◀
◆
●
★
☕
☝
☮
☺
♀
♂
♈
♡
♥
♦
♫
⚡
⛴
⛽
✈
✉
✌
✓
✖
✨
✴
✺
❂
❄
❌
❣
❤
➜
➨
⭐
⭕
、
。
い
さ
し
す
っ
て
と
に
ま
み
を
ア
コ
シ
ス
タ
ッ
ト
フ
ー
一
三
下
不
与
专
且
东
两
个
中
为
么
也
习
书
了
二
于
些
京
人
什
仅
今
他
以
们
件
份
众
优
会
传
但
体
使
供
保
信
催
入
公
六
兴
其
具
内
再
准
几
出
击
分
创
利
到
刻
前
割
力
办
功
动
势
化
北
区
即
去
参
及
取
可
号
合
名
后
向
否
周
和
咨
品
嘉
因
国
在
坚
型
备
外
多
大
天
好
始
季
学
它
定
宣
室
家
对
将
就
尽
山
已
市
布
希
常
年
并
应
底
开
异
式
引
录
很
得
德
心
快
思
息
意
感
憾
成
我
或
托
批
报
抵
拉
招
择
拿
持
授
掌
接
提
握
收
教
数
文
新
无
日
旧
早
时
明
是
显
更
最
月
有
望
朝
期
本
朱
机
条
杰
東
查
标
校
样
正
此
求
活
流
测
深
点
照
熟
版
特
环
现
生
甲
申
电
留
的
盛
目
看
真
知
研
示
福
秀
秋
称
程
究
符
第
签
简
管
箱
系
约
线
练
给
绩
罗
美
考
者
而
联
育
能
至
花
苦
英
茨
菲
行
表
被
要
视
解
語
认
设
证
评
识
试
话
询
请
课
财
质
赴
趣
路
过
这
进
远
选
通
造
道
遗
那
邮
释
金
针
链
长
開
间
阳
限
雅
需
靓
非
面
项
顺
预
频
额
高
ﬁ
！
（
）
，
：
？
＠
🇦
🇨
🇪
🇭
🇯
🇰
🇲
🇵
🇸
🇹
🇺
🌀
🌅
🌈
🌊
🌋
🌍
🌎
🌏
🌙
🌡
🌭
🌴
🌹
🍺
🍻
🎂
🎒
🎥
🏀
🏆
🏈
🏊
🏖
🏙
🏴
🏻
🏼
🏽
🏾
🐈
🐍
🐘
🐮
🐶
🐾
👀
👇
👈
👉
👊
👋
👌
👍
👏
👑
👙
👻
💁
💉
💋
💎
💔
💕
💖
💘
💙
💛
💪
📈
📖
📷
📹
🔋
🔥
🔮
🕉
🕸
🖤
🗣
😀
😁
😂
😆
😈
😉
😊
😍
😎
😏
😘
😢
😩
😭
😳
😷
😹
🙂
🙄
🙇
🙌
🙏
🚣
🚧
🚨
🚲
🤔
🤗
🤡
🤣
🤦
🤨
🤬
🤷
🦄
##o
##v
##a
##r
##y
##f
##s
##h
##m
##c
##e
##p
##i
##d
##l
##g
##u
##n
##t
##b
##k
##9
##7
##6
##1
##8
##q
##3
##0
##5
##z
##x
##2
##w
##4
##j
##°
##ر
##😂
##€
##๐
##ฟ
##ہ
##م
##о
##щ
##р
##я
##т
##ь
##😁
##ε
##ι
##δ
##π
##η
##ς
##ள
##ட
##க
##வ
##ு
##ம
##™
##🇸
##±
##˘
##ч
##а
##с
##в
##л
##и
##н
##м
##г
##ר
##א
##מ
##פ
##д
##п
##е
##−
##ם
##ж
##ی
##ک
##к
##ы
##ע
##ש
##ו
##ת
##®
##🏀
##б
##♡
##¢
##ー
##ト
##ರ
##ು
##ಟ
##ವ
##ೕ
##ಸ
##ದ
##ಾ
##و
##ٹ
##×
##י
##ই
##ট
##پ
##ن
##👀
##⇑
##ш
##∶
##β
##🏻
##☝
##у
##נ
##ל
##ד
##ண
##த
##ி
##ல
##ה
##⇓
##₀
##🦄
##⚡
##з
##★
##য
##ে
##ব
##স
##া
##ﬁ
##🇪
##🇺
##☮
##½
##ø
##ل
##ص
##ا
##ب
##ة
##💙
##ں
##х
##ま
##す
##♥
##ß
##🏈
##ع
##د
##🔥
##র
##ক
##ত
##🏼
##😭
##ج
##©
##🏆
##ב
##🇲
##🇰
##ষ
##🌭
##ى
##º
##❤
##ł
##س
##ي
##ق
##і
##🌋
##∆
##λ
##ش
##ூ
##ц
##ম
##ய
##ற
##ச
##˚
##ز
##خ
##🎂
##👋
##¹
##ڈ
##ð
##ர
##ি
##ড
##ತ
##গ
##æ
##❄
##κ
##ω
##μ
##ν
##ю
##כ
##📖
##ı
##ন
##œ
##🕸
##ھ
##🖤
##🙏
##😢
##∗
##て
##み
##ت
##ف
##❂
##ৗ
##ছ
##😩
##❌
##⭕
##❣
##👏
##💁
##↗
##⁄
##🏾
##🔋
##⛽
##ф
##🌡
##🐍
##ے
##👙
##💋
##🏊
##♀
##🚣
##⛴
##🌅
##🏖
##🏙
##α
##ল
##ן
##โ
##ח
##ט
##ᅡ
##ᆫ
##ᄀ
##ᅮ
##ᆨ
##ᄋ
##ᅥ
##►
##💪
##♂
##✨
##ை
##ظ
##🙌
##🐾
##😹
##├
##🤡
##²
##ح
##چ
##い
##ே
##≤
##🌍
##🌏
##σ
##´
##⭐
##🌈
##💕
##ス
##タ
##ア
##ッ
##フ
##シ
##😍
##😷
##প
##ᅧ
##ᄒ
##ᆸ
##ط
##🇹
##🇯
##🇵
##ও
##צ
##≈
##🌙
##ه
##🍻
##🏽
##ভ
##ג
##👌
##ƒ
##📈
##🎒
##💉
##👑
##υ
##ಶ
##ಲ
##ী
##চ
##🇦
##👇
##🤣
th
##er
the
##in
##at
##on
##ed
##en
##es
##or
##an
##ing
##ar
in
an
to
##al
##ou
##it
of
##is
##as
##ic
and
##om
##ion
##id
##il
##re
##ent
##el
re
##ot
##le
##ay
be
wh
##ur
on
##st
st
##ut
that
##ol
##ac
##et
for
##ad
##ve
pr
##ow
##ly
##ig
##am
##ers
##ec
is
he
it
##im
##ir
sh
was
##ter
##ation
as
##os
##ith
##th
##us
al
sa
at
##ch
##ver
with
##ce
con
##ld
fr
##est
##ill
##ere
##op
ch
ne
said
##em
##ess
##oun
com
##ul
##ts
tr
##ag
we
ha
##un
##oc
##um
##ate
##igh
##ear
his
##iv
##pp
un
##ain
##ak
##and
de
##ct
20
not
##od
ex
##if
by
##ore
from
su
are
or
have
##ould
##ity
se
ab
##our
##ment
##ort
##se
##ist
this
sp
##ies
but
##art
has
##ial
rep
##ab
le
##all
##ud
##ap
##ive
##ie
they
who
##ok
##ice
##out
##gh
##ust
en
her
##ect
##ight
us
af
201
##ack
off
new
##day
ar
##ant
she
##ast
go
##ell
ad
##ost
##ard
##end
ac
##her
##ia
##ome
cl
pl
had
br
##ated
wor
year
were
res
##ib
pro
##ich
you
##ge
##ound
out
say
will
pol
cr
about
##ide
gr
##ik
am
##ip
do
up
all
more
tw
been
ag
##tr
##ough
##ong
their
me
one
after
##ans
##age
comp
##one
im
inc
##der
##ub
##ally
pe
can
##ous
##enc
man
##ine
##ber
##ence
tim
##ident
exp
##ions
would
acc
##ary
dis
ph
no
##ther
##ian
int
##iz
##qu
##og
##ail
when
##pt
ev
##aw
##ff
##ose
dr
pres
app
which
##own
per
so
##ople
people
##ace
##ure
there
##ord
##act
##av
##ely
##ign
sc
##ass
mar
##ue
##ook
##00
##lic
##ake
##ire
car
##ile
##ied
than
##so
##urr
rec
##ations
##ame
##ors
em
some
what
##ents
##ase
lik
also
##ite
inter
##ind
bu
if
over
coun
part
rel
just
ass
mon
##ks
##aus
bl
##ach
its
##ump
him
##uc
fir
##orm
other
bec
kn
our
##ical
inv
att
dec
comm
##ov
fl
##ency
any
offic
##ish
act
##ens
fe
two
pre
##ict
##ance
president
stat
str
time
sec
##able
##ey
co
##ater
##ree
police
qu
##ild
cont
says
ser
##orn
could
te
##oss
trump
19
##yp
into
##ory
may
##ick
##ublic
did
##iat
them
get
##oy
##oll
##itt
ob
##ond
work
##ep
how
##gr
day
##ause
##ath
##ob
##amp
like
curr
call
report
##ings
##ty
first
##ang
ind
news
par
my
##ition
law
##ade
##ood
##int
##orts
##man
2013
##lud
##ock
##ult
##hing
##fer
years
##ink
don
##iss
phot
add
med
##other
ever
typ
wr
under
sy
told
##old
cons
inf
##ious
fam
imp
hel
includ
##reat
##ily
state
##ement
sch
10
##ry
show
buy
11
wom
now
op
##ery
last
because
##are
back
##urn
stud
##uring
found
dep
rem
##ues
ear
##fore
##ek
type
##ational
##anc
again
##ug
thr
##ons
cour
invest
##arg
##ife
high
most
##ra
bel
des
##eric
cap
##ities
##oup
ro
before
##iew
##uct
##ual
##way
hou
where
##tc
ap
old
##ove
currency
bet
americ
##wn
##illion
##lect
only
##ited
##ased
usd
col
fiat
official
btc
##ft
even
aut
min
uid
supp
while
##vern
##hn
know
contr
accord
##erson
gu
##earch
##ating
govern
resp
during
##uss
jo
lead
##eral
down
##ton
your
every
reports
##we
form
according
sm
200
reg
house
war
child
these
det
those
dem
being
##aking
then
sen
##vel
##ork
##au
##oth
long
way
ins
sur
##ama
compan
gen
##cc
mem
##ince
##ert
many
air
def
made
ter
po
through
##ful
##ates
##ked
press
investig
family
sub
##istr
want
##ah
plan
post
public
ve
000
nor
disc
look
##ible
##pl
##ved
##ier
##ather
cent
##air
##ting
##ise
end
##ected
##son
month
##uch
##oot
##az
##elf
week
bus
mr
three
##ash
##les
mil
##ific
##led
kill
help
conf
world
own
##atch
camp
##ool
see
bo
##ward
##ning
##med
countr
##gan
##oci
government
##olog
make
##alth
id
fin
##irect
sign
very
bre
##ivers
##ote
prov
auth
though
person
such
##ital
face
##ro
well
inst
direct
against
##ress
##ether
##ives
group
##ix
prot
home
need
should
##und
eff
##urs
##lear
court
million
arr
still
since
play
serv
spec
including
going
12
##ages
near
##ists
##ently
spe
think
##io
##min
school
##ody
##view
##ets
15
##ged
fil
##ee
leg
loc
el
health
##ics
support
does
##ange
obama
life
city
pat
ann
##ph
prob
take
read
sl
##ri
##ren
women
##ollow
contin
rele
##ned
much
##bs
hand
iss
belie
follow
##land
##ax
##ope
company
##ween
dif
national
##ants
##ative
ed
author
between
another
case
inform
##cent
##ower
##augh
elect
associ
##ility
##cr
##xt
##ments
called
sou
##bers
##ime
##als
##ures
around
ret
##ott
cond
happ
##ying
set
death
polit
states
bar
york
times
##omet
attack
##ave
miss
right
tal
ke
white
officials
##ision
##ived
##nes
##ull
##ner
##its
del
put
wed
prod
har
intern
trans
##ecut
##ount
##ms
head
##ven
sun
char
capt
##br
vide
##ized
conc
##ale
##ys
##ior
use
tell
13
republic
num
sim
north
both
##lin
##artment
30
photos
cor
run
##ered
former
18
appear
##ient
russ
##osp
##ened
research
##ular
ref
secur
adv
here
used
mark
##ank
##ew
##hip
find
good
reported
##app
country
##ief
##ually
statement
never
requ
##rat
##ained
night
##let
##ret
met
sex
14
story
pass
##iday
##over
information
cal
start
big
expl
fri
care
spok
friend
percent
##att
later
tues
prev
doc
tuesday
sever
let
univers
test
four
es
didn
sus
ma
mov
16
##iving
##ina
far
children
##aff
##ness
##ling
somet
##ified
##ention
##ced
quest
sw
##iver
chr
photo
##aim
beh
team
##osed
##aign
american
##ins
##ember
campaign
media
gl
left
##98
##ene
##nesday
wednesday
commun
turn
sk
monday
##per
same
##ution
shar
days
##iness
office
hum
##red
john
prop
tak
##read
##ued
##ern
sat
aff
##gest
##book
security
##ald
##itter
united
democ
fed
today
est
##ices
##ont
department
vi
alle
washing
friday
##line
star
##erg
gre
poss
record
sent
syr
##ains
associated
##gress
wal
##iel
##ection
pay
washington
##ison
milit
##uck
real
##ving
thurs
thursday
second
claim
hour
vict
fac
prof
##ights
##ger
susp
17
mus
differ
south
video
conv
water
##res
##ney
red
jud
##ric
##ister
county
democrat
woman
rece
##ism
university
business
rest
oper
facebook
##ised
got
exper
next
av
##king
##lish
##ces
charg
men
stand
##co
cre
##ience
##ony
whether
##stem
bill
##30
took
##ided
la
##ured
25
##irl
twitter
22
##form
asked
##ele
art
##idence
fact
stre
##ize
##ever
opp
dat
each
##ead
ris
##erv
win
##iting
hosp
21
##ially
clear
ra
system
##str
proc
shoot
sn
watch
gun
few
incre
hospital
##crib
too
power
mod
##ason
several
members
tax
ir
girl
##ploy
come
saying
##ject
vis
##ases
killed
study
##ines
based
prom
maj
really
unt
##ley
without
hist
eng
least
federal
might
meet
partic
point
came
##ended
##ects
top
viol
##ically
##up
image
months
##con
youn
among
number
place
sunday
saf
fire
##par
ext
why
##enn
##used
##ety
##thing
something
##side
##els
class
allow
invol
lot
interview
major
pop
won
went
five
##ering
best
ste
##ames
main
val
admin
san
pa
caption
crit
##ense
##inal
##cept
party
##ute
employ
##iam
terr
seem
data
sug
until
away
il
list
soc
2014
distr
##oney
kore
##velop
twe
black
ant
arrest
##nn
##rem
sour
hard
ident
less
keep
stop
##tern
##pr
search
order
dead
##ury
past
jan
great
announ
morn
##ails
##eng
##ending
early
##ators
military
open
##ral
##gram
develop
investigation
24
fund
deb
##ional
taken
##une
##ds
vot
shot
##self
known
mean
net
mich
##ittle
area
program
ge
little
##ech
##ator
##ired
service
morning
mid
sal
##urch
##iven
##te
##wh
##icle
administr
##na
mur
sit
dev
authorities
inj
jour
build
center
##ark
however
victim
earl
boy
seen
spokes
polic
consid
23
job
committ
proble
small
likely
six
wrote
698
mother
##uary
##orney
##bc
attorney
sol
clint
##atter
pos
things
mess
deal
occ
march
suggest
hold
##ides
##ought
pot
50
must
return
secret
##ands
##aph
move
sing
stock
##gin
chief
##acy
ju
evidence
##ves
clinton
body
##nal
view
cover
died
human
mom
hear
##ike
added
using
christ
##unch
hol
believe
##ably
political
##iff
earlier
level
2016
chang
money
change
mo
general
##ipp
social
threat
released
organ
republican
drug
acr
director
##oad
son
kid
ll
##port
execut
##aining
anal
produc
close
hal
##ways
##ians
outside
exc
interest
vir
priv
young
across
##thers
describ
confir
local
satur
activ
##by
medical
calif
hours
ple
protest
step
free
##ones
2015
##ready
already
cert
full
cop
dam
others
colle
##ox
mass
ago
##aged
lar
rom
##ences
cnn
saturday
congress
##ush
cand
fight
making
cost
different
along
##iously
##ane
##amed
name
199
question
##ults
##uction
control
##sh
decision
doesn
import
den
##630
book
crim
process
once
civ
##ature
yet
journal
officer
##ology
28
dav
working
2012
father
##ately
short
pub
##ird
698630
##less
##oved
ang
wife
share
##ann
##umm
grow
##ising
trying
##stand
##ference
40
continue
econ
##akes
feel
cust
shooting
econom
film
equ
cut
perform
##echn
tex
##ted
able
better
29
##oub
officers
friends
international
arm
event
##ten
##ru
##ape
##ield
mc
thought
fur
eur
civil
ent
tweet
conn
agency
sell
kind
addition
docum
recent
following
hit
street
fre
fall
rul
31
market
coup
techn
fun
foot
lim
love
pal
laws
risk
special
reach
treat
always
possible
hom
administration
mal
senate
alleged
leaders
election
community
26
donald
##ees
##aughter
west
##ivid
lib
non
100
##rop
agre
heart
repres
##for
america
##ault
staff
park
27
history
fail
having
candid
meas
began
##eign
legal
live
##ined
arg
held
larg
##eck
##empt
thing
related
email
late
respond
##vert
super
bab
pet
strong
hide
relations
2011
##ogr
wanted
given
sand
lear
oct
imm
food
phone
age
##ared
taking
sept
unc
deter
flor
##lex
common
##ibut
board
canc
give
july
ban
di
land
aug
arch
hill
pros
rights
##oke
mcc
init
rad
incident
effect
##ico
lab
within
tot
##ried
##ients
##af
justice
mag
enter
##sel
bas
comment
##ances
students
judge
review
ide
##ential
become
caus
los
orig
behind
certain
link
##ats
himself
##inc
enough
wall
speak
simp
prosecut
wee
opt
##ril
emb
##ination
##lished
russia
eas
trav
famil
prison
line
site
californ
fig
cam
anim
doing
##rael
complet
someone
israel
uk
foreign
weeks
syria
ur
mor
##itor
policy
parents
russian
tells
expected
respons
important
wind
port
##tt
tog
often
##ively
manag
##ida
nearly
wa
california
##aps
lat
wasn
##cement
april
financ
##ening
discuss
billion
rob
inside
notes
further
##ler
##ization
looking
##ural
happened
hot
page
2017
##den
##igr
##utes
issue
##ars
shows
sexual
refer
bur
committee
##uation
china
individ
##ented
scient
june
##erman
texas
sold
##ards
discover
host
led
charges
##sy
saw
address
targ
upd
getting
room
murder
##ilar
immed
cases
##itch
result
stay
glob
aust
gener
involved
bir
online
##aper
##ites
personal
aw
nation
together
bad
##ester
lawy
ep
korea
mill
##gn
force
large
researchers
##uit
hop
done
##itions
##por
webs
individual
doct
started
half
profess
account
er
summ
side
presidential
release
##ission
lost
##sw
##body
##erc
suff
europe
nom
##ify
ground
hun
je
##itive
request
##gy
##lam
neg
##irc
clos
compl
scre
meeting
hope
alm
pict
mis
bor
##ither
##ories
leader
##imate
received
terror
##atic
brit
advert
fut
action
##oon
front
##ps
announced
##bi
##berg
##ows
enc
##ael
syrian
foc
images
florida
fel
##yr
third
similar
##bor
blood
david
tre
mot
december
sure
angel
conserv
vote
low
church
##go
road
nothing
flight
anything
##ival
town
whose
ey
##ne
minister
circ
dom
rev
neigh
##aily
republicans
succ
daughter
bom
actually
services
contact
hus
##iod
35
##iter
##ulation
cred
financial
##aced
couple
resident
signific
##be
##ibility
geor
##11
##ellig
bush
##ium
source
ce
##get
##uff
##uge
##ift
##ped
appro
veh
jack
romney
##onse
##umb
future
dist
daily
safety
reb
reason
trad
##iqu
rich
tem
attempt
arrested
##work
##uters
var
##ograph
access
intellig
almost
success
conference
collect
##ode
instead
vol
quick
##ench
##lement
obs
break
michael
coll
cause
##ring
##hood
building
response
assist
##rupt
aud
dise
movie
period
##60
due
anyone
weap
cho
scene
##thern
mult
##bert
lives
##uel
secretary
victims
total
65
franc
term
##oo
enfor
questions
avail
##though
member
custom
although
reve
described
##ored
key
##ai
##use
##ters
deep
internet
spokesman
cris
mart
toward
impr
speech
protect
isn
comes
problem
results
grand
published
tried
calls
##eal
heard
##uclear
desp
env
issues
medic
crime
assault
iran
americans
recently
45
ver
broad
soon
significant
##aster
##ements
tv
particular
website
##uce
space
thous
appar
game
##oop
minutes
dog
esp
launch
bene
gold
##ades
executive
travel
2010
patients
emerg
rock
##aut
##65
target
trial
cele
bring
##band
##ana
conduct
countries
repl
understand
concern
##enced
intelligence
htt
democrats
chall
plans
##ounds
##oid
matter
democratic
surv
defense
nat
light
ms
surve
bank
baby
design
pain
const
phys
leave
became
relationship
coming
district
##fic
represent
##ming
##anger
specific
private
express
bit
available
##iately
student
##yn
##ke
##ample
##70
fell
consum
##acter
location
pen
nuclear
##rew
##istan
criminal
workers
guard
esc
##ability
series
shares
answ
details
investigators
hon
poll
indust
confirmed
loss
##ensive
198
storm
remains
immigr
provide
charged
div
current
role
##dle
course
groups
crisis
companies
##ortun
everyone
islam
turned
##ogn
crash
sher
prim
husband
adm
else
fbi
cell
pick
##ints
##ball
kim
deliver
forces
makes
gave
miles
celebr
claims
tom
try
extr
wrong
alleg
earth
##reme
latest
accused
college
despite
##icted
80
dest
fair
##asing
include
william
missing
behav
##oint
##ugg
talk
self
attacks
august
##iron
worked
posted
appeared
fly
january
##ij
##action
particip
drop
plane
means
message
##aine
bal
showed
##yl
##ille
reuters
island
letter
##kn
visit
cle
##oom
appr
file
indic
senior
ah
##ental
instit
article
pred
probably
fear
##ays
disp
ran
##ett
environ
immediately
condition
paul
ira
reveal
cit
##atives
fem
fav
##ots
##lus
doub
fox
60
everything
##icide
##ipt
running
sil
begin
tur
phil
september
east
tele
capital
web
potential
cann
##ada
seek
proper
via
francis
iraq
contribut
squ
angeles
knew
records
bi
vers
##ends
hund
lou
hundred
##orr
mex
employees
##itted
enforcement
##iple
marri
violence
disease
pract
included
award
living
##15
oh
##ergy
final
educ
##wood
camer
##ecess
##vem
novem
walk
##epend
intr
birth
cast
race
##eter
track
mel
##iding
carry
##overs
##itness
november
2018
families
estim
provided
##dr
scr
chair
independ
##yan
brown
##orter
##aring
brew
analys
serious
anti
thousands
##ounts
environment
entire
sup
abs
hearing
##eth
expect
single
eight
continued
diffic
##inks
##attle
33
comb
crow
##itting
surpr
cancer
##20
date
brother
accident
##ston
critic
resc
oppos
either
rather
##iate
##amm
##ober
##omm
german
forward
respect
spent
##iation
kids
october
block
moment
middle
##ex
situation
believed
compet
##selves
king
insp
ill
pan
separ
##ality
idea
identified
mater
che
gop
##hol
##oming
seven
##ender
filed
aver
issued
increase
##itten
rate
##ogle
neighbor
disapp
afric
treatment
fat
##iec
##fully
cult
advertis
products
effort
##ky
##isc
comments
station
bud
heav
##oph
##isl
citiz
##back
ball
global
debate
hands
central
suspect
cross
higher
##ished
##akers
##lined
creat
##leg
exam
music
marriage
##lu
##lines
32
leav
500
##ule
##omp
##uty
chem
pur
efforts
candidate
##ners
sheriff
##ask
majority
##venue
border
##ceed
norm
needed
##atory
emergency
snow
legisl
safe
mind
pun
army
lad
whole
mad
communic
nbs
##bed
brought
longer
nbsp
##cil
##ilities
approach
teen
sle
sym
unl
rac
unf
gar
below
position
remain
doz
##rect
decided
killing
experience
##iers
price
energy
reporters
##ength
check
##apan
words
##ips
problems
additional
quickly
scott
james
amount
prime
prior
consider
vo
nbc
bott
ul
##esh
google
##uz
##uth
difficult
japan
sources
ca
wood
documents
pret
recover
benef
##ugh
lo
##ams
##ago
calling
scientists
mos
hall
##61
deg
amaz
paid
uns
previously
austral
project
ukr
previous
attention
french
espec
ov
rap
##ude
especially
##40
wants
felt
danger
witness
named
##ma
ben
network
users
residents
##olution
2008
appears
brain
wild
##ron
accept
##where
subject
commission
hack
amb
analy
true
recogn
##yc
subs
determin
43
changes
dig
##bo
spoke
please
shut
##ounded
example
focus
present
green
seems
george
feat
getty
industry
37
2009
pers
##ological
popular
##aint
base
god
british
##aur
born
box
##ondon
regard
##ino
decl
apparently
##ster
##amb
london
mount
##ville
science
needs
ended
cur
favor
##la
note
flo
pregn
##ging
areas
##ification
##arr
##ancy
##ges
weapons
exact
##ghan
os
aftern
caused
##ateg
afternoon
push
##95
##idge
mic
##uing
currently
##oken
impact
##ider
##imes
drink
##lim
events
febr
##ortion
##izing
advis
worth
##32
34
##fl
coast
##apped
traff
february
song
repe
demon
destr
brief
crew
convers
supreme
matt
chic
bomb
##78
created
pack
discovered
bed
42
field
##aging
exist
table
##hen
allegedly
lawyer
##ibly
council
hundreds
38
##tain
ens
airport
lower
##istic
##cript
lawsuit
ice
written
surr
voters
door
prepar
themselves
analysis
doll
gone
piec
illeg
sett
und
injured
##itution
##inated
##hold
character
occurr
vehicle
##ae
telev
adding
##off
experts
girls
union
##ste
bost
##eed
afghan
pages
##rec
mer
smith
model
shall
word
governor
##99
offer
region
doctors
leading
color
guil
multiple
fired
48
applic
##iction
product
organization
attr
opportun
##haps
material
##ya
insur
talking
##sych
cat
draw
arrived
##etic
subst
technology
helped
require
perhaps
development
##aces
above
value
mayor
prevent
economic
average
suicide
##aught
histor
considered
ut
dan
season
reached
##ese
feet
speaking
conservative
##ham
##tim
boston
jail
purch
##essed
necess
ask
##ki
allowed
income
firm
guy
alex
##10
abc
pil
sea
points
hurr
gather
store
cash
##ession
brand
psych
##of
kel
declined
##oyal
korean
female
55
burn
inn
exch
gas
##oud
##itz
fort
nov
chicago
carol
bbc
pul
decades
##arily
##ague
##aker
bod
peace
couldn
weekend
charl
cannot
90
card
mob
pray
##oman
lang
van
sched
##ris
thank
##69
##room
explos
estab
simply
mexico
75
ok
sens
##iana
reading
figure
##down
recall
##ocked
behavior
##erved
##uries
prosecutors
nav
credit
works
text
conditions
noted
sel
lack
swe
robert
charge
##he
moved
operations
version
##key
47
tour
advertisement
alco
passed
##add
looked
crowd
##45
##sequ
roll
avoid
##unt
alcohol
paper
wouldn
hur
##ping
trade
aren
driver
prec
claimed
##asc
rules
lee
command
demand
surf
70
influ
agreement
36
johnson
professor
##rel
gov
changed
failed
allegations
grant
protesters
ros
##estern
alone
finally
die
##yle
itself
raised
##stein
39
meth
hotel
ten
##ara
paris
biggest
##owing
##ction
##ipl
levels
##oper
sant
##ette
mission
##ores
troop
##while
bey
measure
dna
terms
european
ceo
damage
maybe
ken
rout
##bur
corpor
49
##ully
largest
bid
soci
##reg
strugg
##ado
##isions
offered
copyr
gay
item
happen
original
pretty
##ev
stories
education
france
abuse
document
dark
##ford
goes
hurric
whom
spread
trust
jew
grad
parts
touch
##agn
drugs
immigration
41
oil
spr
controvers
##encies
pressure
videos
concer
contract
performance
ahead
##iet
extrem
##eless
##nel
played
44
mach
chemical
fa
click
offering
statements
guilty
tit
##iest
actor
hillary
closed
origin
vice
##23
chance
takes
##iar
##woman
career
virgin
remember
sense
returned
responsible
##han
television
planned
sales
copyright
numbers
summer
challen
weather
studies
writes
beach
spending
regul
required
tweeted
##ises
nine
restr
cbs
happy
holly
bow
trip
jobs
ryan
##raft
##erve
picture
yes
##iles
actions
association
counter
relig
##25
vac
looks
economy
jon
shop
followed
range
sometimes
overs
mary
section
mail
compens
content
weight
receive
##inese
##icles
martin
gall
##ona
princ
chinese
except
##ropri
##ole
train
perm
##agr
usa
ways
meanwhile
yester
##ung
broken
species
concerns
citizens
fighting
yesterday
primary
opposition
cooper
##erry
sleep
growing
seemed
restaur
##ique
##17
century
correct
##inary
suit
upon
flood
##adem
increased
size
##aft
dipl
learn
animals
repeated
male
animal
beyond
diplom
##los
newsp
reportedly
device
din
giving
fix
agreed
flag
river
##bol
asking
radio
##aza
54
##mine
##ding
includes
hurricane
occurred
match
##68
evening
transport
##gypt
growth
lif
mu
ren
197
photograph
##ouse
cub
##uced
engine
bag
##mp
revenue
reporting
opened
southern
egypt
defend
frank
academ
climate
acqu
compared
##ipped
aid
##any
individuals
##oyed
langu
68
blue
particularly
revealed
population
increasing
eth
trib
armed
apple
72
ukraine
fast
owner
millions
francisco
leaving
##elling
barack
eventually
training
poor
kept
linked
property
fle
reporter
create
fill
sanders
houston
hollywood
##iant
##aming
ii
detect
driving
##jects
supporters
brewing
bodies
hers
blog
initial
##awl
##ground
annual
answer
wonder
contributed
##wor
##entially
clin
##fri
sound
sister
tel
editor
ship
##airs
suggested
##bre
virus
frequ
jeff
http
displ
management
count
muslim
magaz
path
campus
customers
independent
##tained
stage
coverage
##come
##ica
quite
et
veter
eye
##za
operation
traffic
abortion
accus
hy
throughout
islamic
##ires
exactly
##uf
shared
refuge
sites
tun
wein
goal
deaths
mat
prem
purp
46
ham
huge
##ilt
extra
budget
recomm
chris
injuries
##18
rape
emot
archive
chairman
propos
##arter
senator
watched
lived
##arm
louis
##makers
79
forced
experi
freed
treated
seeking
wat
beaut
showing
moving
temper
anth
emails
ath
##lor
cook
learned
served
connect
##uled
troub
plat
##ously
##onym
jose
thom
negot
married
telling
complete
doctor
introd
##ware
comput
##know
horr
##istry
##ume
##ble
defin
effects
ele
##hib
ability
mike
ther
##aly
oce
confirm
western
acknow
players
speed
williams
clean
illegal
lawyers
acknowled
##rest
##oms
gets
virginia
send
00
##ocks
punish
cos
trail
patr
log
##imm
costs
ord
58
accounts
battle
##wise
bul
nations
politics
playing
floor
detail
demonstr
rub
##lant
##urb
##apt
nature
ohio
bob
hyp
vill
##wide
stone
##unk
adop
compensation
52
screen
games
muse
##ropriate
##vey
##sa
deputy
talks
responded
abd
minor
rh
beg
stopped
micr
bloom
holding
soldiers
od
pull
57
##asons
schools
95
israeli
carolina
##ctions
denied
##friend
cruz
isis
encour
society
advoc
##to
sud
soft
regular
53
northern
mist
##ny
##ayed
ones
employee
troops
patient
constitution
wid
diagn
rise
##cast
update
##uk
fish
2007
##me
wearing
kar
wil
ready
##resp
subm
agree
appeal
certainly
dism
##ologist
instr
ess
dangerous
determined
resour
rat
convention
messages
museum
hous
estimated
mention
##light
progress
##oes
manager
voice
##43
##aks
shown
labor
51
ber
pak
spokeswoman
tradition
names
##48
##engers
##67
##ersey
drive
production
purs
memor
magazine
##vin
partners
herself
cas
lic
##oval
actress
fal
jump
rare
##aud
##onald
putin
ordered
aim
jersey
kr
##acts
##imum
##ulated
li
hopes
rates
imag
option
natural
pic
physical
##time
slow
ww
##arian
tough
method
entr
wel
older
richard
disappear
##fort
partner
##fect
institute
rescue
complex
clearly
candidates
adj
##going
launched
78
caught
updated
normal
code
none
positive
amazon
300
opportunity
meant
obv
sad
jones
teach
join
exerc
limited
mand
##bit
ash
attend
pakistan
oly
constr
pictures
powerful
leadership
kelly
bay
prosp
critical
neighborhood
##jected
##igned
signs
homes
insurance
olymp
rand
analyst
penn
breaking
piece
language
##anch
spot
##hner
exchange
concerned
rod
##cing
##eller
publicly
continues
reform
##iance
proced
pulled
##ania
parties
apolog
max
newspaper
##onn
comed
user
##aves
##37
thanks
carr
platform
dre
fans
consist
directly
authority
prompt
findings
thomas
conflic
highest
nas
anonym
determine
tor
##erem
passengers
ton
measures
mobile
pap
joe
choice
59
##oted
survey
##enses
circum
corn
##omes
carried
##olf
##ifying
status
airlines
harm
que
tick
crawl
quarter
starting
https
ocean
##iled
##aked
placed
decade
opin
sar
wait
broke
canada
affected
intended
finding
standing
##anda
otherwise
farm
lake
unp
lay
##12
struck
nearby
debt
square
ensure
##craft
built
highly
##phone
ol
##set
##iny
sam
alb
cars
ruling
##elled
expand
suspected
##ulf
shortly
suffered
degree
gaza
##osh
greater
funding
completely
##kins
club
##ferred
profile
raise
necessary
rid
##wr
reflect
sentenced
##arks
##aded
haven
various
foundation
##ument
agencies
counsel
systems
mac
##ingly
removed
activity
##ager
hair
##ption
##iling
tra
feed
rule
##men
meaning
beginning
carrying
cab
##ustr
amend
modern
audience
items
afghanistan
der
rog
worst
##ucture
surveill
mir
writing
rain
monitor
football
nomine
proceed
limit
##others
suggests
custody
scheduled
85
##ront
afp
morgan
wide
protection
atlant
chec
smart
ram
rough
##ounding
expert
warning
computer
sale
##eg
plant
apartment
heavy
assess
serve
camera
##estic
surveillance
##iger
enj
aware
bond
##ota
##ador
eyes
improve
challenge
69
ach
mix
save
programs
guardian
##west
ali
##ears
lines
ariz
convicted
organiz
absol
##iated
chap
##ze
##aped
2006
policies
lu
sports
##que
parent
##igan
jackson
african
56
termin
signed
react
##avan
##ension
supported
committed
magn
wish
adds
seeing
##essions
conducted
##field
remained
thinking
hasn
##astic
politico
pair
tay
##iring
aircraft
connection
culture
##ika
standard
honor
##igar
active
##ictions
skin
initially
turkey
germany
royal
chann
##emb
www
cold
##ror
controll
##andal
agent
##oving
lawmakers
australia
knows
##ufact
cath
##iot
##da
reasons
ford
##oking
manufact
register
##erate
shock
truth
refused
assistant
practice
hurt
##ero
conclud
ec
sort
##acher
explained
tests
restaurant
options
familiar
##agues
tweets
athlet
minute
moon
massive
brook
planning
observ
##82
beat
stuff
environmental
fully
unit
critics
bern
fine
##och
##uate
surface
iow
mostly
dollars
eat
##itude
supposed
##aham
##608
stra
responsibility
warned
tool
ministry
voting
movement
activities
ign
arab
appearance
sem
##ym
faces
resources
eric
pac
##iced
##ube
appoint
2005
unclear
05
kick
seat
spl
appl
equip
vari
legislation
jury
easy
loved
shel
directors
osc
iowa
parl
andrew
unus
operating
##arters
commit
epis
reality
crimes
cigar
##ids
scen
effective
conversation
##gl
##uana
unrest
##ikes
dogs
indian
sor
sought
bridge
facing
##onna
opening
occas
separate
01
##atively
estate
willing
believes
approved
rose
usually
capit
watching
domestic
humans
larger
designed
delivered
##mas
##ef
agents
##ijuana
##aries
businesses
devices
gal
kidn
awards
pow
##ano
##inger
swift
dozens
stars
originally
74
jul
prince
syn
##iami
mccain
equipment
##ieve
strength
owners
band
##owed
##tsy
colleagues
mile
onto
haw
overall
malays
waiting
##encing
obtained
##apping
##ha
##iment
evac
rally
##oses
establish
##64
##enger
fourth
faith
sick
emer
factors
71
##rich
##oles
##eline
spring
perry
lady
##egr
##rey
##ifer
fellow
facility
##oul
surg
challeng
dropped
##burg
freedom
ts
perfect
participants
religious
##night
##imin
attempted
expressed
miami
winning
eastern
academy
##inson
champ
marijuana
planet
investigating
covered
singer
##84
##24
fresh
peter
extremely
parliam
fuel
write
sanctions
steps
failure
categ
du
mort
resist
daniel
cia
##ius
##eled
acting
consult
helping
cities
jr
##lec
affect
complaint
parliament
astr
internal
hate
assum
politic
##ches
hero
places
chron
africa
kil
kavan
##aa
clim
quality
joined
testing
announcement
bail
##town
##33
adults
presence
boys
benefits
rang
##agon
##ledge
##otted
attract
length
selling
simple
##oked
admitted
##orted
victory
kavanaugh
77
rick
##ibution
assad
earn
##ression
ultim
las
sentence
anc
scal
identify
vehicles
funds
##ander
arms
195
object
taxes
kh
contain
straight
##ena
personnel
congressional
##ighter
writer
##enty
span
developed
cuts
bloomberg
false
coach
investors
harvey
amid
occup
sudden
samp
features
possibility
222
focused
sympt
nasa
style
worse
severe
repeatedly
circumst
mental
##sey
boe
palest
nomination
warr
involving
regarding
round
spir
plus
india
##ios
autom
02
cy
famous
everybody
putting
britain
drinking
##oma
##eted
arizona
taylor
exclus
##board
##uted
proposed
ultimately
##load
negative
sitting
##lig
walking
##815
assets
flu
dismiss
98
etsy
spend
feb
reduce
doubt
67
bure
manh
belong
confident
largely
discovery
colorado
laugh
##ulate
indeed
walked
privacy
protests
##outh
##eland
##irt
weak
2000
insist
innoc
santa
99
pope
whate
commerc
whatever
unkn
difference
##agram
##cow
offers
walker
##zz
##utions
consequ
window
successful
collection
##cription
##elle
##otten
streets
influence
org
owned
communications
dozen
##usted
brad
##azi
authors
##ipping
penal
nominee
complic
medicine
reaction
knowledge
generally
##isher
integr
christmas
scandal
entered
motor
400
links
##po
##pts
neur
coal
sav
bear
attended
##standing
declared
lose
##anced
harv
argued
luck
wedding
keeping
##35
depart
nick
steve
solar
basis
discussion
tempor
prepared
luc
canad
player
##ills
##iful
serving
afford
pregnant
ale
lind
row
glass
palestin
##oned
flying
##works
unknown
batter
##ga
truck
##unte
##gry
background
volunte
jenn
##itation
##icip
fraud
wer
winter
feeling
cerem
##utely
michigan
machine
healthy
violent
terrorist
pra
liberal
65815
hang
##ici
crack
suspic
658152
eg
##0s
anton
substant
64
fake
##sen
joint
polls
memorial
ped
##ois
guest
explain
recorded
prosecutor
dad
weapon
prospect
opinion
ongoing
expos
##izes
elected
deadly
tab
warm
injury
embass
alive
##ivity
scale
strike
guid
regional
amendment
possibly
princip
ded
##oe
alert
threats
sides
sessions
##berts
myself
regime
asp
altern
trig
footage
moscow
ring
##aid
strateg
explains
votes
ambass
fest
##icop
investment
estimates
les
##xim
##ansas
elections
younger
benefit
ble
divers
##ez
stol
outr
escape
commercial
jim
##iters
remarks
instagram
digital
adviser
pilot
##inn
criticism
bottom
iv
##mates
##gu
##uties
##ament
autop
rebels
##respond
unusual
66
aggress
qual
surgery
fif
eval
cohen
correspond
activists
professional
bought
##more
suspects
produced
##east
##gment
apply
mont
##onents
spect
funeral
assistance
incred
roberts
purchase
anthony
##19
coff
decisions
seriously
warn
providing
electric
speaker
conflict
contest
affil
title
liter
##bel
sequ
compar
newslet
classified
giant
##asts
##awn
devast
navy
broadcast
##bola
punishment
unless
grab
potentially
fash
lew
appropriate
affairs
absolutely
##cer
signal
missile
conclus
tech
disaster
confront
calc
christie
fatal
73
eating
tens
##ushing
league
founder
jen
somebody
happens
##mar
##reek
flint
captured
english
christian
circumstances
##ucc
joseph
capitol
62
##osis
slight
guns
threatened
consumers
mueller
fashion
bull
dun
neither
##iber
views
immediate
divor
roughly
becoming
pattern
books
proposal
##gs
##ategy
presented
strategy
double
wounded
##eda
retail
sharing
moments
deeply
ow
##dd
listed
dur
##isan
##icks
##abor
moore
davis
wake
suppl
skip
subscrib
twice
150
gallery
gang
##ula
##ews
movies
mcd
australian
gives
##uated
##isters
##abilities
emp
relatives
columb
ruled
pregnancy
stolen
##well
teacher
located
faced
identity
symptoms
comfort
rebel
surprise
beautiful
cosby
notice
##odes
diet
vul
unable
tested
rush
grew
standards
tonight
88
qa
cry
2004
misc
corporate
software
63
ox
##etts
##antly
cool
palin
##pm
##usion
teams
enjoy
08
cd
##water
flow
##ucks
canadian
jord
noting
2003
ebola
##ept
adult
helicop
##umn
##uments
diss
sky
targeted
channel
nfl
zika
##62
##uses
accur
##bing
provides
specifically
661
bat
ly
valley
kat
summit
mountain
nut
##eas
resign
harass
interests
dall
implement
veg
england
sac
##ba
talked
pin
yout
dress
actual
obam
passenger
raising
mall
urged
astron
##14
##ector
pled
braz
compr
georg
sorry
weren
embassy
bath
py
heat
banks
malaysia
hor
narr
intention
##quir
counts
promot
ambassador
pip
##born
##lets
gard
##ashed
advance
murd
suffering
lie
##oring
embed
##olic
investigate
directed
performed
emotional
spotted
headqu
figures
witnesses
kate
lock
##ban
##pped
##mann
illness
sending
deleg
greg
smaller
##ruption
edward
voted
ted
##erous
waste
filled
07
saud
tru
quiet
depl
miller
increasingly
exercise
##vant
thinks
##atures
tow
remove
attacked
transition
widely
considering
oscar
03
bin
jess
map
##adel
wealth
involve
dar
vent
##iders
recru
pointed
neighb
surviv
recommend
rank
paying
interviews
winds
representative
jordan
##oz
advant
nice
##hr
##itely
causes
rum
cham
speaks
youtube
##ih
brian
decide
##atern
japanese
##eld
prices
approval
panel
661608
##order
##ulations
graham
supply
breath
holiday
comedy
##lv
markets
complain
terrorism
##holders
organizations
dallas
duty
gh
ride
##ini
draft
pushed
condem
risks
holds
babies
understanding
picked
highway
##othes
requires
##aska
springs
##xic
unique
##istics
2001
##ologists
threatening
controversial
yah
##isf
##reh
allies
archae
referred
04
##house
##roit
fol
##coming
communities
explosion
vacc
##arant
stood
clar
consp
interested
episode
##upp
stret
sust
barb
shots
scientific
approxim
micros
guys
vulner
jay
##hab
##erse
weigh
##abeth
coord
differences
hoping
##gen
##ican
##uther
bitco
catch
fisc
vig
##ppo
headquarters
##ta
belief
kenned
fan
traged
##ections
typically
runs
dispatch
unfortun
##63
whe
##utation
harris
disappoint
aleppo
ray
##ua
stab
controversy
cart
gain
##iev
stands
detroit
##timore
kiss
tan
##itory
proud
remaining
turns
closer
traditional
##onnell
forest
centers
##phia
batt
master
##oh
##person
##issions
cyc
hen
##bl
##utch
prove
##achus
testim
domin
##654
kennedy
##ship
spons
nobody
sexually
attorneys
massachus
losing
consumer
baltimore
911
##22
##eding
##rees
uses
worried
2002
kevin
entertain
massachusetts
##com
##ker
##ining
frustr
relatively
charles
philadel
temperature
emerged
bureau
obamac
shr
enr
payments
setting
publish
surrounding
gathered
weinstein
obviously
fiscal
obamacare
##ca
youth
leads
route
saudi
angry
allowing
trouble
controlled
ceremony
##anged
93
lob
##apy
therefore
##77
brothers
feature
subsequ
seconds
promin
jur
##astr
virt
honest
existing
##hal
##ched
outbre
managed
towards
castro
##kin
philadelphia
drew
tree
prize
craz
happening
libya
rapid
favorite
tol
novel
worker
dinner
sarah
album
84
thus
##eness
austin
bringing
georgia
ny
##oft
secure
underst
militants
promised
causing
matters
granted
jac
mitt
##lan
corp
values
advertising
festival
citing
pent
zone
##how
retr
scar
headed
facts
vegas
bell
suc
repr
fighters
epa
hid
joy
yell
alab
ads
sharp
globe
warrant
yahoo
##iner
dram
bigger
##outs
##agan
amounts
marc
approximately
hat
na
stores
##acted
assemb
suspended
customer
utah
transportation
dou
##rial
##bon
##actions
interv
##oves
prep
direction
visited
##inct
eliz
1996
purpose
testimony
ties
##13
italy
developing
changing
##mark
chain
spokesperson
brazil
daugh
math
vast
##life
clark
##afi
800
##mate
fees
securities
winner
superv
instruct
session
task
blast
airline
construction
milk
zoo
perman
concluded
isol
##athan
##attan
mcconnell
ru
##itors
imposs
barr
experienced
##dom
##ala
##idency
##iban
infr
disclos
liber
harvard
jennifer
sounds
##tered
##place
instance
taliban
alabama
09
lit
electron
stephen
initiat
##can
forec
confidence
continuing
solid
copy
cells
76
bon
eld
hell
fred
accomp
backed
olympic
daughters
fit
mouth
##ias
##ogen
registr
probe
numerous
completed
requests
closely
immigrants
traum
elizabeth
era
hay
josh
##fall
##ached
profit
acknowledged
cdc
ho
wing
chick
spain
resol
blame
films
rising
journalists
##ibuted
imagine
dream
eu
stan
receiving
boehner
tragedy
allows
argument
mans
nev
seattle
contained
laur
##sylv
display
matth
introduced
pennsylv
advantage
##alf
interp
flights
pool
claiming
girlfriend
ka
##dy
newly
smoking
supporting
petition
easily
surprised
ic
stated
forg
##opher
drove
mrs
produce
samples
manhattan
theory
celebrity
wik
evolution
replay
snowden
recovery
pennsylvania
hired
wine
##va
##using
alt
wright
genetic
heads
advice
gamb
mitch
##do
##lyn
zero
minimum
investigations
discl
damaged
function
choose
recovered
jewish
cited
##ela
##echan
impossible
##head
##orders
feels
connected
revolution
survived
creating
village
exposure
va
##lights
types
discip
install
simpson
significantly
unlik
established
##fire
stick
emph
searching
##ocol
aband
exposed
marine
satisf
##73
buzz
##phere
marketing
encoun
diplomatic
hamas
##iations
surge
civilians
birthday
destroyed
applications
charlie
anonymous
hamp
expenses
unlikely
tight
##acing
turning
jong
rif
##aling
outstanding
defe
truly
jam
lands
surprising
ancient
##pper
sport
client
relative
apart
senators
learning
referring
variety
bacter
core
neck
wear
##ries
##uations
rein
behalf
incidents
dating
##icient
##illing
worldwide
finds
physic
balance
achieve
worry
earned
swed
contacted
indicated
gender
mechan
##55
##ounced
analysts
offensive
protected
bills
factor
apparent
gotten
##ete
atm
prohib
smoke
percentage
charlott
louisiana
detailed
catholic
pist
wire
##aug
studio
buildings
silver
criticized
settlement
pacific
bes
dim
vest
endors
boost
engaged
buried
patrol
qaeda
bol
forth
delay
shutdown
##7884
select
split
consequences
##elson
disney
pleaded
predict
tunis
mut
##chester
firing
estimate
antonio
82
tall
##ka
##icated
infection
boat
finish
interesting
describes
updates
sample
wisc
##79
reward
strange
hospitals
basic
807884
heavily
random
tiny
##omb
beij
allen
shouldn
windows
discussed
trading
laden
beijing
dub
fer
jet
tort
##empts
memo
refugee
61
83
##ington
beer
reputation
score
journalist
golden
sweet
pounds
##ading
falling
treas
nato
adopt
##rim
##pet
withdr
##eme
harry
realized
artist
meetings
firef
amazing
license
600
ven
##aver
disorder
weekly
equal
represents
generation
division
definitely
crawls
hawai
06
liqu
##cious
##iking
driven
##ields
queen
cyber
anger
stun
elsewhere
entertainment
anch
##elines
##ounting
unn
attempts
greatest
error
waters
ech
ging
plot
##onsin
suggesting
christopher
application
frequently
wisconsin
native
##thy
appe
transl
anticip
birds
comprom
ron
tast
tend
tip
##sp
##ko
##44
rejected
##ops
sandy
conservatives
consistent
kilomet
load
branch
myst
courts
puts
interviewed
positions
behavi
recalled
slightly
mun
inches
fratern
informed
missed
solution
robin
answers
regulations
spirit
tony
##ionally
shift
column
satell
250
ideas
##wal
##isa
marsh
boyfriend
distance
challenges
emphas
kur
##inder
brut
resolution
presidency
buc
oblig
highlights
wildlife
##mon
##alian
repeal
plastic
journey
palestinian
cha
guess
download
handle
crashed
historic
lying
merc
##icts
debr
decre
household
listen
observed
cabin
fda
fisher
spar
fled
strongly
motion
prompted
han
tar
vet
##agic
incor
impress
viewers
avenue
joke
##ouch
enem
##ogue
iranian
cultural
veteran
registered
conspir
dial
ip
##atically
alaska
adam
##ennis
fifth
gingrich
index
spoken
switch
facilities
equity
atlantic
ba
oak
soph
##otes
drag
##onduct
testified
models
practices
citizen
##reck
microsoft
sir
grown
buff
structure
ell
edge
swim
leaves
unlike
recognized
spanish
kerry
##equ
##illy
noticed
hadn
breast
extreme
combined
degrees
historical
procedures
rival
##iences
apprec
stress
letters
rocket
commissioner
penalty
prominent
##90
reference
cru
##izz
retired
opposed
dyl
pence
##75
bright
explan
questioned
motiv
krist
lewis
element
revel
##ulous
deputies
filing
gunman
distribution
mentioned
cigarette
##har
##box
conce
drivers
killer
locations
producer
##shot
targets
jason
##tv
abb
upset
patri
maintain
salt
##whel
fears
mistake
fet
tam
##ucing
mcdonald
##ties
inquir
officially
downtown
memory
##apper
##ucker
orders
misconduct
appeals
jer
##lad
##oria
##acity
##eman
province
transm
illin
imprison
loud
destroy
minority
fo
ye
##ket
recip
thoughts
entirely
debris
illinois
lav
tied
##care
##point
thir
unex
recon
##iates
depos
funny
escal
adopted
cord
desper
handed
clinical
refugees
welcome
scenes
pentagon
gulf
andre
##amin
poison
##ahu
69823
earthqu
##orrow
rubio
maximum
athletes
battery
coffee
cup
huff
##de
chest
longtime
##shire
cutting
banned
politicians
loyal
##onent
whit
stew
blank
totally
negotiations
dylan
mour
##iable
##agement
exhib
print
clot
drunk
competition
outbreak
crazy
cards
holder
basically
94
##38
gray
becomes
portion
maryland
category
nevada
##ece
embr
blow
defic
uncert
communication
chronicle
cats
##aken
##ables
graph
anybody
songs
requirements
sensitive
gm
##greg
##icial
##oster
gross
accepted
biden
bullet
wash
manner
92
##illed
##enda
overwhel
relief
tea
networks
divorce
bitcoin
bapt
##kel
theft
height
justin
authorized
excess
collected
innov
commander
extraord
pit
##oner
##entions
italian
colon
stayed
flynn
bowl
outrage
toll
nsa
disag
metal
innocent
89
aides
nelson
vision
##hone
##ani
##athy
yourself
reduced
representatives
entry
##nd
shape
##ouri
shark
michelle
weiner
complaints
##ils
##ulty
assert
snap
terrible
1999
closing
inspired
symbol
##inations
##ito
offices
##ancing
suburb
##ahl
posts
relationships
cauc
cardi
telep
tools
sacr
ger
##racy
carl
remind
goods
antib
alongside
mexican
package
tribune
housing
coalition
wave
##ales
comey
##under
projects
##active
guarant
shooter
violation
##itzer
prayers
assessment
helicopter
harassment
todd
acts
string
depend
activist
87
dick
nurs
oreg
wides
##oj
##cl
##gar
##okes
implic
##veland
lots
cops
tact
##pread
wars
governments
extent
landing
cleveland
woods
stewart
oregon
mas
##gers
##otic
##ective
bron
carter
prevention
executives
rolling
newsletter
migr
##yang
personally
concert
extended
homeland
exclusive
neighbors
gut
gonna
pushing
tm
##usal
spin
conte
schol
retire
soldier
traveling
racial
widespread
boss
gi
##apol
decline
preferred
indones
embarr
accusations
survivors
bacteria
embarrass
81
kus
sight
toxic
asia
indiana
centre
occur
hunter
disturb
fighter
##nam
##ita
##eston
grass
belg
##rupted
ticket
pyong
vlad
stem
maria
strip
minnes
judges
struggle
700
pump
concent
##ocal
empt
##argo
datab
returning
equival
alternative
##66
##itarian
relevant
transform
##affe
combat
mine
pel
strikes
knowing
territory
dollar
shopping
insisted
bound
cable
##mond
inapp
tob
wells
elig
addressed
requested
pieces
diagnosed
adjust
infrastr
dil
lin
##uits
##idated
orange
##ogan
blamed
warren
ending
indicate
renew
fant
tes
highlight
lam
shif
tragic
##aware
concentr
##ato
handling
passing
promise
burning
mystery
minnesota
ingr
plenty
cruc
buying
calm
explo
begun
aimed
punch
##esus
forens
containing
hunting
verd
methods
cow
finger
ire
##ieved
meat
##000
follows
larry
independence
ukrain
accompan
gil
tear
anderson
##ompl
drama
struct
legs
describe
disappeared
columbia
matthew
lunch
##acc
seats
##uster
intense
conviction
entit
entering
cameras
dismissed
conspiracy
context
cave
##ien
expensive
##iani
preserved
##iveness
references
materials
flooding
unfortunately
hidden
aide
gag
kir
zimm
##fe
theat
outcome
accompl
overnight
parking
breach
regularly
hampshire
pyongyang
mit
om
haz
##avit
remark
defined
##ashes
failing
losses
conversations
tenness
hawaii
coc
mol
palm
hoped
complained
institution
infrastructure
nur
amy
expans
intens
apps
marked
increases
prisoners
manufactur
370
97
kenn
wage
##apher
consol
helps
iron
jonathan
elder
baptist
##rary
##lay
##anes
reid
ups
intel
hacking
detectives
clinic
corner
suddenly
pending
rar
##cy
##28
##idem
seal
serge
capacity
detained
legit
friendly
fewer
excited
rice
tamp
##nbc
stuck
moves
crews
egyptian
essentially
atlanta
lt
rs
##win
##imir
##ella
phones
##road
##ographic
replace
ratings
##emen
missouri
stepped
bang
##uous
##taining
shocked
chose
dealing
ages
##lands
headlines
greece
uncover
rescued
veterans
tmz
hook
uber
##gun
##bal
##esy
expense
bottle
alexander
teachers
vigil
clothing
ukrainian
dump
kansas
mamm
enh
brun
compreh
scan
writers
contrast
ends
researcher
opponents
commitment
da
jun
pig
rail
##ario
inaug
trend
##umer
provision
plea
reasonable
precise
obvious
hug
lane
mah
rating
frame
overt
forms
musc
epidem
papers
aggressive
86
ross
##aire
captain
fallen
represented
measured
radiation
reviewed
patrick
vladimir
tesla
locked
nic
rig
stable
infected
plays
parker
scalia
withdraw
kushner
##lo
##lying
alter
temperatures
constitutional
wilson
substantial
assembly
gap
lev
susan
homeless
radar
terrorists
cuba
henry
encounter
nancy
##row
bever
shirt
sean
soccer
##owski
drawn
begins
applied
cock
ri
upper
##maker
marks
visiting
landed
houses
vulnerable
pitch
suther
vess
##zed
thor
##acle
grade
invited
planes
arrive
golf
npr
tiss
##acement
##acco
##acters
depression
##erves
sellers
hunt
persons
zimmerman
bart
niger
pm
tears
##etime
forget
aside
doors
aged
flat
finished
reads
heading
characters
southwest
employment
bombs
##ography
struggling
stretch
##uts
presum
##ixon
##phones
realize
judgment
yellow
satellite
uncertain
tennessee
ug
##apse
accel
perce
interior
roof
120
violated
##annon
resulted
checks
tap
##31
##osphere
concept
##enders
fla
##athers
##rators
jackie
escaped
delivery
tomorrow
islands
dispute
tiger
##feed
grave
##aws
featured
bedroom
lucky
##iser
units
insider
transpar
raid
optim
paint
primarily
cameron
subsid
monitoring
sutherland
gate
##war
pron
##iform
quoted
skept
pleas
collaps
hackers
ta
##orum
proof
fundra
canceled
medicaid
extraordinary
deals
##ords
teens
iraqi
regardless
principal
sed
clients
##aved
remote
viral
guidelines
mh
anx
prost
shout
##ulating
deem
bars
palace
recognize
flee
powers
bathroom
permanent
iphone
##wan
##uctive
apology
plants
courtesy
charity
combination
tobacco
nar
pod
wag
seized
annivers
##ographer
casual
fame
icon
kent
sued
transfer
promote
felony
racist
opportunities
hiv
hamm
tone
uc
##ports
##49
##osen
chel
files
##anny
technical
iii
##arch
##tery
sees
##abet
craft
amp
##licit
turner
screening
scrut
involvement
jacob
disclosure
dod
hitting
plaint
evol
soul
engage
portr
websites
purposes
guests
electronic
gift
gym
ps
##laim
toy
rehab
neut
pharm
##ileaks
investigated
medicare
predicted
dol
vatic
##eration
agenda
anywhere
finance
healthcare
payment
announce
damages
diseases
vatican
cair
fault
tank
habit
##sea
##away
stockholders
institutions
destruction
permission
wikileaks
telephone
experiment
stronger
prosecution
traveled
therapy
unpre
ty
##inction
##rep
chuck
exceed
hills
##ettes
documentary
supplies
anniversary
##eling
uniform
##ishing
founded
capture
##onto
##iffs
collins
replied
ridic
inappropriate
sets
blind
##ippi
teenager
demonst
beauty
deficit
bip
bach
hu
hits
hole
mph
rab
##ola
##uls
trick
enl
medal
effectively
hung
enroll
ferg
trained
strang
1998
airstr
recording
jane
turk
ballot
examined
priority
ambul
purchased
kidnapped
dying
ga
greek
hart
lies
wolf
wreck
##lah
dressed
starts
olympics
integrity
literally
auction
##29
##era
##osing
clothes
schumer
survival
necessarily
succeed
interpret
firefight
##stone
##osa
somehow
confirmation
echo
fraternity
yeah
##ardash
outc
flash
##aze
steven
nationwide
wonderful
procedure
shelter
verdict
dust
trem
##stre
##employ
speculation
advanced
viet
complicated
volunteers
conclusion
chamber
sisters
##oard
thick
##rets
unw
bruss
prefer
contains
desire
conservation
survive
dedicated
faster
inmates
##imer
##izza
assigned
maine
constit
##9582
toronto
temporary
jessica
unexp
ax
bird
kardash
porn
##erce
##uson
##ibute
##graph
##raid
##ologies
legend
northeast
restrictions
astronaut
lyn
nazi
##my
##erts
##inem
##ilit
##ials
##troom
courtroom
affid
visits
viewed
scientist
consumption
bombing
rely
zucker
threw
##isation
##cher
fee
impl
##ucted
russell
netany
reaching
prayer
dyn
torn
##sc
##wa
theater
toler
##lee
saved
drone
indict
mississ
representing
briefing
earthquake
unexpected
netanyahu
rot
afterward
howard
106
formed
execution
reviews
659582
surrounded
gad
wis
##een
##pa
##50
unemploy
ark
infant
democracy
roman
robber
visitors
##rell
explanation
cul
##pass
##omen
##abled
anymore
awa
bankrupt
brooklyn
liquid
database
upcoming
legislative
odd
appointed
forecast
diam
##news
##80
##itable
##ashing
stead
hem
crying
manning
publication
engagement
jean
peaceful
sleeping
jumped
roger
wheel
kilometers
chelsea
ay
pink
##arge
outs
scot
possession
judicial
resulting
approached
odds
registration
##apolis
dance
ward
##16
studied
arrests
collabor
normally
caution
traffick
acquired
empty
hub
##mart
##illa
uncon
throw
capable
everywhere
formal
##erties
##cedented
sentencing
extensive
##ompson
##flix
##addafi
initiative
unprecedented
mississippi
ramp
thompson
weird
##iating
provisions
stream
netflix
grounds
collapse
recognition
psychiat
##eva
pulling
diagnosis
##ihad
jimm
##xual
##47
##icut
autism
articles
trees
symp
expansion
ferguson
rural
##bury
##ila
trapped
##oded
afraid
actors
myster
description
delete
##bridge
gathering
diego
religion
photographs
defendants
connecticut
suspicious
gained
ment
som
zeal
##state
##ctic
exit
sheet
searched
administrative
experiences
encourage
advocates
syndr
subscribe
folks
az
forb
phen
supports
laid
importance
radical
staying
attempting
preparing
partnership
apologized
cous
fate
##lings
##igue
attending
desk
elimin
probation
snip
keeps
library
graduate
disappearance
gig
gary
sum
##areness
priest
usual
scores
corruption
##strong
limits
responding
awareness
tracking
oklah
anonymity
earnings
forensic
dc
gest
ronald
commerce
regions
readers
operate
moh
falls
couples
arguing
easier
circuit
praised
syndrome
fought
sons
##ilton
##ivals
aboard
outp
cra
guards
legally
overseas
##agraph
engineering
zuckerberg
hans
jesus
pock
##hi
##27
1970
objects
1990s
homicide
successfully
essential
chapter
reagan
enth
reserve
somewhere
authent
arrang
demanded
demanding
subsequent
prepare
nurse
raw
sin
sid
wounds
##lers
##inating
##etr
##ima
carbon
obtain
##ifications
playback
experim
harder
assaulted
santorum
apologize
champion
dramatic
rifle
tag
wins
##39
##ata
forever
190
campaigns
mck
cease
elev
kidnapping
cu
gon
peak
universal
visible
announcing
thousand
cannab
properly
baseball
mountains
drawing
hydr
reprod
rarely
665
bash
holl
yard
##ria
##artisan
agric
passion
1994
armstrong
argue
generated
participate
silence
pakistani
intervention
affidavit
agricult
jihad
rav
##otyp
invas
##enson
transpl
affair
aviation
illustr
recommended
incredible
cabinet
lion
tack
##cia
stom
##agers
##ibr
detected
covering
blocked
dates
foss
flex
hatch
##uable
##inals
##anth
shell
chosen
sov
emissions
discrim
mete
celebrities
extrad
biz
##yer
##jo
##omy
seed
depth
questioning
basket
protecting
cigarettes
trigger
jimmy
craig
unve
##antic
cloud
anyway
typical
consent
posting
providers
slide
returns
performing
substance
muslims
rogers
arabia
resistance
bunch
##nic
abu
grace
drinks
moderate
violations
damasc
personality
abandoned
oakland
imprisonment
hong
thin
##oral
forum
asks
leaked
busy
excell
seller
foods
breaks
acquis
sparked
latter
##oen
##cience
shame
chase
outlets
cruel
grav
knife
demands
signing
electr
telegraph
persp
jews
alien
kicked
establishment
intellect
comprehensive
collapsed
damascus
##rison
##21
##ari
##arthy
accounting
knox
##phy
shootings
deadline
##what
oversight
turkish
mothers
##pan
##oric
##isp
reun
trillion
suv
kingdom
cairo
dement
##igation
clock
likes
dece
striking
thrown
companion
killings
classic
discussions
unsupp
advocate
proceedings
##stream
gill
linc
##bus
##85
residence
dish
owns
slam
130
mccarthy
err
volume
islamist
perceived
oklahoma
hiding
pizza
##pro
##arre
stor
##ami
hey
##estyle
dean
exempt
mars
somewhat
illegally
lux
unsupported
bish
sib
tb
##uan
buyers
serves
convin
addresses
roads
raped
advisers
restaurants
equivalent
dated
lap
##sl
##mont
##ii
##oln
##ouring
resort
overd
##olds
useful
stev
bottles
rosen
counties
ranking
ireland
aer
fields
##rence
##nc
##elet
disrupt
##awa
preced
arrival
fairly
script
madison
explosive
expanded
bernie
murdoch
sits
##ni
##41
leon
adams
##izon
scared
##athon
deliber
midnight
robot
ethics
flew
accurate
eligible
neutral
ak
gab
jerry
##mother
##ati
bears
##uration
button
acted
guide
describing
processing
detective
submitted
mixed
challenging
cruise
antibiot
stomach
sadd
vowed
ster
parks
handful
privile
industrial
encouraged
pursue
entrance
crucial
uncovered
lincoln
lisa
##bell
beast
edition
northwest
ranging
deploy
anchor
firefighters
brussels
convinced
couch
gif
kong
lists
pill
##vent
##olit
defended
veget
sugar
salv
humanitarian
affordable
autoplay
devastating
tensions
trauma
nich
pier
wound
##father
##look
##gle
##boy
seoul
enable
phr
infants
##afe
constant
incredibly
garden
murders
##hran
96
##gi
chances
trop
liked
caller
##opez
associate
barely
walks
voter
denver
liability
autopsy
rushed
resignation
zealand
dementia
borders
cant
lun
##ns
##agen
facial
civilian
domain
protective
opposite
laboratory
bie
cogn
fasc
tie
amended
referenced
nominated
targeting
settled
cooperation
adjusted
ipad
deemed
665654
lopez
md
mock
wy
shed
##iller
addiction
belt
minim
gunshot
arguments
towns
audio
philipp
unfair
##uzz
narrow
91
cem
gear
nass
reven
alan
##ested
brings
fires
quant
broader
carrier
##ucci
tissue
enthus
##mo
stations
shad
##osexual
##ensus
appearing
skills
painting
##ophy
tourists
routine
chemicals
bleeding
correspondent
oxy
scrutiny
ott
##rid
##fund
##icing
prol
##acked
proved
assange
populations
antar
responses
boxes
catal
atmosphere
pere
tips
##mes
##tle
##urity
incent
dry
eman
irma
overwhelming
meteor
bone
tape
##irts
oldest
jeb
##iques
respectively
pilots
understood
chicken
bp
dutch
##ss
russians
explor
topic
valid
funded
creative
hyper
champions
defeat
tail
##iety
##uto
##ocation
lawrence
donors
editing
hospitalized
technologies
walls
unders
recalls
charlotte
entitled
consolidated
soviet
dawn
eag
fid
gent
kas
kitch
nerv
waves
##esa
resigned
##eping
agreements
schedule
scholars
roles
##fit
##armed
donations
instant
passw
sandus
dict
gib
##42
##esc
##ifies
abroad
detention
holy
organized
exclud
profession
trials
editorial
prospectus
rumors
demonstrators
bump
rivers
##isons
##adium
##iaz
compound
manchester
childhood
universe
burned
engineer
franklin
watson
patterns
deployed
wealthy
disappointed
gaga
loving
tas
herald
amanda
imposed
politically
advised
##ucky
solutions
penins
trailer
confidential
cycle
rapidly
inquiry
bieber
creek
gains
yemen
##pay
##inate
ships
spy
lean
partisan
justices
presidents
##ollo
legacy
maintained
pastor
permit
delegates
kardashian
authentic
bones
gaddafi
hij
nose
roy
##iary
##ls
saint
goals
courage
apollo
smile
subjects
##985
cleared
existence
okay
frequent
##iciary
comfortable
jav
inher
##icious
andy
stadium
enorm
twin
judiciary
cuban
cass
foster
vital
##hd
##lie
##real
##osition
chat
chan
contacts
##roid
releasing
sixth
##anne
silent
jerusal
cannabis
jerusalem
##ingu
##iti
saving
conven
brands
bruce
timeline
prescrib
perpet
flowing
followers
carefully
controls
kinds
biological
##ycle
elements
warnings
recommendations
supervis
basketball
peninsula
825
bun
hann
um
##hor
##asia
ally
##ighth
##ortions
phoen
advent
staffers
medication
declar
rhet
incorpor
ker
pd
##hs
##chi
cliff
brid
manage
intent
##owned
tehran
conscious
infl
##riers
extend
improved
verify
psychological
joining
guidance
devastated
sustained
barbara
discrimination
phoenix
lord
##pe
##gent
##wich
##ora
stup
frag
20th
##oured
polling
firms
1960
deport
desert
##uctions
supplement
proven
elabor
harsh
runner
moham
murdered
distinct
featuring
tickets
assumed
fab
nash
##hy
##itis
##oto
murphy
screaming
cellphone
briefly
diplomats
defendant
comparison
enemy
intellectual
gord
hud
naked
##math
##gt
##iro
phase
165
glad
skull
situations
solve
replaced
crossed
fortune
struggled
bags
slowly
shocking
hanging
dougl
indonesia
sandusky
817
sector
vert
wore
##oat
##isms
notor
attached
poster
endang
archived
portra
reveals
corporation
covers
##iere
prelim
infections
retal
##enna
hearts
suffer
##heimer
lifetime
frequency
horrible
eleph
brooks
tsar
strategic
behaviour
brutal
bankruptcy
mohammed
kal
reass
2020
##ectors
grate
timing
evil
blocks
quotes
backing
congressman
moral
answered
horror
buzzfeed
retirement
sams
toky
trucks
##acks
##iano
interf
underwr
classification
listening
executed
badly
conducting
squad
selected
vacation
heroin
##abetes
gonz
dave
jokes
nest
nixon
##aying
##iration
repair
##lick
preval
classes
mainly
1997
lawsuits
treating
hopeful
settle
cubs
unemployment
bench
pose
vs
##here
##mel
forcing
##apore
##iki
percept
contam
warming
humor
musical
singapore
diabetes
flags
grabbed
diamond
samsung
tokyo
boot
dennis
gates
neil
reserved
marathon
reck
emoj
gene
missiles
talent
walmart
classroom
seemingly
distributed
##attered
competitive
touched
condemned
thorough
pronounced
preliminary
bou
diver
rounds
welf
##omic
##omfort
hav
##issa
teenage
garcia
cosm
farmers
departure
vaccine
bipartisan
perspective
welfare
hood
##onia
chocol
##anted
regret
genes
profits
distress
1993
awarded
manufacturing
appointment
edwards
bizarre
oxygen
khan
ws
##arms
safer
##identified
strict
photographer
opens
throwing
signals
holders
managing
melania
brewery
absence
checked
isolated
taste
robbery
ailes
fi
mood
rud
##eb
##iy
##orius
shipping
##isted
##ibilities
margin
##ova
theme
##atherine
confed
arriving
metro
certific
temp
berlin
galax
stanford
desperate
arkansas
bald
divid
lor
##bits
##zing
stamp
##pping
notified
newborn
##astrop
clip
studying
deserve
investigator
safely
excav
1995
mandela
prompting
indictment
##anor
conver
abused
adapt
aftermath
soil
invent
wrapped
defending
deleted
kidney
##force
waited
robinson
revers
customs
analyses
applause
ingred
overturn
kitchen
##88
congr
##iped
twenty
reduction
valuable
misd
tunnel
bernard
disclosed
pistorius
dow
dop
horn
rent
##aria
asian
##ivan
##apers
arts
intim
ourselves
seeks
handled
keith
##rete
extinction
feelings
indicates
consideration
premium
licens
magnitude
rsus
grateful
lov
lung
pure
beef
herit
signature
delaware
starb
promising
404
bengh
catastrop
chaos
elementary
huffington
caucus
dies
fm
morm
vit
yield
##organ
orland
phill
nobel
underw
defence
125
corps
145
##naev
divided
mosque
applicable
ethnic
rodr
elderly
tsarnaev
benghazi
bub
nether
vocal
alerts
notion
##udes
polar
manip
investments
lethal
particles
criter
debut
marketplace
1989
compete
arena
machines
linkedin
physician
pear
rach
sony
##die
##gered
##97
##aled
##oker
expects
genu
handgun
correl
taxpay
pointing
administrator
copies
massac
ern
rebu
tribute
teaching
tower
perez
rocks
tub
hash
interven
coh
##rah
delayed
180
reducing
hardly
ceiling
treasury
ambulance
nervous
711
posed
riot
toil
##ura
prote
##amental
##che
##aki
##aving
underlying
careful
musk
exciting
cambridge
examiner
legislature
voices
disturbing
##yder
##held
##aron
stim
sole
assass
flav
schne
skelet
##ushed
superior
accidentally
compromise
kay
bee
stake
##ipe
cole
obst
transferred
visual
volunt
##etta
alexa
##burgh
academic
kentucky
fert
lights
maps
ruth
inbox
shore
##usive
unh
brill
poland
##achment
steel
privately
uncle
circle
coastal
electricity
structures
enormous
stupid
starbucks
mate
taught
##pers
theories
##oning
##agu
spill
stressed
##rene
creation
irs
expression
dropping
examination
dispatcher
dialogue
inauguration
epidemic
championship
bitter
##dale
##inely
##alid
plun
param
slate
coroner
oppose
celebrate
approve
packed
landsc
netherlands
aqu
km
nin
sull
sgt
till
##mer
##acon
exped
donating
backl
##lining
engaging
urging
tracks
analyzed
merely
pledged
giul
accompanied
loves
rou
sink
tang
ware
##cott
##enz
trash
suic
administer
lowest
pollution
abbott
ridiculous
heritage
cov
eve
nap
shoes
clashes
##auss
meters
168
estr
southeast
involves
employed
periods
emerging
alleges
fortun
brady
sweden
wagner
outcomes
emanuel
douglas
gor
mud
riding
##137
##esville
##eli
##estr
unidentified
##enez
propag
raises
closest
multi
expanding
suspicion
owen
anxiety
vietnam
trafficking
rated
##fast
alger
##agger
exists
investigative
patent
explaining
millenn
tradem
martine
physically
restricted
jenkins
orlando
dj
pu
porter
##ooth
##34
thumb
reop
convert
##umes
##endous
plain
groc
quit
fundamental
embargo
grandmother
ultr
mosqu
ignored
legitimate
nassar
diaz
sinc
tent
##aping
assoc
scheme
transg
openly
expectations
fatally
crossing
loan
persu
citizenship
virtually
tampa
lynch
chocolate
criteria
murr
##asy
longest
transaction
denies
urban
##worth
parenthood
mitchell
transplant
817985
fence
hind
nu
tons
leak
##heric
statue
##ateral
paragraph
underground
inflic
modest
accountable
brotherhood
examine
garner
accusing
connections
carries
limitations
diversity
promoting
cemet
ml
##rum
##alo
trace
exha
meg
knight
##azz
##print
label
discussing
hosted
##comed
reconstr
manufacturers
bashar
cognitive
bannon
hip
ky
rall
toys
segment
meal
manaf
marry
160
1992
latin
neglig
replacement
constantly
picking
separated
madonna
cait
welcomed
enjoyed
conclusions
calculated
beliefs
resolve
sophistic
graphic
pound
uva
##bn
##bour
##370
alg
marg
requiring
##teen
booker
techniques
femin
philos
inspector
mirror
affiliate
sustain
dear
alliance
disg
interr
partially
cob
underc
depending
protocol
juven
1991
sufficient
racism
ordinary
macron
evacuation
archaeologists
liberty
vessel
siblings
maker
wang
whist
##irty
alz
trends
##ante
explicit
##ache
opio
regulation
elite
##alez
sanct
pleased
limb
principles
empire
anticipated
martinez
dign
fulf
wol
##jection
rex
##stal
albert
orle
##ours
##istent
adequ
reserv
expend
pover
promises
stephan
colleague
deny
friendship
feared
##ught
newsletters
phenomen
dw
naz
tum
##rist
##py
fruit
sciences
imper
removal
desc
tale
burden
goldman
benj
lifestyle
spotlight
jenner
adoption
uncertainty
rhetoric
cemetery
berg
##rition
##ede
bees
arth
arsen
cler
computers
evans
scary
donated
barry
identification
producers
homosexual
beneath
temporarily
triggered
chambers
cousin
storage
gonzalez
alzheimer
poverty
kath
##rd
anders
reject
unac
##urred
assign
parole
donor
wrest
beloved
warner
profound
employers
criminals
billionaire
scramb
watts
definition
politician
praise
orleans
sod
yo
spic
reliable
statist
removing
starring
sentences
producing
participating
contributing
bias
checking
kurd
stevens
congrat
jets
tu
##bie
##998
whale
##usting
swing
properties
militant
panic
kelley
regulatory
displayed
demonstrated
mortality
aspects
manafort
unaccept
718
bere
fu
mug
rapper
##note
##bow
##ja
##urally
##ieg
brows
fever
rockets
ranked
##ammad
occasional
automatic
volunteer
pediat
subsequently
825654
bot
mast
rivals
xi
stance
herman
incoming
##assion
statistics
##intend
medium
pressed
transactions
letting
sket
technique
acknowledge
ratio
opinions
breathing
agriculture
mormon
gins
hire
nico
##rick
##yard
##46
##idal
##etz
##osi
alph
marco
assume
underwater
colomb
memories
slides
hostages
bloody
curt
jeffrey
occupy
lub
##feld
##itated
##amous
##alled
crown
twins
syd
default
##rians
restore
operated
winners
##shore
obser
speeches
msnbc
explosives
tourist
proposals
ashley
feeding
proceeds
palestinians
juris
doug
hob
jared
##uating
##26
inev
##omo
##etically
pride
##imb
spac
##astics
concrete
##anka
johns
membership
enterpr
motive
obsc
charleston
julia
ownership
##lects
chronic
affiliated
astronom
gambling
##walk
swimming
cocaine
lyr
mt
nerve
##vy
##hl
franch
suing
abortions
usat
##asty
allerg
aggr
whenever
teeth
smugg
140
factory
developments
1980s
##ylum
indication
expecting
burns
innocence
excessive
fool
huck
pants
##tz
##oli
##ieving
strauss
investor
##ressed
anne
1990
journalism
males
unfold
popularity
princess
liabilities
swedish
tropical
associates
transgender
caffe
ib
mack
mors
rome
##timate
##western
##aters
stern
##ules
##unction
##endum
grants
quote
impression
joan
##othy
insult
condol
businessman
libyan
choices
deeper
neighboring
ultimate
duke
frustration
virtual
acquisition
reckless
fuck
lump
sier
##storm
asylum
butt
replic
##acking
resume
components
noise
stroke
secrets
mining
explore
firearms
pete
vermont
communicate
eggs
duncan
tunisia
mh370
fossil
endangered
benjamin
bold
eighth
koh
pard
##erm
inch
##ecraft
##child
carson
##onda
impair
wayback
molec
romantic
reviewing
hostage
richmond
determination
cleaning
dolph
##iguez
len
nun
pace
tired
##lass
##icon
tries
noon
attacking
harbor
artists
snyder
##ternal
witnessed
scenario
evacuated
lucas
qualified
battles
laura
excellent
rodriguez
brilliant
sydney
dot
dian
ipo
##mad
##gb
##gate
##uers
##58
inner
##aya
leaks
disch
stranger
helm
caps
smell
airports
advers
##inski
victoria
suspension
burst
addressing
predecess
loans
characteristics
selection
remembered
challenged
horrific
ancest
disagre
guarantee
mysterious
luxury
professionals
giuliani
nyp
##nell
stal
##acent
##etary
##imp
chip
leban
110
##auk
campbell
reflects
convictions
employer
searches
suggestion
halt
damaging
portland
improving
accidents
spreading
encouraging
advocacy
reactions
episodes
flowers
appreciate
confederate
711137
unacceptable
ast
benn
duck
goss
kle
nam
##iya
##inter
##stan
##eting
isa
chern
##andez
##ipr
prescription
knocked
smooth
billions
singing
strongest
summary
preventing
engineers
oliver
dubbed
belgium
dynam
gravity
sullivan
jurisd
aaron
dor
ease
fas
fier
hugh
ko
krem
liver
mm
venez
zh
##ded
tri
examp
seiz
gofund
##ello
##berry
partly
monthly
arrives
walter
extension
developers
uncons
awk
cheap
unlaw
exchang
concerning
hypothes
observers
confrontation
condemn
discipline
tactics
sierra
gofundme
bour
hiring
yards
##hand
##hire
reyn
whis
sheen
intercept
1969
auto
rooms
focusing
alexand
##ascular
##breaking
ramsey
jamie
pitts
certificate
cork
duties
tatt
##bound
preserve
impose
depr
contracts
##erto
attackers
identifying
compliance
benefic
ranks
cheer
advertisers
flooded
smartphone
evaluation
rachel
morsi
awkward
dug
lift
##bul
##atoes
##isly
##ione
newt
thanked
contem
elim
headline
simon
salary
salmon
responders
ranch
biom
absent
transported
aids
premiere
luke
disclose
implications
accomplish
##olitan
nichol
massacre
##elihood
examples
ci
lon
tumb
tai
wages
sab
sevent
spark
incomp
##ancies
prisoner
hosts
contributions
##9932
progressive
terminal
occasionally
remarkable
invasion
prevalence
nicole
kl
stability
##tha
clay
facilit
similarly
broadway
jewel
mandatory
comedian
categories
torture
decrease
renewed
backlash
cents
dys
##orse
##iture
##idi
##vereign
froz
##abee
sovereign
emma
serial
##obi
remem
passport
mainstream
painful
admit
casino
innovation
murray
ginsburg
spacecraft
nypd
frozen
baker
cav
kab
kany
rend
sic
##vis
##rin
##case
##bar
##91
##36
notable
##004
recre
contrad
confusion
midter
equally
erd
spacey
participation
minds
newspapers
confronted
publishing
motivated
##eus
alarm
trips
##uded
promoted
poses
juan
tweeting
hopefully
distant
pickup
##ammy
submar
motorc
tremendous
sophisticated
lyrics
cm
nc
##rane
##iors
##ben
##orous
##opard
offender
plate
meets
formally
##aho
shoulder
faculty
stein
treatments
generate
dominated
1986
osama
restrict
689932
lengthy
##eastern
##avery
fleeing
bully
rah
##rov
##hum
##eh
##icate
beating
##ardo
pluto
upr
disorders
noble
relating
monica
quake
slaughter
opponent
specialist
nonpro
immun
morris
managers
referendum
revealing
crowds
demonstration
daniels
municip
deliberately
portrait
misdeme
bm
furn
hint
##gie
reed
##osaur
fried
trent
##apes
comply
intensive
knock
mode
confirms
urine
crimea
espn
delivering
indicating
educational
exception
fishing
dreams
feedback
channels
semi
sponsored
incentive
condolences
mash
nights
##vers
##71
shake
inclus
beck
subway
instances
##ounted
gunfire
irre
llc
loose
requirement
departments
nickn
enlarge
hanson
extradition
elaborate
venezuel
cinem
hend
mice
beth
brig
donation
boom
##rator
exploded
commonly
labour
teenagers
kenya
premier
reflected
loaded
impressive
##laimed
airstrikes
spicer
billy
dak
dimin
rup
stumb
shaped
##illo
intend
interaction
fein
coinc
transcript
corr
passage
violating
euros
argues
navig
lifted
spectac
unnamed
unnecess
eliminate
kremlin
cf
dy
eb
fuk
jp
yuan
##nut
thail
tourn
##thr
triple
sue
seaf
compelling
##ailed
interactions
contribute
##ahr
brett
retain
transit
charging
pictured
storms
insurg
##6910
titled
troubled
lindsey
pledge
stunning
behaviors
junior
plaintiffs
thailand
bend
cain
gul
hed
##pit
shield
##esty
##oca
disgr
bless
strand
donate
underway
camps
calend
viewing
hearings
uncomfort
magic
tracked
rescuers
presentation
utter
contractor
attracted
montana
nutrition
buck
schneider
huckabee
aven
bog
##rs
##92
android
reiter
##aca
chess
incar
quarters
respected
refr
angela
unsucc
fixed
726910
hamilton
pipe
embrace
pelosi
fundraising
bachmann
kohl
reynolds
unsuccess
cort
jerem
##say
##pal
##giving
##inel
##aton
##lev
heath
ate
hispan
suits
##arded
myth
aired
##otta
refusing
stealing
humanity
keys
floating
mistakes
karen
submit
boeing
frustrated
holland
phrase
sanctuary
dup
dirty
loop
mild
nra
##74
##esity
reel
brave
reluct
monster
undert
infect
airpl
handc
affects
grey
occurs
##tenance
footnote
immune
grandfather
garage
hacked
queens
perfectly
diverse
recruit
revelations
1970s
aggrav
kanye
erdogan
900
woke
theor
##onies
inmate
stere
cher
disabled
scope
root
##erald
detain
electoral
barnes
##rett
##roper
argent
celebration
contractors
savings
horse
charlottesville
fiance
padd
##orate
##aro
inacc
stocks
enrich
obesity
parade
improper
smiling
artific
lottery
neglect
celebrated
chef
ballistic
sweat
correction
telec
experiencing
occasion
automatically
helicopters
nurses
steady
gentle
kurdish
franchise
nik
pale
sounded
vary
##oir
##itious
compassion
inters
evident
interference
##uala
greatly
colleges
penetr
momentum
consistently
climb
egg
besides
gymn
juvenile
eager
jar
pont
tennis
wider
##bart
thai
##ctional
clues
##ibe
##oga
presents
interim
blunt
parish
lasted
ministers
baron
differently
documented
hostile
generous
closure
reverse
meaningful
exclusively
stabbed
exhibit
bishop
handcuff
fing
wings
##ication
unch
sew
abed
##ipts
##encer
##ovascular
federation
archit
bombers
credible
participated
creates
tourism
1979
athlete
patriots
transparency
tornado
scotland
propaganda
boun
hik
jama
##enh
##oulos
##itivity
##uro
stages
##amer
healing
tray
##agg
butter
adoles
insert
metrop
avo
burial
declass
79608
demonstrate
stunned
acceler
scholarship
phenomenon
lone
yel
toss
stir
##ecurity
outl
accum
##iang
paramed
secured
valent
stops
##lessly
collecting
recovering
instructions
pistol
revelation
cardiovascular
nursing
sympath
trademark
isaac
avoided
dent
erupted
gps
honey
lacy
pas
##sters
##thouse
oral
hern
gren
aging
decor
flown
feathers
edit
youngest
entrep
assisted
audit
creator
bombings
matched
baghd
ignore
resistant
ivanka
ghost
kenneth
718998
baghdad
bould
d0
mend
pir
rip
##mare
##93
##zai
inex
stored
##alling
poly
graves
overha
##grim
contrary
accordance
wayne
centuries
delays
harper
farms
21st
earliest
solo
euro
hitler
borr
verizon
versions
examining
tablet
achieved
absolute
julian
jurors
barrier
litigation
##ranean
calendar
au
wet
##eries
##isk
deferred
offshore
relax
parked
##linary
refuse
nightmare
swadd
sentiment
movements
peterson
burgl
generations
1988
briefed
attributed
pilgrim
displaced
tsun
hazard
lunar
interrog
entreprene
##rimin
##zh
##anium
##star
subpo
barrel
streaming
maintenance
holmes
processes
travelers
destination
##iece
advisory
influential
principle
permitted
thanksgiving
consultant
duration
##keley
intensity
unveiled
gibson
declaration
1960s
##aukee
unconscious
pittsburgh
municipal
uncomfortable
dang
fug
lem
##tains
##waukee
##erick
##inity
##itute
##chez
fract
chry
spots
shep
quot
infamous
appearances
swiss
firearm
actively
epic
screens
1980
purport
subsection
regulators
telesc
anthem
conventional
harmful
derived
manhunt
lobby
mechanism
incorrect
whistle
bust
cyn
##hafi
##don
##low
##norm
##asm
##stock
shakes
asc
chees
plaza
grief
phel
carpet
asset
flames
115
supporter
contribution
editors
switzer
proportion
districts
##ropr
audiences
expressing
naval
columbus
dose
horm
mant
tib
##rics
##dog
##tag
chen
abnorm
offense
interstate
attitude
reminder
insists
prevented
sne
snake
publ
performances
speakers
hosting
ahmed
crowded
farmer
powder
laughing
accuracy
venture
poisoning
gmt
corker
submarine
bent
cad
dal
pp
##hop
##burn
##76
orient
##iley
overcome
milwaukee
##oola
adverse
sentinel
irish
sanchez
programme
ideal
urge
launching
alleging
ahmad
introduce
mandate
oscars
powell
climbing
substantially
tanks
mathem
obligations
enemies
fetal
nigeria
iconic
evolved
bridges
dakota
dancing
jill
liv
loom
rio
sach
haul
brains
carn
recession
flows
contents
101
##retion
shareholders
surviving
immigrant
versus
melt
vanished
1976
ethan
julie
sniper
undersc
emoji
caffeine
pad
##hic
##mans
##96
ank
##opoulos
unpr
offenders
outdo
invalid
impe
discour
boats
distribut
filming
additionally
nationally
revol
residential
breakfast
micro
matches
berkeley
##leck
complications
taboola
##guard
##amento
understands
surprisingly
grocery
misdemeanor
phelps
switzerland
bc
hover
jpm
lied
pyr
tong
##iac
##dling
##loid
comic
lease
acid
bru
outlet
pean
19th
nowhere
everyday
##auer
##play
affleck
listing
holoca
hacker
surfaced
countless
instruments
tabloid
lesley
muscle
enthusi
holocaust
695
foul
gw
patch
vin
inp
rear
stole
##irm
##udge
britt
timothy
flaw
##otherapy
studios
annually
##lett
passes
pays
powered
taxi
sandwich
tomb
philip
separation
##hepp
rolled
sudan
traits
intentionally
bonus
migrants
mammals
transparent
skeptical
gadhafi
forbes
perception
landscape
arthur
nonprofit
kohlhepp
ais
wan
##fa
##pin
##gage
##ilateral
prie
shan
##ivia
incumb
obstr
lawn
depends
ears
capabilities
##week
geneva
idaho
breit
filmed
##avement
proph
posing
superintend
basement
##yrus
bomber
consumed
kimmel
competing
repeat
bullets
##respons
pursu
pursuing
exercises
ecl
strategies
endorsement
spiritual
##osaurs
toilet
sketch
overhaul
nba
por
yates
##km
##ws
##osy
bros
sochi
monkey
terry
issu
irr
steal
maintaining
flores
figured
absor
##holder
accepting
acceptable
graduated
716
fueled
warrants
retailers
narrative
surgeon
arrangements
fold
ian
chop
unrel
##okia
##urry
assured
monument
stating
statute
deserves
insight
probable
missions
delta
testify
gunmen
##ups
stopping
penis
determining
explosions
corrections
reforms
controlling
##iciency
belgian
theaters
revenge
eagle
dignity
metropolitan
publisher
bund
danny
pupp
rim
uf
##ran
##94
shi
notably
doe
aggreg
incons
noaa
median
lasting
##lington
ski
##ontin
boycott
texting
nominations
##author
crystal
isolation
enhance
presumably
hydrogen
notorious
unlawful
unnecessary
tsunami
pursuant
cot
ig
kend
lag
lod
mere
sang
##arak
stahl
brenn
outer
megan
indo
charter
universities
operational
holes
##ushima
labeled
celebrating
merch
attribut
measurements
survivor
coordin
honestly
sacramento
highlighted
slammed
zhang
exchanges
fukushima
breitbart
superintendent
joked
nokia
##rie
spears
resemb
courthouse
confused
secondary
administrators
entities
credibility
accessible
honored
admits
silicon
permits
wishes
mansion
endorsed
pocket
enterprise
incarcer
bert
bike
caut
euth
mull
puzz
##esn
##itures
##isive
##estone
##opath
##abil
manus
##ptions
##grad
mediter
inflam
forma
meter
critically
costa
surely
purchases
mistaken
nominees
termination
beaten
evacuate
climbed
penalties
implemented
satisfied
transmission
uganda
puerto
opioid
taiwan
euthan
bic
cbc
rib
tension
##fol
##mal
##ali
fright
##umber
carlos
##angel
roe
whereas
publicity
provoc
##appy
severely
convince
geographic
devoted
texts
mcm
portug
350
##bean
naturally
doubts
corporal
extremists
clicking
jonben
demonstrations
belonged
alerted
divorced
weighed
thirds
suburban
pdf
browser
bible
ku
lan
##yon
##kov
##01
##itr
##stage
##uting
##the
chant
##uma
offs
grid
##acting
shower
respir
discretion
fines
operator
midwest
mcgr
embry
credits
collective
enforce
verified
broadc
approaches
utility
emotions
magnetic
evaluate
delegation
temple
hernandez
mediterranean
jonbenet
catherine
kaine
mason
nod
osw
voy
##post
alf
neph
orbit
spencer
2019
##elli
brow
meals
compounds
appla
harrison
victor
denis
connor
sandra
painted
woody
diplomat
clinics
premature
organizers
assuming
linda
spectrum
literature
pinter
quietly
unfortunate
lobb
kahn
hanks
thirty
dependent
awaiting
supervisor
rallies
fargo
vanc
##cano
##erity
##opes
##ieves
clause
component
##obyl
donna
imports
auton
richards
practical
races
jailed
sweeping
touching
fleet
meantime
consulting
weakness
carlson
astronauts
cuomo
aggravated
jpmorgan
pinterest
vancou
aunt
bite
kaz
##oa
##mun
##ken
##72
##ulates
unarmed
##ista
spo
acres
##ansk
##pton
bug
assessed
governors
detection
haram
corrupt
##ernick
equality
banking
attractive
sequence
weighing
memoir
experimental
catastrophic
inaccur
yelp
cree
rut
wf
##enant
##itudes
betr
whip
heated
sail
##estation
sperm
projected
griff
manif
##irez
likelihood
flour
roots
##weg
provider
casey
simpl
reception
violate
hitch
agrees
candidacy
independently
difficulty
praying
vanity
trusted
frankly
reactor
malaysian
sponsor
sergeant
errors
chernobyl
paramedics
bio
cnbc
hbo
kisly
lip
laughter
##aults
##gments
topp
##osc
aldr
scored
server
consensus
mineral
postp
makeup
glenn
sharks
risen
topics
dealt
noneth
parkinson
protections
##ophys
garb
##172
wondered
bobby
ramirez
occasions
jesse
dramatically
resolved
installed
wreckage
electrical
retaliation
nonetheless
ct
iq
makers
rage
vel
##pel
##omin
external
##oko
plug
brink
polish
##asses
cargo
1978
##epernick
lawmaker
impacts
##eryl
confessed
barric
debates
malaria
credential
wrongdo
females
separately
swept
dinosaur
cooking
expertise
emerge
warns
pipeline
kaepernick
mutual
deceased
architect
##osystem
respiratory
kislyak
bare
cory
cinc
tube
##frey
##drop
##icism
heir
sham
##thal
chart
possess
recordings
moder
excuse
treaty
cancel
uranium
significance
volcan
widow
attendance
lesb
prohibited
dragged
concentration
kasich
gordon
ingredients
hashtag
observer
dolphins
lebanon
brennan
inflamm
gur
gaz
kris
sie
##enko
##theless
craw
##oyd
delight
nevertheless
dealers
organisation
##shots
mali
##beat
medications
biology
blocking
struggles
organs
bradley
lindsay
strategist
blew
disciplinary
deportation
remembers
jeremy
bass
cel
dana
luther
ore
pione
##mm
##losed
##gom
##itively
##enter
##owitz
shin
worn
compare
parall
genius
##aires
killers
anna
maintains
jeopard
surveys
designer
maternal
##criptions
historically
rosa
carrie
bonds
aspect
gilbert
passwords
elephant
wsj
galaxy
convertible
nazis
boulder
vancouver
berry
erect
kiev
##fare
##eded
##enberg
##oline
##eters
shorter
unions
lever
brist
resum
caring
counting
blond
norway
centered
boo
retreat
identical
considers
secretly
booked
equipped
furious
subscribing
empower
manufacturer
gabri
phillips
bing
dumb
gd
jab
mog
pets
si
tac
##mail
##pec
##loop
##nels
##xy
##stitution
stump
##ira
##cha
seasons
##abouts
arctic
##omez
moreover
colors
defensive
##asha
standoff
1000
respondents
robust
awful
revised
distingu
collision
industries
educated
surrog
settings
negotiate
logo
aims
blanket
brunke
philippines
intimid
thumbn
kabul
artificial
dens
mub
sends
vik
##fers
##front
##pot
##uv
##anim
stunt
tripp
deer
seals
dispar
blown
knee
guin
slavery
seth
keen
##ospheric
advances
hardy
functional
labels
natal
scratch
competitors
separat
racing
declare
preparation
anthrop
montgom
joyce
brazilian
vesting
saddened
antarctic
doping
genuine
cincinn
montgomery
jaw
jung
lect
ric
##erie
##omed
##amo
##emble
##ocum
unre
carib
recyc
emily
##ensions
norweg
supportive
sunni
##liner
restated
billboard
modified
fireworks
lesson
angle
sells
archives
commentary
morph
designated
exchanged
sensitivity
##losure
blogger
bulk
resource
observations
cartoon
instructed
buffett
buffalo
shouted
antibiotics
privilege
stephanie
venezuela
barg
gomez
mp
ses
yelling
##roc
##cel
ing
rever
shook
alike
conway
unity
##akh
orth
plague
brock
amber
compos
drown
##obe
105
cape
whereabouts
guit
johnny
michele
denial
successor
1985
approaching
considerable
packages
introduction
ecosystem
traumatic
stanley
psi
tillerson
wrongdoing
mubarak
cincinnati
cafe
jake
lined
rug
sized
wade
##len
##340
##atar
##arming
##urd
enquir
peer
paras
wanting
signatures
##roe
refers
campaigning
170
opera
##parts
territor
functions
francois
melan
##2068
inspectors
therap
conflicts
footballs
improvement
cybers
gregory
clarify
blasted
framework
beverly
plaintiff
chrys
caribbean
dire
fb
ral
rico
##etical
##thetic
chew
##oden
arn
upgr
##weight
bread
patt
receives
solely
entity
urls
urgent
##ommod
##backs
existed
wondering
abdul
supposedly
strengthen
retailer
implementation
intentional
corpus
joshua
precedent
sterling
predecessor
hike
hutch
kan
nj
nab
rt
wen
wired
##cs
##zy
##wald
##alt
##ilitation
##amine
withhold
##artz
arbit
grain
##trump
immin
accommod
##izer
evan
##inding
##uces
deciding
workplace
undermine
mills
##154
casting
chemotherapy
corporations
counterparts
6831
neighborhoods
occupied
fantasy
unconstitution
##iegel
dangers
aur
cind
gian
nyc
pine
##von
##auc
##lon
heather
chad
unr
seb
##abe
twist
parad
##ockey
info
backs
releases
delhi
severity
redd
hardware
technically
emailed
petra
landfall
burke
marriages
suprem
accidental
panama
extremist
exceptions
matching
samuel
katie
hoax
compromised
cockt
tackle
prescribed
statistical
##children
683148
cun
fals
pne
pills
##inos
##irmed
exoner
grat
comparing
declining
flip
indicted
minne
helpful
steele
distracted
deadl
mccart
davidson
admission
hallow
digit
characterized
psychology
troubling
negotiating
abducted
7832
indianapolis
evolutionary
physicians
hammer
hudson
bullying
spectacular
priebus
3d
cipr
etc
fare
fern
lanes
pomp
rans
wise
##aqu
##fia
##cts
##ean
##laughter
##net
##kamp
##eds
shaking
trains
##ourke
##sein
spinal
##ikh
peg
intake
sober
marie
assaults
betting
##ierre
coron
winfrey
romance
mcg
florence
commented
grande
1987
1984
voiced
oval
avoiding
##ieto
assumptions
oxford
manslaughter
ellen
disagree
optimistic
casualties
cantor
shadow
expenditures
hispanic
minneapolis
783273
bans
cay
homet
kit
rourke
wi
##gets
prank
##irical
shirts
##opol
##ellor
feud
formula
deton
postal
slip
refund
sometime
175
stepping
banning
1981
priorities
precious
languages
jumping
pipes
recruited
sporting
veto
priests
rebuild
infectious
764
bak
hoop
mask
sorts
##list
##err
##isely
##ando
resid
disl
drilling
carriers
justify
discrimin
weekday
protester
playboy
rises
visa
##prints
economics
choosing
absurd
ballots
cooperate
radioactive
722068
speeds
richardson
parliamentary
dietary
crypt
permanently
portray
ottawa
overturned
pediatric
fierce
stranded
fingers
716004
pneum
halloween
bands
bats
cure
dm
fiction
ki
lapt
nude
wield
##mod
##lif
##ili
##ilized
##ocated
orch
reply
uss
reset
##ogether
strain
cox
##icked
schult
colony
buses
homeown
potter
deterior
landmark
##after
burger
credited
volat
disputed
panels
mattis
##4567
routinely
tunnels
affecting
sampling
belonging
neurons
folk
sharply
habitat
##otype
antibiotic
mocking
underwriters
licensed
coleman
##ropriately
hometown
gau
lakes
mul
##rian
##onic
reh
reilly
##olved
##ecca
heal
chanc
##tress
disability
colin
##ratic
humb
vienna
hopkins
assaulting
selfie
regarded
microp
gasoline
oversee
weighted
jefferson
karzai
galv
bailey
fluid
forgotten
altogether
defeated
theatre
kenny
psychiatric
leaning
contaminated
##bourne
telescope
cipriani
aβ
bdd
cod
ditch
gir
lets
nons
rings
rash
reign
stakes
##acies
tract
abusive
scout
carp
undermin
backp
remed
subjected
greeted
##308
blacks
injection
cancelled
financing
intrig
creature
slept
acceptance
digging
##writer
bureauc
laughs
batteries
beside
washed
bronze
embarrassing
withdrawal
protein
colombia
seventh
airplane
norwegian
chrysler
ced
dorn
gust
liz
pest
pand
tier
##oons
##mouth
sty
prisons
alice
traces
leap
crop
incon
sob
partial
coins
intoxic
demol
attacker
developer
christine
halted
misle
township
##keep
inspiration
emotion
774567
objective
glasses
##iciently
initiatives
emphasized
transmitted
vessels
narc
rehabilitation
echoed
hannah
imminent
flick
ja
kin
pant
tsa
##81
##watch
thieves
##erving
##ader
sha
shaken
whoever
##iah
placing
earning
servers
northwestern
raids
janet
threaten
fallon
fallout
responsibilities
closet
churches
rocky
physics
loh
dinosaurs
columnist
mourning
constitu
wisdom
experiments
gifts
excluded
adventure
supplementary
intervene
pardon
tournament
reiterated
abnormal
siege
gore
jol
jaze
laz
nike
oath
ought
sears
##vd
##ux
##kowski
##89
##ji
rewr
hein
seas
##ollah
pole
specim
##lete
communist
profiles
operators
midst
hunts
encry
specifics
divide
inspection
cheating
greenland
precisely
reconcil
bronx
airstrike
undercover
adequate
bennett
jewelry
jazeera
770
aol
aston
bened
cyp
dirt
eruption
##fish
##bag
##wick
##ener
##ascript
##leep
bearing
stones
asleep
altered
##earing
butler
lex
bry
grim
ammun
drives
defam
captivity
solic
certified
##aneously
boarding
breakthr
lightning
##ammar
musician
digest
curious
merkel
##692
athens
vaccines
achievement
reproductive
javascript
taxpayers
cohort
philosophy
garbage
unconstitutional
breakthrough
ave
cv
ling
tig
vic
##dled
##itic
heights
##irus
unauthor
unanim
##qual
monetary
undergoing
governing
directing
formerly
185
swall
operates
steam
committees
heartbreaking
escorted
melting
budd
punished
tenure
##436
licenses
andrews
decreased
reminded
gesture
overdose
##hydr
baldwin
assassination
estranged
inflicted
uprising
purported
issuance
cindy
ammunition
batch
hr
tune
##eem
##etics
##usc
abund
manual
drank
monson
blas
##ucked
thresh
capability
define
subd
subtle
reader
popul
boyd
volcano
admir
melissa
ensuring
undocum
oversees
poorly
ordin
rubble
rhoden
instrument
rodman
sponsors
revolutionary
toddler
accompanying
paintings
subsidies
shouting
portrayed
feinstein
seafood
adolesc
petraeus
undocumented
dough
mim
mails
mumm
pon
##eo
##pear
##jud
##oration
##arity
##olia
##acious
##asted
canyon
emm
##aches
quinn
schwar
captive
concuss
damn
technic
argu
balloon
guilt
influenced
rosie
1977
traditionally
miracle
observatory
comparable
broadcasting
horiz
bitcoins
rifles
obligation
households
tamer
embraced
fundraiser
prostitution
ern172
administered
inevitable
contempor
ern17282
430
bik
cattle
hes
js
sr
vp
##tm
##wine
##asse
##leen
##utt
sherman
ampl
noah
append
marit
margar
preview
##inking
donnell
##raz
locate
##brid
militia
winn
accounted
closures
favorable
smithson
757
photographed
theresa
observation
katy
desperately
andrea
mentally
aerial
cheese
incumbent
aggregate
dorner
dorm
fathers
kuala
loot
pond
sara
yale
ont
shul
atomic
plural
brick
gro
##uba
phi
cares
warri
##wards
instantly
18th
stark
peters
banner
importantly
hungry
complaining
##adesh
doubled
declaring
prospective
tables
enrol
outrageous
palmer
rupert
trayvon
subpoena
695340
thumbnails
enquirer
chancellor
smithsonian
bother
bases
lgb
rats
sok
sally
vom
##tor
##bish
##urg
##eton
shy
spear
spaces
arra
crude
##trak
relied
throat
locals
135
##attled
koreans
messaging
foreigners
awes
livescience
650
crashes
celebrates
ladies
televised
commanders
spray
gallons
troubles
laying
improvements
terminated
##ochond
crackdown
dissent
illnesses
recommendation
muscles
hyperloop
lumpur
midterm
manuscript
manifest
guitar
cybersecurity
lgbt
cz
cere
cens
fights
hors
tense
vandal
zar
##uates
##elin
shah
amtrak
export
accuse
interc
##kshire
flies
contempt
undergo
underne
slave
teammates
ordering
geological
effectiveness
choi
stormed
allegation
expectancy
##205
undisc
historian
750
routes
spreads
1974
platforms
ecu
shelters
willingness
freshman
earnest
coordination
satisfaction
treasure
mercury
impressed
kristen
mitochond
tolerance
antarct
hedge
nephew
maritime
underneath
dnc
mia
mong
nasty
nieto
oun
##haus
infer
##omon
whales
##uter
##ige
##ums
##aka
leaking
gran
marvel
marines
assail
consists
showdown
colored
##ullah
valued
chiefs
measles
animated
breakdown
450
difficulties
cardinal
graduation
shops
karl
randy
chapman
disappointing
solidarity
wireless
mercy
dumped
disgusting
mashable
swaddling
shakespear
credentials
sebast
unauthorized
aj
cask
gaining
sf
##pept
tooth
##reated
##igma
hef
##iman
shoe
congreg
##occo
arson
upload
drought
##umph
##oven
##ensen
stripped
invested
kills
seeger
booth
speculate
##ecutive
runway
steep
suggestions
potatoes
linking
traded
pena
conversion
corrected
renov
emotionally
tougher
clubs
counseling
unusually
container
consequence
harvest
promotion
##space
indonesian
shifting
exploit
ucla
enrolled
passionate
flexibility
boulev
suicidal
alexandria
unsuccessful
sachs
sesame
benedict
antarctica
cec
gol
lenn
piv
rit
ss
vend
##girl
##aman
##odies
energ
##osta
peers
##avor
monroe
##ausible
blaming
##arged
wherever
respects
smoked
insiders
genital
##airy
endorse
simult
marking
sworn
##eneg
listened
##aneous
denying
malware
furthermore
hunley
##gyn
drops
opposing
cheers
creatures
caes
##hanna
viruses
pursuit
sadness
layer
chapo
conclude
belongs
qaida
accurately
marshals
concealed
fantastic
institutional
sealed
ugly
mohamed
##anthrop
nashville
exhaust
eliminated
lohud
2d
cage
doss
mick
pile
##rip
##eff
##nett
##inging
##arians
##acles
##imited
fraction
enabled
acute
megyn
##quer
##urring
relation
monuments
104
oprah
christy
produces
halft
sooner
##7018
favour
beaches
microb
riders
monitored
applying
nuts
lieut
battling
switched
deposits
adjustment
shifts
enrollment
tasks
stimul
voluntary
expedition
warehouse
clerk
gymnastics
census
gaw
jin
kass
tiff
yank
##87
##anks
prest
saga
chim
haiti
unaware
##odox
intact
##aven
cared
##aternal
obit
consecutive
defender
endured
breeding
probability
protesting
maliki
reasonably
unlimited
occurring
ethical
appealed
pursued
maxim
ignoring
locker
kisspept
cardiac
legitim
underwear
alpha
intersection
cotton
bristol
awesome
shakespeare
halftime
aub
fails
lac
pause
##oos
##col
##lake
##xit
##elve
frances
comcast
uphold
##ptive
scand
interactive
invite
donets
famously
10th
directions
groupon
raf
costume
freely
accountability
hunger
circles
volks
grandson
beds
miley
laughed
robertson
coordinated
altitude
dimon
deposition
embarrassed
dishon
beneficial
tamerlan
sokol
boulevard
dairy
mold
rented
yaz
##fr
##nik
##ture
##bec
##zer
##atal
##online
##itary
##ioned
##reen
heels
weiss
habits
offenses
##ipse
disresp
soap
decent
formation
genetically
raj
mornings
economist
filmmaker
cancers
initiated
prosecuted
wrongful
silly
mounted
##4565
##iaries
shipw
appealing
##guards
supplied
archaeological
guaranteed
cockpit
sympathy
fabric
converted
underwent
bubble
limbaugh
fulfill
slideshow
hypothesis
unrelated
donetsk
ai
dash
lately
mish
rides
ripped
wives
##long
##09
##wagen
wholes
##step
spike
worries
drones
thereafter
carney
counted
mayer
induced
barriers
allege
artif
stef
programming
injuring
singular
opted
hussein
##boards
pregnancies
texted
714565
##iferation
##iosity
emphasis
lavrov
innovative
mahm
password
inclusion
insurgents
impeachment
764692
kisspeptin
360
boko
gam
tul
yan
zones
##rus
##rio
##hot
##uitt
thunder
##ares
inqu
tox
##omous
fore
prone
##andering
abrupt
sheats
clapper
crist
upheld
compiled
dispr
soy
overlook
##aching
##icting
backyard
investing
12th
patents
barred
13th
simm
turnout
skrip
devil
boards
globally
grandchildren
verge
respective
wooden
impacted
undated
contracted
787018
procedural
samar
aliens
scalise
aggressively
holidays
reinfor
patriot
yellowstone
tyler
legendary
reunited
bernardino
coordinator
resumed
schultz
jsoc
volkswagen
burr
kyl
vague
##loe
##top
##will
whites
##urance
##chen
weed
untr
orph
hass
plates
bride
broker
cried
grip
straw
##itty
##cripts
talented
staffer
ceos
intelligent
##rington
##oids
contributor
squee
worthy
shallow
tripoli
correctional
accusation
hypoth
essay
prospects
quarterback
aggression
enjoying
lauren
printed
drunken
accomplished
wheelch
collaboration
umb
tattoo
peanut
eclipse
inaccurate
griffin
cgi
dual
duch
heck
kand
##yers
##83
inhab
##idy
##lements
seated
heroes
usage
newman
disreg
indef
defects
pressing
believing
##ysis
glac
lesser
cancell
##borough
1982
##324
microw
abandon
whitney
strangers
kathleen
hollande
dk
duff
giz
hog
lans
nag
pitt
tina
wow
wals
##val
##hons
##uously
##nick
##zman
reald
##stairs
hailed
abr
abstr
##aba
bryan
reson
twelve
expose
exports
appreh
interst
guided
##aux
planets
continuous
humil
menu
snoop
waiver
minded
madrid
diplomacy
muh
abduction
amendments
eaten
mortgage
outraged
evaluated
recruiting
rayhons
##ieval
lava
loyalty
beverage
arrangement
prolong
contamination
unhappy
reservoir
biomass
757154
bos
sections
voc
##gart
##atical
inject
##ationally
alarming
20s
##ifice
suite
brush
allison
timber
intentions
scans
interrupted
monte
prefect
conting
workforce
undergrad
statewide
airbus
publications
barcel
walters
committing
burg
heaven
unsafe
substances
gradually
shoppers
1972
luis
qualify
owed
encountered
atmospheric
translation
pockets
##otypes
cruelty
ninth
reconstruction
negligence
sustainable
reluctant
fugitive
bertol
lobbying
##pecified
ios
kc
lions
lance
nak
pf
ridge
sina
vick
wend
##57
##asp
reeva
beings
##igen
shaw
##osity
##opic
##ostic
willow
appropri
interact
relent
relieved
quad
serb
olds
warfare
boone
efficient
array
arranged
128
northeastern
goodby
metres
144
redistr
restored
lessons
christi
freeze
petty
predator
chemistry
wildstein
curb
behavioral
bowie
exceptional
campuses
001
##onaldtrump
disappointment
kirk
cautioned
lovely
voluntarily
burglary
contemporary
realdonaldtrump
hilar
##function
stap
##utical
convey
chains
unear
exec
newark
croat
##ubs
##izable
##ffe
perf
##aceutical
preference
coat
consulate
##ugs
155
cream
organic
denounced
libert
eyew
collections
obsessed
broadly
madsen
ambitious
subscription
merit
1973
assumption
coaches
##borne
scholar
punched
fingerprint
exploration
jurisdiction
nicholas
guinness
tigers
ritual
dive
hw
hilton
ousted
##vi
##sons
stair
bystand
##try
intends
flower
contag
syrians
schiz
buyer
##ahar
##ologically
issuing
delivers
behead
gunshots
christina
socialist
copper
mcn
supermark
globes
sidewalk
jacket
##etti
lohan
merced
historians
cooperating
fastest
accuses
memorable
albany
rangers
liberals
fraternities
sacrifice
epidemi
pharmaceutical
inflation
gossip
reddit
pneumonia
misleading
threshold
dossier
muhammad
cerv
lover
mounting
til
tide
wary
##right
##hard
##atient
inequ
stree
##ads
##tering
##chat
##check
##ulin
wears
##ocese
##ellar
acre
plac
plag
brib
intimate
scattered
1968
##manuel
medals
founding
descent
colbert
elon
sexist
swat
murkowski
##attering
dealer
marched
threatens
risky
verbal
physi
dispos
buddy
focuses
curve
introducing
ordeal
manufactured
gardner
jacqu
frederick
grassley
adjustments
barton
fascinating
henderson
parallel
mogul
natalie
blasio
barcelona
bain
cer
cites
honda
jup
tx
##di
##zel
anat
##asive
pricing
##usch
congo
arlington
##asters
adap
doi
canon
disabilities
flesh
anytime
11th
##ucting
specify
129
slog
slipped
##riage
##ounters
refusal
skill
stockp
failures
ideology
wallace
hunters
jeans
chairs
curiosity
##hani
cookies
rhodes
cathed
consulted
##iasm
overwhelmed
assertion
enhanced
succeeded
vitamin
skeletons
shiite
provocative
gauge
schizoph
streep
630
dwar
dsc
fitness
gays
hag
moss
nts
nair
oj
peck
uh
vicious
##eny
##rea
##stop
forfe
chun
chester
tracy
##umin
spell
spitzer
clash
crushed
allied
emmanuel
reli
attends
mini
joel
insights
filib
careers
suscept
militias
##pring
messenger
executions
portions
goldberg
philanthrop
inspire
##offs
purchasing
darkness
titles
1975
tribal
filling
villages
##4340
ashes
applies
tanning
marshall
bangl
##archy
forbid
minimal
enthusiasm
dictator
tuition
lubitz
astronomers
klein
abedin
ransom
margaret
lieutenant
dscf
dade
mouse
nus
poured
rental
##vo
##lr
##wart
##omatic
##urbs
sta
##olly
##ceph
##oped
spiel
spends
leo
enact
worship
invitation
deck
1945
paraly
medieval
backup
forming
happiness
concord
metab
estates
potato
denmark
reaches
homem
screw
encounters
jackpot
observe
1983
disputes
unspecified
##401
fixing
hyde
surveyed
circumc
categor
##believ
liberia
firefighter
inquiries
interpretation
rampage
lapd
convenience
nestle
homosexuality
bereaved
aisle
reconciliation
cecil
walsh
cathedral
999
glee
lamb
nathan
pc
pairs
##pat
##gard
##05
##wind
##eca
comet
unint
notifications
abuses
plumm
placement
outlined
graff
attitudes
##olls
minn
downs
seniors
insuff
breyer
efficiency
slot
yorker
affection
starred
convinc
classmates
juice
confirming
freezing
costly
measuring
responds
origins
financially
eyed
primaries
admitting
intrud
births
melbourne
disappr
demonstrates
berkshire
concludes
owens
assembled
imprisoned
pharmacy
##ulsion
hungary
vegetables
dividends
correlation
taxpayer
diane
clayton
motorcycle
furniture
indoor
falsely
mahmoud
ntsb
cou
cum
cough
fusion
giff
junk
kob
paus
raz
##hist
##uity
##leas
##olo
##terror
alto
unbeliev
hast
sheets
adher
reserves
outsp
martha
decomp
##ensively
knowingly
##othe
##oots
edited
harmed
valuation
terrifying
distraction
240
limiting
loses
travis
hotels
launches
##mingham
projections
pulse
lacked
##addy
magazines
veterin
dismant
unpop
bailout
##innon
miscar
snapchat
diesel
dynamic
reelection
broadcaster
drowning
770436
unearth
schizophren
codes
hil
hir
mg
pall
sank
yelled
##ses
##ski
##mat
##urbed
##ounce
notification
##okers
clo
drain
##ovy
fluct
depress
thrilled
belly
metoo
##strom
extinct
holdings
completion
circus
franco
consuming
answering
predictions
raping
advisor
surrender
counterterror
724340
veterinary
hybrid
rhy
picks
establishing
temporal
marcus
functioning
forthcoming
venue
chaotic
transformed
ingraham
sergey
evolving
1903
catalog
elephants
arsenal
seizure
tongue
sebastian
disrespect
aka
caves
dude
gork
gsl
lough
masc
omar
rational
tyr
##sm
##ders
##bier
##zo
##waters
##eson
onset
##oler
pruitt
##igious
##ecr
saints
chased
##una
exagger
spider
enacted
sheer
gox
acosta
grove
grieving
manuel
intoler
##ogy
##ogl
drowned
##itters
downing
insane
subc
##ahan
endanger
brexit
proving
nationalist
headphones
caliber
sharon
fundament
toggle
collusion
paula
persistent
packaging
bodily
##onnie
layers
cables
694
terminate
stuffed
kicking
capita
comparisons
mechanical
colonel
shifted
pigs
eagles
pearson
plunged
facilitate
shepher
volcanic
orthodox
undisclosed
gawker
010
cumm
hul
hott
merg
roth
tenn
tends
wiped
##hill
##ebr
##dles
##uum
##erty
##arked
##ilize
##igl
conj
##ulent
trim
adul
##iberate
meyers
carey
overl
blowing
indirect
couric
demographic
surpass
speculated
filings
patience
companys
retwe
deliberate
swimm
starr
operatives
wines
clearance
watches
hardest
candy
processed
mccorm
urg
birmingham
misunder
rebell
##oof
bales
balls
tablets
merr
slowed
sadly
chapel
insisting
warmbier
leslie
sequel
dominant
bucket
cordell
skepticism
revenues
explorer
triumph
argentina
prophet
jungle
supremac
backpack
counterterrorism
awe
bits
cyrus
erupt
mtv
sided
somm
viv
##rod
##far
##sky
##power
##tic
##kes
##kell
##86
inability
##enthal
shannon
shattered
##ching
fron
chol
traced
unle
##ainted
##abad
accent
##awling
sci
carell
eminem
108
joins
smashed
insect
specified
patel
annex
slogan
barn
farming
viable
##ippers
roommate
austria
##6069
80s
environments
criticizing
substitute
brandon
paperwork
renowned
purple
logistics
adjacent
reflection
reacted
##ymph
mortar
cracks
corresponding
horizon
outbreaks
tarn
sacrific
mitig
pornography
ceasefire
algerian
tumor
descend
fucking
hikers
intriguing
bryant
defamation
casket
sinai
jupiter
fitz
gaming
kang
lur
lens
lamp
pbs
rant
rapp
tant
yon
##mc
##press
##ouds
##itutes
##icia
sake
tres
trude
##umental
unav
clue
bra
proxy
mann
blessed
##iative
parental
edt
associations
coral
swath
launder
clearing
geek
prosecute
suffers
circulated
georget
traders
challenger
acquire
punishments
agreeing
rainbow
proceeding
belongings
empathy
drafted
electronics
hayes
mohammad
bishops
havana
reopened
immunity
nickname
accelerated
tossed
broward
lesbian
ralph
scandals
coul
dental
istan
lact
pike
vibr
##ei
##reach
##otal
heb
##uling
unse
haskell
brag
resil
outf
cran
pew
##ouses
mario
overr
decides
strat
addict
##ussy
slaves
exploring
16th
salon
christians
filmmakers
uncomm
robbed
generating
##boro
assisting
##ugging
prepares
minorities
imagery
athletic
cracked
888
implementing
breathe
publishers
hatred
mansour
blankets
deployment
salvador
meteorologist
riverside
vertical
licensing
flavor
unfolded
deadliest
loughner
istanbul
230
dixon
daca
dzh
hated
lak
mocked
nh
nanny
oc
taped
##rative
##dam
##uer
##bles
##qq
##jad
##olics
shelling
nebr
spree
spying
spelling
offset
brac
evangel
##acey
##ignment
107
112
deported
runoff
streams
moms
thoughtful
specialists
liberties
baseline
variation
verification
representation
maduro
rapids
##404
greenhouse
draws
floodwaters
dining
lifting
louisville
rubber
olivia
variables
746069
lucrative
delegate
disclosures
migration
eligibility
kirst
pleasure
overwhelmingly
authenticity
consciousness
paramount
algeria
assignment
capsule
adversely
jpg
brittany
offspring
leverage
laptop
orphan
goodbye
unpopular
georgetown
dzhok
bout
doses
eug
eph
fec
fury
hump
kor
kam
lid
lith
mistr
nitr
pix
##daughter
##drew
##nan
##59
##icz
forc
alib
withheld
withdrew
chasing
##ema
##unting
##ateur
##oding
acet
cleric
wors
disqual
##izations
##elyne
carc
secular
depressed
poised
provinc
elvis
barron
##broken
glor
raided
snapped
sanction
portfol
cheaper
modeling
thankful
hurting
correctly
floods
connecting
acknowledges
imagined
catholics
1950s
alternate
ventil
anticipate
pleasant
elevated
smuggling
blessing
surrogate
galveston
wheelchair
abstract
trudeau
nebraska
dab
fond
pi
ry
soup
sizes
wounding
waving
##anov
##isphere
##iler
bex
##iments
chin
chlor
degr
seac
abusing
spite
leaf
##uding
##usters
##qua
appropriately
commons
strick
strains
infring
schl
117
depicted
thriller
coli
eli
patric
slain
nightcl
prevail
maid
winston
visitor
debbie
excer
civic
originated
robb
deepest
replacing
designs
middleton
cheek
garnett
networking
surrend
trooper
oceans
smartphones
signaled
bulls
sticking
tariffs
foley
tactic
hemisphere
persuade
outlaw
entrepreneur
outdoor
kendall
attributable
incarcerated
withholding
huntsman
kassig
dwarf
convincing
diving
htm
kap
peng
pension
patern
vern
##fk
##ll
##bach
##06
##witz
##ilization
##elt
##lem
staged
##illery
nepal
##ulative
##atee
unm
##uda
##pted
drake
bloc
##ovoked
prejud
1964
##grounds
schm
132
##lins
goodwill
passports
##geries
factions
watchdog
pleading
parkland
trek
envoy
favored
acquitted
telom
displays
negotiated
speeding
promptly
pedest
vulnerabilities
catching
stabbing
vigilant
beverages
interpreted
hannity
seizures
ncaa
unprovoked
arnold
cocktail
indefin
microwave
bangladesh
trespass
bacon
cj
eis
fict
hm
lymph
nol
vag
wond
##nt
##inery
##edes
##elor
rejection
bez
##acp
chal
weaver
reps
outages
##uben
obtaining
111
guerr
regrets
suburbs
idol
breasts
shoulders
##iox
continent
souza
sexy
##onte
wales
solving
activated
steph
angelyne
palo
270
circulating
islamists
clever
cultiv
firmly
tribes
diagnostic
liu
liable
synthetic
freddie
##ogenic
randomly
earthquakes
sergei
inaugural
##antha
fidel
cassidy
reversed
lungs
reopen
ultra
mosquito
sincer
molecular
populist
adolescents
simultaneously
eyewitness
giffords
outspoken
bahr
daw
fits
gem
kyle
mik
oy
pics
rook
tipped
##vic
##rina
##gins
##atement
##orith
inad
ineff
##iltr
reef
##urt
##terior
##think
atop
frat
frog
chilling
##emic
suz
ariel
plausible
resur
mane
disastr
perkins
##001
ours
flush
coin
quarant
quartz
meddling
founders
usda
genome
defiant
subpar
slim
refuses
maer
glam
glimp
possibilities
judd
resting
policing
certification
malicious
boring
##goers
breakup
availability
rocked
branded
lacks
definitive
detailing
cornell
hawk
savage
coffin
fatalities
mechanisms
prohibit
escalation
hemisp
galaxies
algorith
bereavement
friedman
declassification
nonsense
duchess
spielberg
provincial
glimpse
fow
fogle
gos
kee
pam
sul
tire
##bank
##with
touted
whop
atroc
framed
chaff
##essa
deaf
spouse
clouds
timely
blames
becker
myan
conscience
famed
apost
guzman
122
healthier
annoy
eddie
internationally
charitable
swap
##lessness
archbish
waist
consume
participant
sweep
alcoholic
photographers
assessments
dui
exposing
correspondence
affiliates
cooling
registrant
destroying
recipient
masked
embarrassment
remarkably
relying
culmin
discharge
ebay
796081
vincent
ufo
euthanasia
##30861
skripal
hassan
shepherd
uncommon
bexar
730861
akin
caf
fitting
gerald
lul
lovers
lingu
naming
sway
##aution
##roll
##uette
##entice
##stick
stalled
pren
shipped
coma
notify
##ifa
spare
brien
allergy
nood
declines
statues
1965
1967
102
surgeries
defect
happily
162
walt
judged
restoration
##306
proclaimed
extends
interviewing
steen
distribute
freel
travelling
url
morrison
selfies
silk
opposes
curse
senseless
lacking
precaution
measurement
acknowledging
wilder
commitments
faithful
archaeologist
retrieve
naacp
iceland
satisfy
fetus
heightened
caucuses
sightings
exploited
levine
rabbit
culpr
fidget
thoroughly
ingredient
##ipedia
rouhani
sinking
##esno
oswald
autonomous
##ierrez
prefecture
nairobi
homemade
maerov
myanmar
archbishop
bib
ces
ding
fitted
gms
hoff
hockey
joking
kop
kham
ler
luk
mered
wit
xdr
##hin
##poon
##54
anam
##icap
##etric
##unct
unin
dehydr
##sex
spies
levin
arc
clips
grapp
groom
doj
eva
##elyn
##lical
bland
attachment
ende
locally
handing
handwr
sunset
17th
laf
salaries
armored
boarded
pageant
sexuality
##beit
verb
extract
predators
fearing
purse
slew
wildly
attraction
insurers
danish
550
aiming
rogue
jacksonville
spirits
weighs
matthews
reinforce
tortured
kurt
698237
mh17
outcry
romanee
eliminating
fragile
discharged
condemnation
disgrace
handcuffed
borrowing
hazardous
monkeys
portugal
arguably
kandahar
libertarian
graffiti
chaffetz
meredith
binding
diana
fah
gel
gotta
nan
niel
rous
##hift
##din
##bull
##911
##53
##wings
##edel
##orf
ink
##itement
trio
##occ
leather
brav
##inejad
disruption
recons
bugs
monitors
blasts
commem
##ovich
1940
##oller
impart
format
127
handler
220
artillery
terrified
distinction
varied
grandpar
divisions
makeshift
biologist
scrap
blockb
racially
bottled
analyze
destructive
lowered
rolls
faa
recommends
logan
##anche
quebec
##points
contested
katrina
##baum
gardens
microsc
cartel
battled
ferr
brutality
recipe
tapes
millennials
wrestling
recruitment
ahmadinejad
kazakh
nakam
supermarket
mercedes
inequality
unearthed
bezos
hi
kon
kos
mell
pt
pes
pse
rus
rode
##vance
##ao
##rad
##hoff
##iott
##bid
thwart
##ongh
##inge
##alous
##itative
##olar
fresno
chile
##unted
spam
crashing
mega
expelled
appet
peru
##avel
##ishes
##ensed
feather
prey
contender
##iator
implant
americas
##pless
confusing
protects
121
patton
slowing
137
refere
14th
propri
suspend
irrespons
mainland
identifies
solved
lloyd
candles
grows
mcl
malala
certainty
murdering
criticize
contracting
karlie
1950
gangs
novelist
ruin
hello
translate
dragging
exhibition
mammal
steadily
mckinnon
genuinely
skeleton
napa
caitlyn
cheney
separatists
recycling
peggy
tiffany
disprop
timberlake
schizophrenia
hottest
ace
cope
lanc
mps
mumb
mentions
owe
panda
vw
vall
##pd
##pool
##lock
##inis
##urer
shit
##thes
alp
constand
##iva
hadley
disasters
##avi
scare
mari
recounted
##ucts
securing
##onds
backers
deserved
governance
joh
smiles
airways
breed
condoms
captures
##enei
##redict
realistic
snl
snakes
terrain
socially
salah
solomon
copenh
economists
enters
stays
keystone
honors
809
methane
titan
trainer
shipments
hyd
quarterly
unpredict
derail
occupation
harassed
ventures
instructor
forecasts
withdrawn
tonya
698238
asserted
gutierrez
tampering
prostitutes
psychiatrist
invasive
seeds
adaptation
tumblr
whistlebl
pompeo
horses
shipwreck
artifacts
slogans
portfolio
disastrous
khamenei
copenhagen
2nd
914
aly
bast
danc
hond
hath
hamb
katherine
pg
pund
##dain
##arium
##alia
##elong
reaff
##otter
stall
shir
shov
wasted
withers
##opathy
spur
envel
herbert
compelled
preserv
recorder
interfer
##ovan
flaws
newsweek
116
minors
genoc
disconn
authorization
statesman
sung
mediaite
affirm
reductions
module
michel
salman
##ipper
haley
malcol
banfield
travels
professors
balanced
predicts
predomin
positioned
scottish
moses
occurrence
sprawling
regulated
suitable
rivera
egyptair
acquaint
eyebr
horrified
falcon
dismissal
ceremonies
calculate
lynn
dispatched
bonuses
worrying
branches
explanations
linear
bachelor
hijack
dividend
scrambling
valentine
dentist
incorrectly
orientation
shanann
bicycle
postponed
##modo
volatile
ordinance
disregard
gizmodo
bertolucci
cervical
pecker
filibuster
seacrest
pseud
irresponsible
envelope
malcolm
1st
bunk
dul
daddy
gaug
lips
rust
vand
vault
wig
##sk
##hem
##hole
##part
##kk
##zes
##wc
##esco
##arios
topped
##icem
stu
stint
##olith
trophy
unst
clergy
bro
crush
upward
cannes
appalling
marital
1966
accordingly
detr
directive
nearest
charts
operative
engines
devin
westchester
mccull
requesting
guarded
brewer
legislators
hallway
tribe
##break
villagers
surgical
objections
antonin
outright
sequester
liquor
satellites
deposit
escalated
disturbance
cousins
agricultural
neutrality
incorporation
distinctive
obstacles
feminist
recreational
corrob
sewer
inconsistent
##opathic
giants
gratitude
mitochondrial
samarit
susceptible
nusra
rhyth
cummings
pedestrians
disproportion
aster
bilateral
clement
gosp
kinder
lighter
nud
ost
rd
sark
##fax
##sch
##li
##zb
##once
##orus
##isco
rect
##leton
ston
confer
orb
brent
outfit
cro
upton
composition
##berman
##bermann
mons
curry
courier
##aha
boasts
authored
advise
marker
calories
convoy
aviv
geese
##naire
organizing
israelis
##itches
austen
rebecca
auditory
lighting
cellphones
favors
louise
respectful
inspiring
##ophob
considerably
presenting
##recy
peacefully
accusers
eleven
pulls
semitic
baton
dominance
frustrating
interventions
loading
marshal
appreciation
colonial
anxious
constitute
acquisitions
exemption
fragments
interfere
fortunately
mlb
explicitly
impairment
disagreed
contradict
##keeper
fundamentally
nightclub
wonders
sincerely
cement
curs
dere
fcc
hiking
kg
mig
ner
pact
pouring
##sd
##cation
##omi
##ionage
##stated
##igator
##cepts
neander
haj
unite
##abling
##iked
manages
drill
scul
blair
commands
##ensible
strongh
secrecy
schw
schock
109
##raught
guine
pressures
##azed
nationals
transcripts
calf
swamp
skate
redacted
comeback
shotgun
questionable
##tedly
limbs
heartbroken
keyboard
webb
competitor
stationed
90s
contentious
cooked
abdel
rhode
constructed
planted
ignor
scenarios
##24000
integrated
fashioned
sacred
vulnerability
lobato
sirte
abbas
boots
yielded
imperial
hughes
incompet
interrogation
ppis
input
flawed
wanna
cautious
alfred
intoxicated
appendix
obituary
legitimacy
plagued
hagel
patricia
hondur
bf
dome
ft
gan
ix
sect
vine
vog
##ridge
##had
##cat
##gio
##eday
##isers
##lean
##aden
##aders
##amucci
shine
##ocy
##ourt
##iston
repay
clown
##gev
crook
amn
kne
##ensual
##olling
indec
colo
insults
genre
slated
retained
tales
propose
artic
215
shootout
violates
extending
##enne
terrific
identities
moons
plead
freeway
questionnaire
denuclear
superher
immense
labeling
discoveries
murderer
halfway
erin
distraught
indications
##ommun
competent
psychologist
workshop
##araj
vacuum
freedoms
welcoming
unpaid
olbermann
##daq
shelves
duo
exclusion
##boarding
warmer
stretched
venice
kristina
recipients
concentrations
dodge
tolerate
mentor
plunge
curtis
jurisdictions
sovereignty
##human
796083
chanting
density
mccartney
hooper
orchestr
tractor
ecuador
steenkamp
witherspoon
ain
cater
cute
eleg
fen
hicks
kings
mak
rack
vint
woo
yang
##kirts
##just
tha
##erb
##oust
##isbury
sticks
203
leone
enables
herb
arpa
goop
willis
crust
griev
incest
relies
monk
blaze
1963
underwood
contrace
yours
milan
milestone
confid
confisc
advising
debuted
salisbury
potent
moines
furl
technological
awak
motors
problematic
spacex
fairfax
germanwings
inspect
inspections
punct
##hea
counterpr
photography
jumps
attendees
nasdaq
motorists
scaramucci
icy
forgive
tunisian
outskirts
fossils
supervisors
incorporated
diverted
strictly
##estrian
nikki
accumulated
merchand
inflammatory
ontario
hypothetical
prolonged
grandparents
preservation
guinea
gaps
lure
lah
mum
pst
pec
tempt
tender
wished
wrec
##mi
##laws
##zi
##jack
##enza
beers
heidi
shak
##osion
##usa
fry
chill
##agne
##oct
bypass
aber
offline
##aste
grill
amus
amort
dove
##anson
##quist
assure
knives
commod
##ulton
113
remot
15th
slaying
electorate
30s
advancing
149
bigot
explored
conventions
geoff
imported
performers
eventual
paltr
ideological
summar
negatively
circulation
castle
priorit
rapists
persky
boxer
favorably
randall
magnet
paired
dunham
dissem
raymond
cycl
interpol
escalating
poisoned
diluted
alterations
presumed
output
saddam
fertility
mosquit
dianne
stumbled
utterly
jamaica
sneak
horizons
vomiting
gorka
eugene
rookie
furlough
bac
balth
baff
cows
fiber
gq
gown
gator
hos
maz
nord
riv
sot
von
##ram
##ui
##inh
##orph
##icable
styl
##eta
##cht
hail
segreg
spont
##arta
offended
plight
grains
imaging
##ogie
##ogens
##assed
relate
##achi
themed
wrist
underest
114
airspace
##atched
harold
conceded
##atti
swast
humble
engulf
geophys
positively
singh
holt
shareholder
specialized
malt
superb
##incts
miser
accessed
apprentice
##lusive
biased
##ammer
cheat
avery
averaged
commissioned
##henge
colorful
utilities
societ
hypoc
stonehenge
neuros
fifty
albums
ferment
kilometres
masks
boundaries
uniforms
huh
ambulances
implied
vertebr
settlements
wolves
congratulations
gulen
decorated
pilgrims
gabriel
hutchinson
gosling
gospel
arpaio
paltrow
015
bae
cs
dunk
diox
fent
fats
fancy
gum
kits
kapp
rope
ya
##aque
##rix
##wall
##atur
##eslam
##itate
##ayette
onstage
##imated
shear
##mental
leigh
cries
crops
grammy
incap
##uber
##berger
accred
phd
##quet
##awi
carb
conti
schem
downgr
airasia
legion
edu
sunlight
reduces
210
classmate
illicit
injust
booking
freeman
figuring
eps
##umble
trader
tommy
fairness
turmo
turbul
shutting
offerings
precision
beyonce
hurricanes
bowles
counterfe
mattress
abdeslam
reactors
ranged
fraudulent
##1965
embedded
##ships
elliott
698236
mourn
reminds
bosses
highlighting
radaronline
gaap
preferences
mysteries
rouge
marginal
alphabet
inevit
allergies
bourbon
navigate
frightening
composite
carpenter
schwarz
insufficient
rebellion
dioxide
turmoil
cpr
ket
kra
ktv
liam
mint
pie
pup
riley
sop
sights
anom
##elman
##leting
##ayer
##adi
shelf
aligned
chib
chatt
unequ
unreal
##andra
seize
abol
leuk
newtown
goat
plains
amph
##ipher
upside
agu
justified
blake
invented
imposing
dems
teresa
poet
discount
governmental
123
157
issa
charities
138
swenson
southeastern
laund
irving
valle
##iffe
drugged
execute
260
lineup
camel
jealous
escort
practically
##holm
norman
communicating
remainder
degener
godd
surround
##regular
documentation
actresses
conflicting
reflecting
rainfall
corey
impressions
breastfeed
pumping
breaches
implants
unexpectedly
someday
unfairly
cosmic
rudy
gorilla
sincere
negligent
soda
masters
lonely
brigade
detainees
hormone
rutgers
czech
prestigious
wholesale
hilarious
laundering
pengu
maneu
hathaway
genocide
dense
hier
heter
lia
lining
mapping
pesh
rounded
sd
zyn
##face
##mind
##bled
##56
thc
##inement
##onal
##orously
inhib
priced
isil
shorts
##esta
suk
orrin
newport
proxim
grape
compuls
imf
perv
flan
1961
wrap
infiltr
118
endure
schoolgirl
corrid
irregular
geo
dealings
shortage
angered
rulings
legalization
diary
losers
borrow
enclosure
revive
disturbed
espionage
wrongly
lifelong
791965
negotiation
demonstrating
encourages
penny
samantha
tsu
consultation
consultants
nickel
kissing
motivation
huffpost
symbolic
tactical
equivalents
##screen
inherited
margins
intercepted
rendered
baroni
quoting
homeowners
constituents
yazidi
simmons
circumcision
1903a
resilience
subparagraph
nakamoto
sculpt
mosquitoes
5th
bah
dut
dicap
fount
gina
gerry
ike
mi
nost
qatar
vt
vow
vamp
zach
zimb
##found
##bir
##esley
tours
fores
##lyph
unified
twisted
completing
mayors
medics
longstanding
endless
124
readiness
handles
refres
##insky
judy
billed
searchers
denise
economies
kindness
mccl
##afa
##autions
divisive
admissions
dispers
safeguard
unlock
checkout
psychedel
creditors
precautions
bowman
gallon
1971
##worthy
paths
complexity
##122
counselor
royalty
splash
departed
suspicions
alternatives
correspondents
nutri
wikipedia
landsl
disorderly
vetting
unexpl
chestnut
implicated
scanning
tissues
toyota
salvation
fiery
excavation
tubes
molecules
refrain
enthusiastic
aldrich
delighted
therapist
wielding
fictional
inadvert
mumbai
unpredictable
dicaprio
cc
cake
hod
nad
oz
oaks
pour
rains
rushing
slick
tord
tires
ze
##mund
##968
##onim
ingest
##itus
##itating
##isible
regress
stacy
stagger
##usk
chips
trap
bylaws
sep
##abwe
cloth
crus
grasp
amc
amateur
pepper
disgu
scouts
emmy
##orman
##ondo
howell
##obs
119
womb
insects
airliner
discred
enduring
worlds
lego
patron
takeover
barah
delicate
transf
careg
prevents
greet
aval
systemic
extensively
marching
humane
##ippa
##ogram
##afts
hotline
nominating
misled
recognizes
preparations
undoub
seasonal
70s
roswell
imagination
apologizing
proceeded
693
parenting
semester
occupational
qualities
literary
dresses
promotes
wheels
supervision
chickens
gamble
predicting
emphasize
brutally
sophom
deficits
structural
subsidiary
announcements
exceeded
excellence
adequately
allergic
ancestors
incomplete
entrepreneurs
pyram
mistakenly
territorial
cyprus
cvs
serbia
zimbabwe
tordil
420
apt
gases
hd
lugg
lakers
siber
tended
uter
wax
zip
##sf
##making
##cam
##piece
thread
##atics
##icides
bets
sting
##ecd
shack
shia
alnd
albeit
chi
##emn
##ifiable
ars
##asting
clara
outreach
incurred
pee
expired
drif
drudge
prescriptions
scam
##soever
interm
intermed
1900
##icking
##ango
wrench
deprec
apes
insens
posters
playbook
filter
##ometric
sunny
skies
satirical
judging
procure
harding
covert
excitement
commenting
individually
discovering
domaine
celebrations
advertisements
loch
analyt
##rella
counterpart
blogs
patrons
housed
attendant
consisted
bandw
laser
containers
montreal
suppliers
bucking
dickinson
exploitation
fingerprints
intensified
optimism
afterwards
catastrophe
intervened
kayla
heathrow
barrels
ankle
embryos
sailors
unbelievable
evangelical
dzhokhar
ephron
telomere
809401
bison
bury
cans
dread
pors
pizz
paternal
rag
tally
tents
##ais
##fly
##hear
##moon
##cm
reimb
stiff
stairs
##olent
hew
##imeter
##thood
altr
unb
unrespons
##anto
placent
incidence
whatsoever
1944
obese
objected
##issance
writ
##arez
autumn
guides
demi
confined
##otti
barre
talc
charism
correa
markers
maur
farrow
sollec
sonoma
mckin
petro
diarr
scream
boris
reasoning
balloons
unfavor
undec
drawings
mailed
cooperative
screenplay
torso
synd
resisted
lucie
rowling
pedro
fifteen
evaluating
grabbing
bullied
neighbour
windsor
translated
antibodies
bruno
podesta
outpouring
##proof
shadows
##rahim
hindu
cobain
elimination
fractured
barricades
booze
overseeing
congregation
##32432
croatia
amnesty
amusement
zynga
luggage
reimburs
sollecito
4th
hollow
hints
lend
nause
vind
wo
##eon
##iak
##52
thorn
##alay
##otine
##owan
##amy
isi
shawn
segments
spilled
##astically
aclu
clad
plots
outgoing
outlook
grin
##iph
upro
upstairs
overtime
##kson
themes
##oye
##athing
lawful
remn
meme
confession
owning
fined
elena
slay
slap
##rique
retention
severed
maher
campaigned
saturn
##books
sniff
pais
announces
##atorial
239
solitary
moist
activism
mcgin
diocese
magistr
screamed
revoked
audi
improv
granddaughter
lightly
letterman
biography
voicem
analyzing
pushes
productive
sprint
defining
abdullah
driveway
unpleas
honoring
clarence
forgot
predictable
finishing
fishermen
sophie
liquidity
leonard
wyoming
perpetrators
kercher
reassure
purely
pearl
bergd
pediatrics
obscure
arbitr
##lifted
technician
ounce
jinping
adapted
##cephaly
veterinarian
bahrain
hemispheric
wilderness
kazakhstan
remotely
barahona
uproar
832432
bb
bore
cite
font
jagu
lax
mb
nile
sulf
##rit
##hat
##gal
##gling
##erged
##inable
##anyl
##alg
beacon
##imag
notices
exile
##ourse
spurred
enabling
newest
brend
incub
expire
disbel
##lices
##obile
currents
##arean
mines
endow
readily
handout
condom
skilled
staring
greene
victories
factories
involunt
populated
damon
entertaining
discusses
robots
auditor
iranians
musicians
mosul
unsett
ambitions
productions
productivity
##ascar
methyl
cookie
logs
kramer
ashton
mirr
integration
calculations
recruits
clarified
coordinate
retrosp
scarlett
ruined
tamir
cowboy
altercation
homelessness
stretching
podium
unwanted
snipers
rosenstein
garnered
exhausted
descended
recreation
enrichment
jeopardy
portrayal
demolition
interstit
ojeda
kirsten
surrendered
kappa
sophomore
buckingham
unresponsive
unpleasant
hs
klan
lud
lays
rocco
witch
##hart
##dock
##jay
##enstein
inade
##enth
##elberg
##lees
beau
beards
##imeters
chanted
trending
##ivable
##ods
abilities
##uds
usher
arise
##ibal
grades
peps
explet
disrupted
intang
sofia
scoot
emir
interrupt
reliance
##graves
myers
consensual
103
miners
minus
publicist
confinement
134
refined
metric
doctr
tops
steering
terribly
mustached
performs
##ograms
maggie
hostility
jeep
screened
misch
huskins
escaping
cultures
crosses
shutter
advises
princeton
cleanup
battlefield
advocating
cornyn
harmon
macd
traject
deriv
arabic
evacuations
champagne
ranges
scales
fluids
volunteered
duran
cycling
surgeons
achievements
tendency
fisheries
tambor
spinners
hugely
rigorous
awaited
quantity
inherent
##ebra
inventory
suicides
profoundly
statistically
##lassified
tattoos
knocking
duplic
unchanged
bounty
sympathetic
pioneer
gdp
rehears
concussion
arraigned
abruptly
disposal
html
predominantly
undoubtedly
inadequ
dong
fib
hence
jak
kun
rays
s1
tainted
ud
void
wip
wool
yen
##vine
##roots
##hell
##page
##table
##bod
##kind
##zen
##wing
anecd
##oui
##asma
##olk
##aco
##advant
##usions
ala
trove
##unner
unborn
deir
spat
sheep
gogh
##answ
manz
##awk
obl
indemn
parody
remorse
regards
surreal
confess
##ologic
needle
concessions
passive
skating
visibility
popped
organize
fuller
freak
treats
labs
##uffed
collar
honour
kimber
expectation
crowley
separating
budgets
slee
pretend
unsur
floors
rosenthal
extremism
sounding
proposition
computing
logic
submerged
papad
850
athletics
observes
soror
attracting
pedestrian
734
prohibition
elliot
698235
symbols
dilig
illustration
reunion
pierce
phrases
tangible
protocols
ibrahim
replica
diminished
varying
inexp
blonde
petersburg
uploaded
undergraduate
cafeter
blockbuster
appetite
honduras
chibok
aided
bil
buss
busted
fog
gand
gret
lis
tahr
vod
##ho
##like
##gles
##notes
##itism
##isman
##ilis
reacts
stigma
##ocod
abe
##abs
willie
cros
twc
overhead
blat
backdrop
johan
downed
airing
proves
relevance
edwin
1800
calibr
realizing
hospice
##ipple
##ruff
275
superstar
latino
generosity
personalities
sufficiently
multim
extracted
contributors
fatigue
mindset
checkpoint
379
developmental
prayed
##health
bidding
restraint
exercised
ashamed
gala
weakened
subscribers
rumor
barrage
infrared
tightly
apartments
besie
columns
sparking
bait
abbey
whitley
entitlement
maharaj
tricky
ayat
illustrated
privileged
pierre
minimize
proliferation
hijacked
championships
aquarium
ultras
algae
scrambled
enriched
tibet
bci
puzzle
paradise
giraffe
narcot
flickr
abnormalities
##razole
apprehended
unavail
fowler
laundry
proximity
porsche
tahrir
dock
fulton
hick
jog
kost
kins
lama
moll
yoga
##mph
##pable
##lich
##uish
##nia
##inally
##orah
##ilizing
##otle
forty
sauce
neather
unansw
seism
##icef
grues
ammar
incomes
##ogyn
presley
scoop
reclaim
monolog
quir
mayo
helen
courses
suppress
guad
discontin
##azing
arrog
continually
informal
retiring
internally
139
133
metaph
farther
alley
visibly
listings
arresting
stockholm
##forward
octop
labrie
commentator
embattled
travelled
animation
responsive
erad
futures
frontier
collectively
tomatoes
inspected
fatality
pretending
persecut
precip
missionary
graduating
flagged
premise
anonymously
oceanic
assessing
mixture
appointments
automated
rowland
egreg
dedication
durham
stretches
bolster
mutations
plotting
anticipation
conceal
forensics
riots
exceeds
dynasty
ronaldo
elevator
flexible
shells
courageous
proteins
ibm
impaired
disagreement
dynamics
pilgrimage
meltdown
outdoors
microcephaly
veloc
parasite
specimen
astonishing
enrollees
stimulus
inhabit
metabol
chlorine
fentanyl
bergdahl
interstitial
intangible
ayatollah
bates
cb
kph
lured
lush
pab
pippa
rol
rnc
watt
##vest
##07
##alc
reese
onboard
stub
##acial
prizes
##aments
shields
alv
align
alarmed
##chool
conner
chained
chorus
neat
##unc
##ivar
##ivision
unicef
sev
abus
repairs
arous
##antis
plos
##gee
gru
##track
##asso
blues
commissions
indians
medically
infin
imperson
betty
defor
discounts
discrep
finn
instinct
informing
barring
charm
sexism
payne
meng
artwork
systematic
irony
sanford
antide
salaz
smallest
##shed
burton
misogyn
trev
##umbling
trades
enforcing
martial
institutes
prediction
educate
snowfall
communicated
rapist
commissioners
curf
floated
alexis
sensation
touchdown
restruct
gallup
accuser
cooker
abdomen
casinos
variable
##glasses
savvy
interval
liberation
toxicology
nicotine
bombshell
otto
fragment
dowd
estrada
nunes
sabot
steinle
refriger
inserted
applauded
creepy
aldrin
accommodate
warrior
##enegger
umbrella
staunch
clooney
impartial
superhero
avalanche
narcotics
neatherlin
unanswered
gruesome
biod
baham
dip
dare
hare
ioc
jang
lds
pines
rude
tik
tying
tapped
yrs
##rine
##yad
##fts
##bone
##bird
##kers
thief
##atisf
##eno
##enas
##orated
##chan
chast
##ocate
exor
enrique
goers
##ichi
amster
drumm
appell
caret
overfl
monks
underage
buys
1155
rochester
apa
beta
colour
smear
finances
slower
setback
yorkers
teammate
johnston
payroll
receiver
##cribe
debated
viewer
organisms
collects
##shaw
##anners
mcatee
coupled
nonp
austerity
nominate
similarities
reboot
accessory
obsess
chooses
destabil
intrusion
chairwoman
independents
crowe
cheered
gods
##heit
surfaces
7938
cleaned
memorabil
teaches
counselors
derailed
heroic
1952
battered
praising
substantive
sequencing
calculation
pinpoint
embeds
ghom
dominate
shrink
delaying
loyalists
mourdock
stemming
lamar
kirby
nigerian
outsider
disruptive
interface
caitlan
leno
chipotle
midterms
nicknamed
insurgency
paleont
pontiff
inserting
livest
distributing
wfaa
betrayed
toppled
melanoma
fernando
intruder
alibaba
linguistic
verbally
monsanto
merchandise
balthus
antidepress
memorabilia
9th
a3
bam
cp
dart
hust
kling
kathy
nail
nodes
piss
sis
torr
wires
yong
##hap
##mn
##card
##bane
##kar
thy
##atz
aniston
toe
##isans
beir
##utory
heist
neill
##ulu
trunk
unins
##ellers
adr
adrian
brawl
crest
##ikov
manila
margraves
thanking
blows
decept
##ublica
##athed
paral
##inton
##oldt
##ryn
##raham
airlifted
defenses
publicized
courtney
playoff
159
slager
##ometer
goodman
148
sword
huma
propublica
avid
laure
214
stealth
interestingly
congresswoman
280
shortages
pubmed
specialty
ledger
bader
epip
screams
collector
choir
medicines
emerges
creators
##eshi
lowering
characteristic
hurts
troopers
##world
villa
royalties
attractiveness
straightforward
neurological
##marked
pledges
horowitz
lockdown
advantages
vaccination
mastermind
corpse
tyson
jihadist
narrowly
incentives
excluding
chanel
perceptions
emojis
inventor
reversal
fortunate
sodium
contempl
queensland
mathematical
obstruction
puppy
lanza
lecture
territories
humboldt
bikini
zarate
appropriations
miscarriage
indefinitely
remnants
unsurpr
papadopoulos
besieged
793833
330
3rd
bitch
cud
dale
fs
guth
jal
kre
laced
lauer
ng
pussy
ramb
sund
sasha
vivid
wald
waved
xinh
zaw
£1
##fman
##dc
##kinson
##jar
theod
##enos
inland
##icul
##elow
reince
pry
##owers
##igo
##chem
##opal
chu
##emp
##ouncing
##ulse
##pps
spiegel
newcom
goose
claire
allocated
thereby
##ignant
marin
emper
counters
##ucle
knees
invisible
decisive
1962
induce
##ulture
thrust
thrones
##rau
rover
roast
smiled
regain
airs
discarded
##minster
happier
barrett
##brook
##ospace
##entional
gloves
profiling
bests
listens
stockholder
stepfather
##tenberg
marketed
personalized
revis
celebs
practicing
illum
determines
greenwich
curator
recalling
navigation
selma
thermal
punishable
resisting
2000s
integral
qualifying
condemning
shroud
retrieved
prohibits
consolid
conception
taaffe
pharmac
unwilling
partnerships
gestational
leonardo
quantities
ethnicity
cohorts
obstetric
fortunes
philosoph
rejecting
colombian
bmw
dyke
cortex
improperly
shepard
looming
voyager
gazette
exonerated
dmit
rewritten
vandalism
dishonest
694306
merger
swimmer
hebdo
nielsen
referee
##olithic
mccullough
gatorade
injustice
schwarzenegger
staggering
endowment
amsterdam
ghomeshi
xinhua
7th
737
bites
dame
ebert
ferry
hipp
hogan
jor
lily
miy
pn
sx
tore
vap
wiz
yul
##rocal
##hong
##marks
##ci
##corn
##lib
##gone
##bands
##jah
##atri
##edo
##aser
##otion
beard
##ereo
trian
weaker
unhar
unjust
2030
abraham
reput
usc
afor
##antan
accepts
plasma
##ibu
presby
justification
blend
blade
##inke
autoc
demise
defines
breached
barber
calder
glory
turnbull
payer
watertown
judgments
salute
injected
builds
mommy
civilization
petr
mccoy
waits
austrian
##esterol
groundwater
motives
obsession
expressions
williamson
conditioning
60s
squir
browns
forwarded
cheering
recognizing
digits
dolls
49ers
compensate
reno
hamid
##4355
berm
mandated
feeds
cathy
variations
ricky
embassies
aspir
bullock
comprised
rumored
wheat
profitable
forgiveness
databases
transformation
dodo
bipolar
errone
overdoses
privileges
chaney
wolff
alberta
fasd
dysfunction
coincidence
avenatti
handcuffs
hormones
betray
inflammation
chewing
remedy
abundance
assailants
pivotal
microbes
cancellation
endangerment
supremacist
prenatal
hoffman
unequiv
diarrhea
curfew
beirut
unharmed
298
925
cai
gast
gub
hinder
iuc
kep
lil
mama
nug
nih
oven
papp
xbox
##aic
##rano
##pi
##iq
##but
##51
##onomic
##enport
##arus
ana
onc
sho
asym
tran
trails
##uman
une
##aints
dept
##iffer
##ifully
leases
crushing
dole
doomed
composed
phthal
##quin
##quis
preserving
##orship
premed
reminis
rooted
downpl
generic
investigates
00000
conform
idf
arrow
##renheit
continuously
afflu
payable
gunpoint
deborah
protested
costumes
davenport
funn
sandberg
lander
referencing
accountant
volumes
ladder
benefited
halluc
osaka
sensors
regulate
##friends
shipment
ratios
entries
##wright
achieving
pacs
freshmen
funerals
vigorously
bells
naomi
physicist
dubai
repealing
appreciated
reciprocal
pelvic
gilmore
hazards
rihanna
scrutin
demonstrator
tolerated
gestures
tasked
nashua
kalina
underwriting
inflict
whisky
pirates
carnival
portugues
voyage
distinguish
intimidation
bargain
aurora
dougherty
paralyzed
sommel
cholesterol
lactose
nitrogen
forcibly
freelance
fahrenheit
vintage
disbelief
734205
unavailable
emperor
presbyter
aa
cir
cues
cern
cps
dai
gyn
hank
hague
lup
lashed
rotten
sut
tuc
vas
woes
##🌭🌭
##oni
##oux
##ilder
##ilani
bek
staging
troy
sein
seab
##orton
spart
sparks
mead
meyer
##ansson
dried
caravan
recount
inviting
flop
flock
straws
1947
paran
##issible
##ementioned
schuette
roose
downward
154
slash
harr
charming
1337
189
behave
glen
##ernatorial
satire
reds
artistic
potus
##apeut
loser
camille
urges
burd
badge
grounded
iraqis
seriousness
criticised
matern
safeguards
garrett
persist
applicants
caroline
surfing
restraining
flagship
therapeut
carroll
olive
##oshi
controllers
swiftly
sickness
khz
luckily
dunn
owes
durst
supplier
archaeology
accompany
dreamers
kaiser
vested
dublin
pumps
levy
accelerate
podcast
unemployed
hubble
ravens
confidentiality
manipulation
gorge
doty
ancestor
accomplishments
borrowed
mcgowan
monteith
##hardt
vernon
noodles
culprit
degeneres
unfavorable
deforestation
triangle
aforementioned
gubernatorial
iucn
portuguese
avert
bode
cale
ely
fior
fitch
jfk
kt
koch
liar
meryl
ntc
niece
piano
sorrow
tut
tread
vogue
yeast
##fc
##mler
##iago
##db
##inas
##inctions
##atr
##anity
##itives
##idis
rees
rejects
##olulu
alumn
atkins
neural
trapp
##umar
##ctv
aretha
leah
##antically
clashed
##iko
agon
canter
##ffer
perp
perth
sox
blizz
##isha
quas
##yph
maya
indul
parach
##mani
thrive
desired
memph
discomfort
authoritarian
131
simulations
startling
startup
skew
propelled
receipt
212
raqq
steer
antifa
##atories
angels
argo
diab
episc
distances
##ographical
penned
turpin
ovarian
hacks
borne
piled
cardinals
rosem
graduates
construct
harmless
saleh
rangel
777
spectral
affiliation
pyth
battal
prominence
scarborough
munn
munich
kurds
cups
printing
embracing
spinner
concentrated
ltd
hooked
sediment
gadgets
aerospace
portraits
rallied
botched
unfolding
namely
deprived
hinted
fiancee
sewage
specimens
mummy
lennon
##steps
wendy
relentless
6304355
suzanne
reconsider
eyebrows
unstable
inadvertently
brendan
inadequate
manziel
vodka
unsurprising
maternity
episcopal
bard
baked
fis
jazz
nos
nucle
ouster
pens
ports
zur
##fold
##aney
##ionne
beans
##adan
##imi
##illon
choked
chloe
##agm
##umbs
##istically
leh
leilani
##ectomy
alligator
twitch
meghan
##iances
dragon
drills
peril
##ovirus
strained
contend
contention
1920
##group
dayton
daylight
indigen
everest
backward
guantan
centr
##undy
158
elle
slump
slurs
edgar
transfers
sunsh
30am
188
mafia
167
##affer
swir
chrom
viii
recorders
recept
rests
boyle
malibu
unclassified
morally
latimes
advertised
crises
honolulu
sherri
considerations
##ambia
songwriter
grady
bowers
oversaw
engineered
horrifying
trailers
methodology
dreamed
consisting
turkeys
ecst
ivanov
dunes
tanner
supervised
pools
endorsing
feroc
asserting
spinning
ironically
railway
psychiatry
sums
ravitch
catalonia
excavations
toilets
flavors
insulting
nuns
stalking
unsuccessfully
paso
incarceration
oswalt
minerals
encrypted
lingering
unanimous
unanimously
shulgin
reliability
forbidden
urgency
sanctioned
pundits
derek
confiscated
inevitably
maneuver
ikea
landslide
expletive
doctrine
uninsured
theodore
tucson
memphis
indigenous
guantanamo
dos
eats
gies
gue
gee
hull
hagg
kicks
mating
murs
pals
ranger
sas
tau
vander
##232
##inqu
##onut
##isations
##idth
bean
hepat
##irable
shatt
shred
wast
##chron
frenz
##estra
choking
##andered
dej
exting
orte
seam
arose
claud
gravit
twent
peop
disin
disadvant
intest
##awning
scor
buoy
overweight
monter
##acht
strive
strapped
##eyer
coel
contends
teet
##iators
backstage
throne
throws
warhead
##velt
defiance
##plus
slope
harness
##brand
videot
136
lett
esteem
realm
hourly
redeem
##erville
clearer
gunned
allowance
steuben
keepers
245
sonar
libr
sandoval
landf
waller
bloodshed
##enched
emergence
scrib
combine
brando
##rooms
santiago
premises
therm
mentioning
rodham
apologies
albu
lengths
motorist
proudly
dominican
honesty
ferrell
baum
conceived
patriotic
caucas
guarantees
coward
subsidiaries
crafted
constitutes
axel
forecasters
catalan
kerr
benchmark
clerks
mugabe
inclusive
abedi
bounce
revolt
gwyn
architecture
gdm
vikings
dislike
manifesto
kylie
chunks
mitigate
algorithm
rousse
johansson
samaritan
conferences
miguel
engulfed
bandwidth
altru
macdonald
egregious
bahamas
thyroid
sunshine
ortega
320
ausch
hens
lum
lago
og
ot
rider
ti
yi
zoom
##fires
##master
##cony
##due
##bling
##idad
reich
ono
##stown
stip
##olas
##acerb
forrest
##ecks
##iri
shen
shane
##thia
alumin
sailing
##chang
congest
ches
chunk
neo
trench
##agus
hait
unacc
208
202
2021
exacerb
suh
seaw
sped
arising
##quest
##oglyph
##aways
##avin
scathing
blvd
decree
quint
1948
1949
##ype
mays
daytime
addicted
impulse
supplements
vegan
mri
126
152
filters
slice
continental
##ysh
184
163
skirt
allev
171
restitution
restoring
datas
violently
antiqu
christensen
armor
mcgu
robbie
feld
cellular
fairy
balcony
fearful
fema
supra
checkpoints
unsolved
boxing
burnt
pulitzer
schedules
concerts
detecting
speedy
adopting
submission
prosperity
corners
variability
rickman
spectacle
devastation
enjoys
ghonim
rupt
cyberatt
##walks
bulletin
clinicians
hansen
depths
sibling
vegetable
bumper
corpses
fertil
opioids
predecessors
longev
lemon
ankara
lodged
distinguished
detonated
bureaucracy
pesticide
heinous
swallowed
looting
untrue
bystanders
keefe
rhythm
denuclearization
breastfeeding
fountain
##968404
insensitive
paisley
cafeteria
appellate
1155968404
sxsw
caihong
roosevelt
gwyneth
auschwitz
longevity
6th
aereo
bild
cms
casc
dud
gid
jed
jails
nhs
wahl
yu
yak
##dwell
##lave
##gerald
anes
##itens
##ications
rey
##urge
##eto
prud
heed
alison
##opia
churn
truce
abide
hasan
##ghans
ariana
cluster
resent
grams
complement
pepp
##actic
overly
overth
##eys
contenders
1943
##obar
##othermal
##weed
persona
arrivals
elton
slop
researching
metrics
caldwell
explode
lateral
testament
swan
takata
feder
greitens
173
2500
225
violin
popping
popcorn
distressed
##atorium
saturated
##anni
immort
diets
landl
initiation
morley
hostess
erosion
groundbreaking
angelina
fellows
telegram
practiced
combining
wooded
unsure
ambition
undet
merry
navar
darker
pathway
matrau
proposing
essence
casts
methodist
torres
tonnes
sarc
honorary
earns
lucan
contests
sequences
calculating
darren
barracks
dimensions
bolt
renewable
hazing
molly
pitched
enlisted
thicke
sidelines
extradited
cosmetic
stampede
premiums
##enzo
dwind
observing
gosselin
cheerle
paddled
declassified
relaxed
dalai
##folk
arbitrary
cunning
microphone
ponder
##querque
88810
whistleblower
bunker
sarkar
hajj
stronghold
miserable
foresee
psychedelic
procurement
sorority
pablo
zawah
pappas
raqqa
mursi
hepatitis
peoples
steubenville
albuquerque
9news
berman
dvd
iphones
jae
lame
nig
nond
nerves
omin
sectors
syph
wre
wink
##heed
##met
##beck
thigh
##inces
##onium
anah
##alit
##ouf
##isch
##ilm
##elight
##olph
##acas
##iga
##chain
comr
tribut
troj
##ivation
exited
plaqu
brok
polite
amusing
theirs
soaring
##actory
##avers
commence
tequ
##luded
showtime
earners
##argas
belarus
surged
poem
pressured
##places
weekends
boasted
idiot
##crow
headache
187
feds
greed
snub
modi
messy
performer
magical
latitude
billionaires
erik
encomp
contacting
enforced
dogg
designation
deliveries
disperse
##ommitt
punk
bombard
settling
influx
rosetta
grader
vacant
suitcase
museums
olsen
strengthening
sickened
lockheed
##rehensible
naj
naive
hoover
boosting
hawaiian
disagrees
axis
prolific
inherit
adventures
newborns
excavated
millennium
cinema
diminish
telecommun
penetrating
screenshot
hoverboards
homeowner
lazy
warriors
mongolia
vendor
stricken
atrocities
stuart
bigotry
counterfeit
pyramid
johannes
restructuring
rousseff
bauer
diction
dizz
eh
faded
niro
pem
pony
sully
vox
wesley
##cale
##eur
##pas
##dings
##las
##kal
##worm
##wives
##inarily
##isbane
stagn
##olta
forem
##amos
shk
shor
shapes
als
##illers
##oprazole
traction
##agogue
unfor
205
spared
spiked
herz
afghans
offence
bras
bracing
worsh
##ibo
##ibles
cripp
grac
upstate
accr
carrey
commuters
flurry
sergio
infow
schro
cola
1500
patty
slnd
slovy
30th
corona
141
swelling
gloria
##coon
213
amongst
sanaa
salad
secretive
romero
parkway
superstorm
banana
easter
financed
awake
collided
martyn
##ognito
combust
exams
##esha
woodland
##ainties
ensuing
scheduling
jewell
restrained
restriction
hyatt
encouragement
instrumental
##4879
ashore
torped
wide000
erickson
splitting
##2432
roundup
automaker
dads
ambassad
ivory
dressing
towers
transitional
clarity
coordinating
##comb
virtue
tunisians
uncertainties
stems
punching
dumping
hugged
riyad
prostitute
souls
diameter
desktop
chatting
gordo
##enzie
rahman
bogus
##manship
bruises
celest
viktor
mockingbird
jolie
admiral
intercontin
vibrant
pamela
proprietary
nudity
swastika
corridor
regression
693122
slayings
moisture
sulfur
ultrasound
monologue
dejesus
slovyansk
ctv
fou
fach
hb
hates
henn
ion
kens
kane
keller
koz
pint
rc
ratt
render
rattled
sids
vargas
waking
xl
yuk
##cely
##eong
##gement
##04
##⇓⇓
##inglass
##arazz
##alup
##ilon
##elm
ree
##urances
onlook
##stant
sto
stack
##ollect
forge
shab
shap
chp
nex
tric
##unes
##ivities
##akis
##akov
notre
##istical
adhere
##herent
##herty
branson
brisbane
##icht
crocod
incur
incognito
canv
acclaimed
phon
evade
appalled
scra
##sole
recounts
stray
##issant
infur
smokers
subt
norfolk
idlib
finest
harford
headaches
sunglasses
223
##formation
##cribed
valerie
seeming
hears
costing
##she
radi
simpsons
easing
camou
cambod
professionally
eramo
lowe
revived
##119
despair
replies
natasha
stormy
##orrh
finalized
creativity
halls
ambig
roller
influenza
machar
remembering
academics
soundtrack
tuned
thomson
trailing
battleground
advocated
toughest
disappearing
organizer
concluding
sickles
fluke
departing
deductions
grabs
promotional
clarification
shrinking
traumat
interpre
altar
endorsements
selective
colonies
assertions
coca
presumptive
reproduction
transplants
triggering
preceding
gifted
notoriously
phillip
persuaded
fuels
foolish
rahm
stereotype
gentleman
pirate
mathematic
carnage
mcgraw
stumpf
directs
discriminatory
exhaustion
##ubscribe
razor
unleashed
fitzgerald
trespassing
hydro
kindergart
elegant
vallejo
goddard
nostalg
wrenching
writings
magistrate
therapeutic
blizzard
battalion
syphilis
tequila
foremost
fachep
340
8th
aaa
deng
ebit
kink
lol
mes
mature
pains
sings
sands
tipping
wb
##aul
##felt
##hed
##bital
##08
##atural
##ouched
##idable
##starter
foref
isinglass
console
frig
##opy
cherry
comets
spa
sphin
##endez
brass
progn
yous
poles
##ipov
##tra
##ongo
peaks
marion
carne
invoked
cobal
quo
##amph
backgrounds
##eka
rooney
miniat
formidable
genetics
pooh
instability
directives
homeopathic
slipping
##otte
simone
simoff
147
146
calt
calvin
suspending
mush
avatar
streak
taxable
##ennial
blackwell
midway
kidding
criminally
angles
40s
supern
motel
##1191
richest
woodward
mayoral
mobility
##reli
trustee
controversies
regulator
exceptionally
hyster
definitions
punishing
##audited
paparazz
mixing
tayy
arabian
strengths
scaled
khal
occupants
dismissing
jenny
ringing
haters
mathews
rewarding
tasting
switching
ellis
concepts
loudly
thirteen
exhibits
extraordinarily
germans
rabbi
medalist
implies
outpatient
championed
validity
dictators
dopamine
restricting
disgraced
telecom
cynthia
brosnan
inconsist
encryption
purportedly
staircase
unintended
mccormack
descendants
acetate
annoying
geoffrey
trajectory
metaphor
obstetricians
presbyterian
seinfeld
shattuck
shkreli
ambassadors
camoufl
sphinx
cobalt
510
bitten
cnet
dix
fy
fibr
gle
jas
lacey
raging
sv
tat
ump
vang
wwe
##riz
##rock
##sec
##cus
##eep
##dt
##ju
##icr
rejo
whisp
##uri
##ady
##amas
shades
##osomes
congen
##esting
##oping
chua
neeson
haig
unesco
unaudited
##akable
##oda
spoof
offending
newton
##endor
outline
canal
monopol
likewise
inducing
newsroom
donovan
sche
registry
deme
elk
edges
authorize
weddings
##liners
169
##perform
realised
255
powerpoint
debating
midday
midtown
deval
50s
activate
damning
##ummy
408
connolly
legalized
radius
epile
europeans
screws
succession
bankers
paink
804879
scroll
entirety
surprises
blockchain
panicked
punitive
unload
positioning
loos
repeating
granting
detector
791191
papini
oliv
semin
strengthened
exposures
coffins
batista
katz
promotions
darwin
shrine
warranted
ruins
hayden
displaying
installation
kristin
recipes
mariah
transformers
strangled
wolfe
prescribing
declares
clifford
ernest
rebuke
tuberc
obstacle
parameters
hinds
##aggio
stirred
absorbed
lodge
ribs
unreason
upgrade
inconven
maximize
contagious
hilary
mascul
exaggerated
##oglio
eruptions
detract
ktvu
caregivers
arbitration
emirates
exorc
bermuda
spartan
tayyip
365
440
540
dsm
fax
hikes
kess
kod
kurn
mets
nir
pom
pend
poul
rows
sous
tad
tir
tass
tup
tysh
wt
xx
##vara
##lastic
##naires
##bard
##zok
##onial
##anol
inhal
##stra
##ols
##usp
frames
##estorm
##illas
##emore
##ulator
unoff
unrec
##andro
##ifier
orn
butch
##outa
envelop
sheikh
acoust
brat
brah
resh
residency
resemble
sayoc
grizz
##anski
expulsion
phony
##awar
apples
##avia
carver
recurring
assurance
firestorm
statutory
##oya
undergone
imply
schul
betel
joey
confron
156
paterson
annie
probing
runions
143
swearing
glitter
paypal
174
restart
raul
snack
watchers
irvine
openness
murky
##arkiv
mustafa
heartbeat
heartfelt
travolta
portable
hunted
lowell
revival
##ueling
guarding
balancing
dispens
philae
eastwood
livingston
melted
competed
handsome
recognised
undo
nova
commandos
documenting
touches
overshad
diploma
constructive
layouts
mirac
limitation
##quez
terminally
magnolia
rallying
1959
kharkiv
weaken
cracking
pedoph
cycles
dominique
bolivia
disneyland
upsetting
footh
deposited
exhibited
graphics
migrant
grassroots
omn
skeptics
hungarian
mckay
tackled
unveiling
shameful
wynn
helmet
rahim
undertaken
hiker
grenades
oriented
underscored
absorb
separatist
tierney
enrollee
golfer
overlooked
kcna
yonhap
nolan
titanic
amortization
peshawar
schoolgirls
nutrients
klinghoff
dmitry
premeditated
aluminum
infowars
intercontinental
tubercul
499
aes
ail
b12
bonnie
cache
eid
fences
gou
irene
jaden
kgo
kkk
litter
muss
nets
rasm
sigh
sock
taw
vans
vaugh
##fight
##hou
##made
##dad
##dna
##daily
##lag
##lance
thumbs
##onc
##esis
##aroo
inund
angr
tok
##itud
##itous
##omagn
##idt
beats
##stood
##adder
##eco
heating
##term
##tert
alaw
frapp
chand
chapp
##ocating
ort
##allo
armani
##omey
cla
claus
resusc
crib
amo
drum
preschool
carved
reconna
##inda
assurances
monarch
blu
strings
quipped
tep
medina
depot
depicting
highways
##raoui
colts
memes
airborne
defl
posti
##rof
instincts
151
slur
slab
transp
goodness
exploding
esa
esoph
164
greer
redempt
visc
##coni
##amese
validated
blackmail
administrations
sixty
texans
273
##afee
felonies
bombed
##uffle
traditions
multipl
banker
destined
behaved
criticisms
##holes
heavier
ensued
thankfully
##asca
sprayed
exercising
ramadan
reacting
springfield
lasts
1958
spanning
doubtfire
qualifications
compares
retribution
clarke
eldest
abandoning
bolton
emphasizing
guessing
##ahuasca
dickerson
enhancing
rigged
withdrawing
evolve
ayahuasca
unconv
somalia
outpost
sinjar
dishes
rosenberg
yemeni
javier
posterior
diamonds
whiskey
honeymoon
cynical
broadcasts
hitchens
cedar
concussions
censorship
aubrey
lansoprazole
staples
subcommitt
indirectly
prejudice
guerrero
ineffective
bfg
accredited
flanked
zachary
unexplained
placenta
undecided
voicemail
octopus
velocity
salazar
tranqu
fiorina
guevara
trojan
onlookers
carnegie
tyshawn
tuberculosis
reconnaissance
ez
ecc
ejected
fiss
huss
kom
piers
rite
sq
wong
##cor
##namese
##kat
##arin
token
##itations
##ombs
##omys
##leum
##ayor
##etus
##amins
shade
sax
##chy
##chin
chants
chatter
##empl
weary
unimag
deuter
spouses
##ghai
usgs
ard
ade
clog
plastics
yearly
outwe
crane
amassed
dood
allot
allwine
##ubb
##encio
disinter
##awei
marj
carly
invention
flake
preterm
secession
##oyer
parr
schett
desantis
##ahi
discern
finland
finals
##unders
elites
barker
##bricht
181
##hips
testifying
glow
vii
walnut
mighty
##ception
243
marchionne
mustang
holed
limo
malone
legalize
petitions
mccotter
initiate
labe
basin
burgers
summoned
misuse
borough
felon
domains
accessing
successes
multip
despicable
celeb
destinations
indicator
webster
cannon
analysed
amounted
unsubscribe
rapes
shuttle
insurgent
carolyn
##burst
transporting
defenders
pathogens
##armac
ruben
odor
diagnose
comedians
environmentalists
742432
hateful
coaching
integrate
commercials
broadcasters
cryst
pinned
rankings
ghouta
novels
mouths
installment
dimaggio
boosted
mutually
obligated
dialysis
##deen
reminding
fantas
lamented
concentrate
tearing
casualty
amput
huawei
vietnamese
jihadists
ravaged
salvage
##people
interfax
correlated
andersen
undertake
neglected
grenell
mantle
shanghai
porch
bicyc
guru
erected
morphine
patterson
gusts
##assee
subpoenaed
genitals
thunderstorm
excerpt
quarantine
whopping
lafayette
orchestrated
spontaneous
neuroscience
dunkin
schemes
intermitt
depreciation
lochte
involuntary
sabotage
deceptive
wahlberg
ebitda
outweigh
schettino
aq
bind
biting
cctv
eternal
hagan
iod
lighth
naut
pahl
rr
tin
vass
wm
wicked
##vn
##fw
##money
##ck
##eim
##pv
##bd
##eners
##orable
##arp
##ouk
##asaki
##omas
##ilation
##otive
##urvy
##olin
hezb
shaping
alps
fries
friction
fruits
neal
tricks
haired
##earney
exempl
byr
abst
goof
claw
plut
plaque
grind
graft
doherty
upt
peac
evelyn
soared
##avic
scurvy
carla
likened
relates
himalay
knit
invaded
flare
194
indie
addicts
wrapping
##reatment
schiller
thru
roch
##iewicz
##hnikov
##amai
airbag
deform
deflect
substr
countrys
provoked
provocation
provinces
wellness
misses
capturing
182
refinery
markle
##lette
percentages
mae
swam
southwestern
menendez
crem
billing
laos
258
224
powerball
safest
steak
injunction
organisations
295
310
marketers
marketwatch
specializes
mccon
moratorium
##lamation
closes
encyc
bloodied
bushes
assistants
emergencies
sherpas
visitation
indicative
turb
eighteen
combinations
cheated
ulbricht
loeh
dangerously
coastline
merits
preventable
419
spraying
jonas
##afta
rhino
begged
rodney
ecb
observational
beatles
kidnapp
planetary
insistence
afforded
jointly
deduct
darrell
nyt
suck
sucked
gambler
bacterial
patrols
tallah
andreas
698234
masse
stripes
dilem
scanned
jacobson
traffickers
jihadi
deploying
bunn
classrooms
havoc
loretta
renting
tumult
kathryn
scramble
lebanese
peanuts
bundy
resembles
frightened
mcgrath
embryo
applaud
rugby
rebuilding
buddhist
arraignment
renovation
reinforced
hwang
bystander
physiological
stockpile
worsened
lerner
dehydration
endeav
disconnected
acquaintance
asteroid
indecent
kraj
pervasive
hewitt
fontaine
kimberly
kostel
anaheim
riyadh
amoore
labeouf
loehmann
470
410
877
cue
dhs
ek
elic
goth
hose
hats
henson
lys
lively
lena
lsd
ming
mates
puff
pasc
qaddafi
ras
rift
vil
yos
##vette
##rical
##si
##ssa
##dn
##no
##bu
##kaya
##inan
##anas
##idine
betsy
##url
##urst
stellar
prow
##amar
##ecret
isab
itunes
##irs
shores
withstand
neon
##emia
unthink
##andowski
abiding
rept
engr
acne
brack
outburst
amyl
##ipeg
allah
inciner
expiration
##izers
##ptic
scent
marina
marlon
recess
overhe
knot
attach
flame
floyd
static
mayes
##itte
##ocker
infid
##ilyn
remarked
thriving
guild
smelled
defund
milton
config
camping
booming
servant
filip
slams
diff
retaining
keg
captives
303
glance
gloss
177
229
217
raft
taxation
visas
placebo
critique
sitcom
singers
executing
copying
masses
290
279
winding
portman
forcefully
complied
succumb
designers
biot
advertiser
##lux
norms
ully
lof
precinct
socio
mailing
renee
logged
abdom
karpel
instruction
attendants
olson
magnific
magnotta
brooke
1957
khloe
##1909
dissatisf
barbie
cartels
forests
satisfying
vests
rewards
ronan
downloaded
mercer
exploiting
hugs
perceive
outsiders
sidd
deception
exemptions
##slist
perpetrator
stamps
millennial
groceries
astronomical
buttons
namib
alexandra
tornadoes
grenade
simpler
rugged
mccarty
cryptoc
kiir
undermining
narciss
vendors
favourite
yanuk
injections
contingent
quadr
redistributed
mcnally
merritt
oyster
stoneman
cursed
neanderthal
ignorance
mckinley
jaguar
pepsi
biodivers
fischer
feldman
brokered
subcommittee
tallahassee
0x
a€
dh
foe
faux
gammy
jub
kov
laps
mch
mecca
nd
panc
reneg
tid
tate
vain
wiley
zte
##rent
##rera
##hm
##now
##betts
##enem
##enburg
##escent
##orie
oft
stacked
##oly
prays
##igm
shining
##ithner
##estones
chau
##uns
unv
unaff
##ainable
##ifi
seizing
##ourg
##season
hastert
repris
newfound
adolf
adhd
gramm
##iper
compost
compartment
inclined
peripher
marr
marble
##002
partying
relieve
monis
becky
decried
##ovanni
flipped
statutes
coo
contended
##oyo
schiff
remar
removes
ministr
warpl
arrange
153
slapped
passages
esqu
skipped
walton
paycheck
realities
antagon
geithner
##oxide
candl
arming
funnel
limous
homicides
100k
commentators
treason
vehement
##umbled
tvs
understandable
cleans
citation
greenberg
float
advisors
ensures
sensational
sweater
regulating
hype
constitutionally
papyrus
wishing
kickstarter
astrophys
containment
circumstance
spirited
triggers
christianity
supplying
##blue
reprints
vastly
wiret
dubious
snapshot
adjusting
scanner
nicolas
taping
hartford
tagged
craigslist
slamming
vertebra
hoodie
marrying
disgusted
hobby
dolphin
benny
avenues
theoretically
stereotypes
tibbetts
discourse
poros
lesbians
unrav
residue
undermined
kinect
winnipeg
assailant
hefty
forehead
squeeze
cancellations
hogweed
vickers
contagion
adherence
palliative
disrespectful
surpassed
paterno
handwritten
incompetent
sectarian
compulsive
petroleum
nausea
3791909
caretaker
livestock
squirrel
reminiscent
gorgeous
haggard
overthrow
immortal
telecommunications
torpedo
camouflage
demeanor
##itudinal
pahlavi
karpeles
cryptocurr
465
bending
benson
cott
durb
damai
fus
fist
jc
ji
jockey
juba
kern
lashes
liang
moles
nah
pavement
ripple
sender
tice
tuck
tarant
ubi
vald
vows
vagu
##vc
##rise
##yans
##film
##uki
##new
##zinger
##°c
##eras
thefts
##inational
##atable
##atra
##asa
##leased
bea
whipped
##station
##acanth
fork
##oso
saves
conan
##illard
##illary
##emite
##essen
##ivial
##akia
##andum
dea
2025
exert
exterior
sey
##abl
##apnel
##anton
clam
##ibus
outlines
##ipted
##encia
##quan
##activity
recapt
##kselberg
decap
192
1941
##olled
##ollen
currencies
##lude
depicts
descriptions
guat
downfall
##weather
regim
regained
insured
defra
vein
vekselberg
edmund
retreated
delicious
harming
sunk
concession
botha
runners
##rats
nightly
142
161
wallet
payout
recep
laud
extinctions
develops
journ
698232
freezer
costco
##annel
connects
freestyle
mcclus
totals
burk
forceful
erase
bored
lowry
husbands
multinational
deepwater
traveler
primetime
##yll
mindful
digs
curves
undes
branding
##heus
baggage
hye
beautifully
logistical
screenings
spotify
mirra
synagogue
symptom
spiral
canadians
##guided
evaluations
lewandowski
batht
lieberman
neighbouring
tragedies
youths
bono
gamblers
disciplined
prohibiting
anchorman
inquirer
lambert
accomplice
molestation
##roads
##repres
rabbits
liquidation
disruptions
undersecret
exclude
prevalent
moody
vitamins
mudsl
caitlin
cobb
restrictive
nutritional
airplanes
argentine
adolescent
swaddled
indoors
##theim
crawling
intimidate
bakery
abundant
mimic
intercourse
hefner
disapprove
intolerance
##iglar
addictive
gelhaus
lancaster
dancer
commodity
baez
charismatic
downplayed
caleb
coelacanth
haitian
alleviate
undetected
combustible
forefront
paparazzi
unrecogn
klinghoffer
hezbollah
countryside
kostelnick
amyloid
abdominal
biodiversity
mccluskey
undersecretary
830
bikes
cess
fd
fatt
giver
kw
kj
lenses
mund
ni
pag
pinc
rond
raced
rams
racked
sard
soma
tester
tapping
tidal
yields
zen
zig
ziglar
##rost
##clusive
##zinski
##jan
##inent
##arth
ants
touring
##ashnikov
##levant
##oliferation
sheryl
##ulously
hairc
dewine
##aby
clan
plaster
outd
outlining
crater
cane
timed
carmen
reconn
recollect
partisans
relay
prehist
stats
strzok
##reeks
191
1930
obey
indisp
showers
showcase
remake
##ugia
##ugged
colonna
suppose
defends
posture
busiest
finale
##ioid
elis
elbow
##photo
slender
slashed
##ometry
meta
sexes
bigelow
166
proponents
starving
realization
redef
25th
histories
populous
geun
geoglyph
50th
cnnmoney
footprint
malley
deterrent
basil
morocco
waived
compliment
roadside
revision
revoke
templ
collectors
periodically
envision
goldie
##keeping
destiny
louder
fatty
unsc
notebook
packs
702
493
bidder
trustworthy
renoir
cubic
##brecht
begging
willy
berk
memorandum
emeritus
chronicles
objectives
signaling
pyeong
wealthiest
barbec
scientifically
shrapnel
##7722
accomplices
taller
venues
tastes
lavish
dependence
toxicity
calmly
pronoun
pharmacies
rotating
forums
lapierre
deliberations
pillow
convenient
huddled
kalashnikov
kidneys
assignments
disagreements
deprivation
rendition
irrelevant
spectacles
d040
ascert
underscore
underscores
skiing
autonomy
brinkley
volatility
vicinity
technicians
energetic
stefan
burgundy
bribery
fluctuations
rationale
adulthood
overlap
frontr
outfits
mistress
infringement
kaplan
schmidt
russo
thwarted
wrecked
mcginty
duplicate
indemnification
blatant
dartmouth
pissed
yulia
alumni
inconsistencies
spartanburg
frappucc
ubiqu
journals
560
845
dv
daring
ego
fc
giles
greeks
hoot
jace
jind
jeter
kagan
noun
raff
rawl
tucker
upp
wart
yun
yog
##aj
##yah
##foot
##log
##gg
##tw
##bil
##bilt
##kok
##02
##eder
anita
##alam
##itas
##isable
##icter
##eley
##elets
reeling
beads
wholly
##adol
pric
##owell
wasting
frost
neb
##ocally
##eart
unilateral
dew
206
exh
exotic
suited
hassel
arby
brod
brushed
polanski
crafts
manchin
##berries
drastically
emission
commits
flashing
stricter
##iatory
##oban
##inkle
medi
helpless
showc
beforehand
smash
detrim
defied
finch
finches
slid
slut
##aughlin
conducts
internship
storyt
swipe
affirmed
possessed
179
convict
watergate
lauded
streamed
shoots
paige
debts
boyc
23rd
sixteen
messed
organised
denouncing
processor
equation
westminster
nonf
superc
arche
mccr
basal
hopeless
erick
misguided
roadbl
collateral
broadwell
benev
##ynd
admiration
##balls
approving
indicators
disposition
mexic
melton
325
unlocked
subset
curtain
drinkers
425
##henko
rollout
influences
bids
##ieties
faulty
countered
vacated
diner
acquiring
blueprint
tribun
bloggers
proposes
##onymous
##aptor
picasso
sadr
constraints
truthful
climbers
khou
symptomatic
contestants
pledging
gregg
barbar
##blog
enraged
tolst
intervals
disciplines
defeating
randomized
venge
echoes
bucks
obliged
motivations
escalate
whitaker
##namara
echoing
uncontr
electroc
rosenwald
preceded
wyden
##funding
validation
certificates
bergen
arsenic
congratulated
curtail
theoretical
penetrated
subpoenas
discourage
kendrick
upgraded
emmys
horizont
spearhead
bosch
bribes
reliably
retweeted
mccormick
misunderstanding
orphanage
reaffirmed
confidant
aberdeen
societies
turbulence
penguin
uterus
shutterstock
nonpartisan
unequivocally
vanderbilt
frenzy
mcguire
cunningham
foreseeable
johannesburg
kindergarten
unofficial
unthinkable
bathtub
jindal
520
alec
cider
coded
damp
dpr
ef
egan
gp
gat
gors
hut
hama
kub
kony
loun
lust
lase
lenders
mous
maus
rory
roster
tion
tull
tides
wille
xm
zav
##fun
##firmed
##hp
##most
##car
##bf
##esp
##oro
##orient
##itant
##ido
##ilight
##ilia
##reet
reiss
whal
onsl
##stones
stain
forged
##economic
saul
##chtheim
frantic
cheng
trag
trapping
trivial
wei
hailing
unreg
exiting
bye
orbits
spine
##arte
repet
##allah
##ustomed
##iawan
plotted
bres
brom
brighter
bravery
crot
crunch
##iker
twilight
peaked
timet
accustomed
disdain
phishing
scars
scoring
blanch
fliers
statistic
##aterrest
serena
##obin
lawson
lawler
typh
wraps
consular
thrill
caputo
smashing
##airie
##azer
boil
finley
protr
needing
efficiently
servants
condo
metre
metast
essex
sussex
swear
172
256
251
228
facto
snag
modify
classics
interviewer
steward
distract
antis
salem
protestors
laredo
crimson
procession
mcelm
malfunction
superman
canceling
ideals
updating
murderers
generator
sidewalks
focal
treacher
improb
dogged
extraterrest
turf
biases
practition
scrub
snowstorm
madness
unfit
nbc10
##inole
favorites
councilman
iceberg
substit
cardboard
trusts
cleaner
logical
villain
diagnoses
baylor
papal
##writers
697722
khalid
##icopa
mallory
yellen
literal
rewarded
##ombie
##walt
vetrano
cruiser
foam
pumped
##ocalyp
ironic
provisional
riess
janeiro
hartley
dustin
kardashians
snipes
illustrates
unveil
royals
divert
lori
manipulated
tango
covar
covenant
reservations
dwight
swinging
mugshot
astronomer
irrevers
paddling
compassionate
valentino
puppet
##angelo
crawled
gabrielle
cocktails
discriminate
inconclusive
lexington
caesarean
yankee
duffy
cumulative
paused
dismantle
feces
biblical
mclaughlin
shovel
affirmative
improvised
unsettling
mischief
inexplic
antidepressants
betrayal
gynec
harrowing
parachute
dudley
kurniawan
##omagnetic
unconventional
hussain
prehistoric
detrimental
mcelmurry
extraterrestrial
530
bung
cary
dazz
fisa
foye
iw
jars
kell
kitt
kry
kier
kara
lime
lending
luf
lomb
mers
munch
nintend
pim
qur
rials
slic
surn
tory
vowing
wint
##robe
##lies
##tles
##jour
##atible
ancon
##omayor
stif
steric
##ados
alicia
atrial
##illi
neolithic
##emaker
##agra
hauled
##igham
unman
unatt
exhum
spook
spoon
##oka
##arde
aca
brokers
##iba
proactive
##geant
crap
cramp
grisly
incend
##iants
perks
perimeter
thereof
scant
##assing
maricopa
deced
##ovo
flaming
##ensional
##ensibly
##eye
1933
##integr
donuts
backwards
##uges
belize
guam
guiding
smarter
demille
insulin
discounted
idi
provoke
playful
filtered
eliot
continuation
retains
##otto
##broke
numer
severance
greets
artef
risked
blackberry
stoppers
opener
debun
singles
bodyguard
holtz
llp
kinda
footed
footing
homs
homophob
heartland
superst
superfic
lineage
windsh
##igroup
##swick
misin
motes
circular
quicker
espress
guardians
citigroup
breweries
##askill
wildfires
recognise
characterization
##9999
480
psychologists
alcoholism
fleming
flechtheim
countdown
pathologist
recommending
dismember
krug
dreaming
sargeant
reflective
miranda
terminating
seminole
shelby
duval
kilograms
lucy
aspiring
ivy
spectr
cooler
harassing
obamas
drafting
scarce
translates
##monary
decreasing
cowork
brunswick
nigerians
tavern
dodd
awaits
wheeler
illustrate
gillum
gabe
##olitical
prescribe
solemn
ruthless
coveted
mosques
fulfilling
absentee
remembr
bmi
inputs
attributes
resemblance
discretionary
empowerment
recycled
revered
unrwa
mcgill
residual
pediatrician
##lifting
lexi
subdued
ounces
yankees
toxin
beheading
pharmaceuticals
chesterman
hastings
decomposition
adultery
outlawed
eisenh
vaginal
1940s
alyssa
shirley
crooked
sotomayor
heterosexual
sculpture
gerrym
discredit
siberian
intermediate
seismic
paralysis
jorge
receptor
altruism
federally
inheritance
congenital
redemption
dilemma
limousine
lasee
stericycle
012
398
aiding
bakers
binary
cull
dime
dugg
eure
ezz
fost
geller
jk
jok
jugg
mutation
mesa
poking
roc
ronnie
s7
sizable
tarr
tapper
tucked
vc
waged
wipe
zion
##hu
##psy
##iency
##lace
##nings
##bm
##edia
##ori
##anian
ans
##entin
##elly
##store
stash
prairie
isle
chore
chep
chores
trin
truman
##agos
##agements
##ainment
##anders
dee
##oday
abet
##isting
spun
reprehensible
leakers
##uddin
##iek
##ells
adele
clocks
clutch
brigham
crump
grimm
upbeat
peek
canine
manass
manned
##awned
drift
perugia
scav
scouring
mares
caric
overre
monumental
flung
strass
coy
mayhem
objection
donnel
consc
foundations
depict
rooft
apr
##ussen
joaqu
warwick
demean
defected
veered
##ashi
elias
nationality
setup
researched
metall
##affes
walr
realizes
standpoint
219
218
engel
##parable
koreas
blackout
ante
middles
policemen
501
singled
leveled
copied
##annah
hearted
radford
hostilities
sawyer
generators
erratic
summons
britney
felipe
##yrock
355
dailymail
rebek
breakout
totaled
martian
challengers
painter
fairfield
fairmont
conditioner
panetta
madag
garfield
dozier
greenwald
##amble
ensemble
catac
cataly
seasoned
sensible
##heim
##454
hurdles
roses
machinery
acquitt
ethi
hygi
hampton
7906
rodents
torment
ramifications
standardized
##ochs
1956
1953
dungy
brazen
##banks
jordanian
brianna
dominic
marcia
disclosing
foreclosure
laurie
installations
tighten
compromising
vetted
ipa
andreessen
##osterone
germ
bangkok
railing
hugo
##loor
ugand
rotation
unconfirmed
storied
anchorage
quantitative
meteorite
bumped
hijacking
java
disgust
fuqua
buttocks
smoothly
hypotheses
seventeen
seafloor
nikol
benton
ppi
sentinelese
livelihood
gwinn
mcgrier
moderator
celib
caylee
styles
styled
squeezed
abrams
contingency
fronts
microscope
derailment
baffled
##orphic
segregation
amphib
##birth
woogie
gandolf
guadalup
kepler
centrif
dataset
sousa
acoustic
confronting
unimaginable
krajnc
guatem
elisabeth
gorsuch
##ocalypse
nintendo
incendiary
espresso
hygiene
guadalupe
865
bong
cly
cush
dd
dn
dess
dach
fn
gcs
gavin
ips
jade
kare
lager
nate
ostr
oste
rin
tah
utc
zet
##vae
##rated
##cock
##cro
##comes
##pipe
##du
##bin
##bings
##word
##iners
##inburgh
##atan
##atus
##orthy
##itano
##elig
beam
beaver
stag
##veen
##ecoming
fraught
##illation
defer
2022
notting
noticing
oracle
##ourd
##ourished
spelled
##apar
##ieffer
##oku
clippers
plume
brze
willough
cram
crowned
ames
allocation
##derman
##ublished
manic
expands
drastic
##actor
marqu
##ileen
assists
monsters
invision
prefers
cohn
quiz
##oba
schre
##anco
belaf
autograph
housewives
insec
geneal
##vedo
camped
specially
takeoff
##riuk
eds
edinburgh
##otters
##anke
docs
testosterone
skaters
skyrock
esty
greens
sentiments
178
redes
jude
menace
proclaim
girlfriends
illus
sourcing
devo
238
moammar
analog
excel
massage
denials
denounce
anguish
405
economically
mcnamara
319
homecoming
##forth
prosecutions
travers
encamp
##govern
##iqui
multic
primitive
tomball
doubling
capitalize
cannons
versa
browne
combative
##exual
inspir
panthers
examines
decidedly
wildfire
subjective
commanding
faults
religions
doctoral
rubin
mistreatment
submitting
kellyanne
bayes
consistency
papa
ridden
skinny
strait
semen
sync
hawkins
morton
assumes
attractions
1954
commercially
neuron
neurode
luca
##gaard
sequo
katriuk
towed
stabbings
##utcher
frustrations
publishes
juror
laurent
installing
tightening
reinstated
listeners
hanna
molested
acceleration
crafting
portraying
unwaver
brussow
axios
rampant
sinister
polarizing
expenditure
accomplishment
motorcyc
reluctance
inexcus
spoil
barricade
moderates
unreleased
bargaining
sobri
subdivision
bothered
sokolich
inquest
jacques
conjunction
kangaroo
lulz
bravo
acevedo
disproportionate
ostensibly
contradictory
prioritize
hypocris
mirrors
stubborn
abusers
unaccounted
ominous
tributes
kinkade
##endorff
epilepsy
tupac
ailments
rasmussen
byrne
plutonium
siddiqui
vehemently
frontrunner
tragically
ancona
eisenhower
chepiga
trinidad
donnelly
rebekah
790667
brzezinski
5m
920
bree
banners
cors
cuff
capped
duct
ee
faint
foes
gently
gored
hires
heller
ia
jod
jamm
kv
kad
lair
lester
liters
nails
pounding
poker
rica
sald
vib
vets
wj
yor
##rail
##fig
##faced
##ht
##hows
##eous
##lene
##gow
##orical
##arn
##ouffe
##idian
whitt
stitches
fortress
##adino
wass
sage
framing
##uliar
##unts
##ivist
##andi
209
##odo
ores
reperc
leve
herd
afm
goins
plouffe
bragg
resorts
polk
grieve
grazing
dooms
##ogical
sof
scold
scaff
relocated
monrov
blument
bladder
commute
precheck
coer
coag
covey
firsthand
para
myri
lawless
wrath
consort
imposes
impuls
autistic
governed
demograph
insign
insecurity
centimeters
boiled
##roffe
##ixed
elaine
elusive
sliding
##river
editions
##crimin
barcl
sunrise
corvette
186
markings
##eworthy
susie
sharpton
satoshi
afflic
possessions
realise
waterbed
oppression
hospitalization
iris
engagements
cameo
janice
##echt
fullest
mcbr
freight
marketable
homage
nonc
causal
responsibly
waivers
hotsp
advertise
felix
varies
variants
totaling
baltic
aha
beginnings
philly
melaton
chev
heaviest
##ophen
322
woodroffe
ovation
##maid
ambush
persian
chicks
hurry
brandt
sweeth
kenyan
renamed
egyptians
franken
poorer
definitively
hairs
luh
terminals
honorable
erica
sheldon
springer
tsai
automobile
consequently
complicate
preparedness
unknowns
##ickson
skyd
conspiring
kissed
forestry
reprieve
silverman
dimension
finishes
tipton
sophia
sirens
stressing
fetuses
jerk
mourners
##cliffe
implicit
sighting
stemmed
theatrical
mammoth
mahler
##utsche
bathrooms
transferring
ample
oddly
hemorrh
elevation
reproduce
pillar
fascinated
philippine
gentili
bunny
incorporate
pdt
administering
latinos
mackenzie
helmets
liverpool
bourdain
nichols
triplets
hispanics
stereo
penetrate
jarring
folded
iqbal
dealership
fernandez
coronary
scouting
rewrite
rafael
epidemiology
enactment
##otheby
koran
handwriting
##occup
vertebrate
disguised
neighbourhood
calibrated
persecution
trevor
drummer
hallucin
redskins
perplex
tannerite
dictionary
reeves
cambodia
traumatized
unreasonable
detractors
yosemite
namibia
cryptocurrency
rondini
outdated
pyeongchang
wartime
unmanned
manassas
strassman
willoughby
hypocrisy
repercuss
blumenthal
melatonin
bj
belling
cote
cyr
ducks
epps
geys
jem
kot
kau
kourt
lent
mn
mowing
nina
oust
pins
sig
sack
sans
sotheby
tpp
tara
xvi
yosh
##oise
##oza
##aue
##rg
##ros
##fo
##fs
##mia
##pins
##iently
##lift
##nis
##tes
##411
##inged
##around
inception
inelig
topping
##entry
##ayune
bef
whim
whirl
##urable
##sty
##stat
stool
##igs
##amon
shouts
##thans
saus
atms
##illac
chave
chats
traps
haus
##ocino
##ako
##akr
exits
repatri
##abaya
offend
offences
arter
artery
adel
##ardi
##endra
ammon
manually
##ianna
pert
##avis
scour
carm
blink
commend
commuter
##ishment
193
##athom
parveen
dont
sylv
impover
##ugn
autobi
knowles
surabaya
presse
planter
postings
nora
protagon
playground
playstation
annoyed
slipp
handy
handlers
edged
##bron
##anking
teamed
gloom
proportions
viagra
176
ava
faction
oppress
rae
particle
##upts
##park
extortion
steered
employs
distrust
antip
victimized
policeman
235
mogh
generals
colleen
journalistic
angie
limp
heartburn
##forest
peta
augment
archdi
easiest
morales
policymakers
murderous
revamp
audition
customary
medicinal
apparel
divine
admired
allegiance
clem
contributes
estimating
brewed
rescind
panhand
australians
witnessing
##boat
shuttered
persisted
note7
##955
##flight
necessity
langley
seldom
crowdfunding
gradual
overseen
muammar
poorest
negotiators
introduces
computed
bobb
width
picayune
derog
derrick
rainforest
bernanke
semitism
kilaue
weakening
bradshaw
deduction
escapees
conclusive
73911
noticeable
dissident
batman
locking
maple
ventura
vaccinated
cartoons
resolving
##door
tightened
mechanics
bolst
selecting
jetblue
adamant
stressful
brightness
fetched
gmo
stringent
pigment
railroad
rigid
altering
exceeding
indictments
await
gillard
vegetarian
beltway
tailored
convened
cosmetics
fiu
reversing
handguns
mateo
##bourg
sparkle
klug
caval
cavity
motorcade
cinematic
jarvis
accelerating
mendocino
jeopardize
richer
kanwal
deteriorated
cerebr
inferior
stefani
gamers
glacier
kobach
misunderstood
ventilator
stephenson
endeavor
disgraceful
commemor
mellon
interfering
disproportionately
nerd
incapable
liaison
vampire
jakarta
discontinued
seventy
pryor
gastro
nugget
unsurprisingly
1920s
libraries
axelrod
martynenko
kgoal
fantasies
ullyot
magnificent
ministries
durbin
mudslide
timetable
kittens
gerrymandering
joaquin
madagascar
sobriety
monrovia
chavez
impoverished
kilauea
739116
610
bav
bamb
cumber
dared
ej
eul
eeg
gn
nm
nl
node
nsf
sow
sore
siz
uv
vending
wandering
yawning
−0
##fried
##pen
##dl
##dal
##turn
##bt
##zal
##je
##esi
##inges
##arized
inline
toes
##alach
##asion
##icacy
##ilst
##ilus
##elect
##otr
##ayen
beet
##stad
##oway
##imon
alon
alde
franks
fringe
##esters
##emate
triang
haunted
##eard
##ivol
unification
abh
##isty
repurch
##abi
##apenem
##ectives
adren
##endo
plum
plowed
bresn
outbound
crick
grapes
ame
agost
exponent
##pta
##awks
presiding
peruv
##avier
careless
interacting
overview
relear
relayed
##ovic
##ovir
stature
tebow
1946
##issan
infested
highs
##wayne
suppression
guill
downstairs
smwh
insin
termed
poignant
boos
millionaire
locator
handbag
handmade
differs
30pm
maure
swollen
skym
greeting
menoyo
strewn
211
systematically
devout
sonia
sonny
larson
congressmen
davy
marketplaces
libor
superiors
babys
diy
magma
optional
embod
portal
robbers
trey
roadway
accessories
##enchant
customized
improves
golds
islamabad
behaving
capitalism
biopic
castan
maddy
woodruff
amazed
briefings
packing
380
settlers
gatherings
influencing
##burger
permitting
mupp
fills
detectors
pathways
tuna
villavic
##mez
submissions
queue
oligar
planting
manufacture
ecology
ignited
fueling
praises
hanged
##iciencies
weaponry
warmth
sustaining
catches
leadsom
nygard
nydaily
bello
isolate
hoek
sticker
mechanic
hanover
desperation
inappropriately
liners
omaha
sedan
experimenter
##panz
disrupting
tailed
endangering
bubbles
feminism
alberto
reservation
tumors
smuggled
adversaries
rendering
cinemat
paleo
enthusiast
britton
sobbing
panties
buddies
schwarber
shulkin
staple
screwed
hulk
tarnowski
lurking
carcin
resurrect
apostle
dancers
kneeling
hosni
auditorium
cowboys
gretchen
crosby
multimillion
roland
a320
vapor
reputations
paranoid
nucleus
claudia
anesthes
##urgeon
pembroke
ortiz
substrate
warplanes
basilica
yogurt
mexicans
improbable
lufthans
windshield
misinformation
gwinnett
gandolfini
inexcusable
consortium
mcbride
luhansk
smwht
skymall
villavicencio
nydailynews
lufthansa
361
518
bian
biles
bisk
cbo
dl
dine
dink
dwell
dahl
ew
fum
fading
gail
hig
hager
jast
kud
lp
linger
meck
mikh
rath
rails
razi
tarmac
vinson
wii
wandered
xia
##rase
##roy
##eagu
##loo
##03
##waves
thaw
##ativity
##arts
toured
##isy
##asher
##icular
##idious
##iderman
beare
onetime
forster
##adam
printer
##amil
iter
shamp
alum
alask
atoms
conve
##embers
##ivated
##ivik
unhealth
unmarked
notwith
##odden
##orean
leased
herm
arbel
adorn
outing
grig
upwards
img
imbal
peas
##oused
disorient
nook
presided
perdue
marvin
marburg
recuse
ems
##asey
assemble
invites
strokes
##gro
##grow
curricul
myspace
##itional
##inted
##manus
scha
throng
courty
belle
beleagu
guang
##wealth
regimes
defective
centrist
breivik
pataki
nationalists
edison
informant
barret
captors
simulated
photoshop
##ewater
maver
waterfront
##cester
menstr
billings
risking
shooters
hospitality
untreated
classical
socks
antenna
##teenth
devote
secretaries
bodyguards
kidman
##ported
stepmother
larvae
fung
malik
262
staffing
##arsity
burbank
badger
misrepres
enclave
audrey
periodic
extrapol
silva
seekers
intrusive
##201
examinations
garland
attribute
preventive
psycho
darkest
originating
trainers
lifes
negotiator
wilk
torch
controller
kidnap
tsipr
mentality
lindquist
hangs
hangover
diversion
slightest
bullsh
mcdowell
empath
mountainous
towering
neighbours
rumours
##eldorf
vigorous
nyse
necklace
predictive
adoptive
watershed
translator
decreases
##aminophen
mourns
carlie
structured
unwitting
rotondo
outsour
scotus
warden
collaborative
somber
sidibe
mckee
perspectives
reunite
gibbs
inherently
supplemental
harshly
skulls
regretted
horns
manipulate
naples
algiers
imperative
bergoglio
wrestler
enterprises
smuggle
briggs
stumble
jpac
parishion
##zhou
cadillac
mathematics
bruised
merchants
alfie
weaknesses
heiress
binge
disparity
farewell
demolished
solicitor
looted
mishand
nagasaki
humiliation
redistricting
urgently
braun
bracelets
humpback
pixar
acetaminophen
degrading
excerpts
cesar
hijacker
skateboard
articulate
contraception
peculiar
nordstrom
carbapenem
retrospect
inhabitants
guthrie
pnas
dolezal
sommelier
cpsc
ferocious
landfill
prognosis
poroshenko
frappuccino
tribunal
eureka
nottingham
sequoia
unwavering
coerced
barclays
repercussions
kourtney
ineligible
derogatory
sizemore
adrenal
tsipras
395
399
460
bounced
dst
dines
dudes
ea
eerie
hugging
hpv
joker
lut
lows
mace
mau
nast
rq
varsity
wc
wob
wada
yam
yust
zoe
zinke
##oor
##vell
##aism
##aele
##sher
##lain
##gled
##uh
##uper
##bill
##base
##bee
##xia
##wire
inhuman
anterior
toaster
touting
##isel
##enting
##entric
##elad
##leigh
whilst
stout
##adena
atv
frail
frantically
chech
comics
##ulus
tril
##aga
##agh
weights
hailey
##unity
##ocial
##ivirus
unru
notifying
orc
aback
spiders
spawned
leopard
herring
##ecting
ari
brides
brophy
bramble
resides
willingly
criss
crescent
doom
agence
##trick
mango
expel
evap
soaked
##aceous
carj
##ilee
##urrent
overcrow
staten
coerc
##ampo
impending
desirable
roaring
houth
evenly
downturn
longitudinal
lookout
boogie
##unda
locks
elij
patten
annot
##weeney
missp
##itsch
delinqu
harbour
harlem
nightmar
fourteen
glas
glut
glowing
sharia
redirect
judaism
gunn
hardc
##prom
pastors
debit
232
holcomb
##shoot
407
armour
mcgee
mcmanus
kindle
##roph
heartbreak
legality
immers
commonwealth
commenters
roberson
generates
##iquely
grandma
espino
admire
balan
approves
cannibal
biometric
separates
materially
averages
madd
##619
packaged
abc7
vanilla
senses
precurs
graders
contractual
ethic
ethos
ethyl
login
580
rhinos
blooms
licence
rods
cornel
##124
dermat
rainy
chapeco
bernstein
sampled
savannah
rowe
festivities
lewd
subscriber
resigning
towel
barbour
mastercard
lobster
newlyw
jammed
lavo
innovations
colonists
boundary
punches
upscale
huang
ayala
tags
mckenna
##ibrand
discriminated
extradite
authentication
unheard
trademarks
nuanced
sustainability
congratulate
slideshows
insulted
replicate
fiercely
unlawfully
exchanging
beneficiaries
tumbled
navigational
undertaking
evidently
pasadena
fracture
lobbyist
cautions
mullen
euthanized
topple
##oscient
bingham
mpaa
exoneration
laptops
micropl
mitochondria
toothp
renovations
stimuli
chimpanz
rajoy
umbil
##patrick
plummeted
coughing
sacrifices
paternity
chalk
implanted
gauges
awakens
shaky
downgraded
epsilon
anomaly
maurit
wiping
epipen
worshippers
wide00012
kensington
infuriated
claude
elicited
infidel
candlelight
vaguely
regimen
benevolent
superficial
acquittal
demographics
peruvian
mikhail
raziq
notwithstanding
beleaguered
elijah
espinoza
011
635
860
ailing
baking
beng
cin
cis
cels
fend
fade
gy
gosh
ginger
hq
jes
jop
kamer
lec
mou
nk
ness
nance
nissan
pave
pestic
pelle
sweeney
taps
tilt
tighter
vr
vort
waff
ying
zusch
zeta
##oit
##oated
##ye
##fred
##hall
##houses
##mus
##mag
##ieth
##ti
##tures
##bear
##360
##zn
##xi
##aturity
##orad
##aniel
##anza
##aru
inaction
##itkamp
##icus
##ilot
beit
##urized
##stead
stare
foraging
prok
promet
hems
heitkamp
asper
##osome
aloud
alright
sah
ats
##chuk
chilly
trolls
unic
unner
##oductive
##arten
##ustered
usb
goog
##heres
clis
bray
##ichita
##ipiac
doyle
comptr
##iza
draped
appalach
perris
##aval
##assium
mara
maroon
marlins
caracas
emit
emerson
buenos
knicks
flatt
flowed
flirt
feas
quentin
serna
parano
infused
surging
aires
locating
elm
probes
slots
##crunch
putnam
harb
runaway
##atte
glitch
southbound
waterboarding
crev
227
clears
248
242
##text
devos
solynd
clintons
potassium
moz
socialism
coping
yeti
mcga
265
libyans
largay
landown
commenter
embold
cambr
waver
suffolk
jeze
encelad
rebuffed
variance
volt
crisp
broadband
##655
understandably
selfish
silently
scripts
rescuing
competitions
chemist
unfl
unfamil
hallie
benign
greenville
##flower
modeled
worded
utilized
guyger
psychosis
sensor
##untled
spreadshe
lifesty
muir
clinically
cooke
connector
581
screengr
abductions
weld
nonex
apologizes
waitress
samson
ridley
rogen
8501
willingham
hawes
ivana
spectators
astronomy
lieu
teddy
##hries
dispatchers
retro
blasting
resolutions
sweeteners
swims
escalator
##gregor
germs
guts
dilution
lamont
expansive
banging
vigilante
optimal
hammonds
tanker
pornographic
lyndon
tagging
cannabin
gillibrand
dictated
leaned
inflated
deserted
ernst
skeletal
ninety
tangled
feminine
interracial
juveniles
masturb
##humane
upright
slaughtered
premiered
disgruntled
sweatsh
gentlemen
baghdadi
mendoza
inexper
quotas
sneakers
tabloids
kuwa
heirs
pattinson
wenner
##zyk
quinnipiac
arguello
yanked
overlooking
wendi
conveyed
beheaded
forfeiture
metabolic
supremacists
annexation
bragging
humphries
worsening
glorious
unmist
vagina
microscopic
hamburg
acquaintances
corroborate
stylist
ketch
jealousy
mollie
refrigerator
revisit
erroneous
affluent
burdens
ktla
swirling
wastewater
extingu
teething
resentment
commencement
accrued
frigid
poultry
tokens
alawite
marjory
tumultuous
vertebrae
immortalized
tarantino
ubiquitous
barbaric
onslaught
duggar
lagerfeld
scaffold
slippery
cerebral
curriculum
celsius
joplin
pesticides
zuschlag
solyndra
jezebel
enceladus
unfamiliar
lifestyles
411
525
660
640
bounds
dap
dull
eater
fx
fms
gland
gale
jb
kol
mk
mital
nell
null
nafta
ola
pb
penc
pork
penchant
ria
sz
tian
vile
vista
wack
wander
yacht
zas
##oan
##vet
##rik
##hma
##mith
##pc
##lio
##ng
##100
##xed
##wear
##jillo
##eret
##atism
##edown
##icothe
reapp
bev
##urities
onoda
##etamine
isot
hee
shun
shaft
shaffer
congl
fraz
fragr
fraternal
##estically
##opl
nept
##emakers
troll
hab
uneas
##andy
noteworthy
seym
abidine
sporad
leices
newer
clich
closs
ploy
braced
brunt
outward
sayre
gram
groped
upi
compel
manor
manit
disav
intuit
evid
evie
perj
marx
recap
##indler
overc
monet
bloss
blended
inval
decry
##ensity
coch
quakes
contamin
sera
196
indy
schatz
highland
capy
rohing
##vernay
##hne
gupta
downstream
reggie
insanity
companions
airbn
defections
deficiency
plano
##plan
##ieri
boz
prototype
needles
handsh
barking
wedge
transgress
##brina
concede
##liness
30k
caliph
prevailed
mao
glue
propel
wali
avian
irbil
pointless
pops
employing
sourced
keeper
pastry
debacle
##whe
##white
buildup
boyette
romaine
285
limbo
mccaskill
bashing
ideation
optical
moreno
##denko
burials
awry
summers
groundwork
martyr
grandpa
crimean
veron
divul
tomah
balances
predatory
squar
educators
##etermin
melomys
supers
legislatures
attracts
##105
okla
titus
muk
##ufe
mattrick
007
bulld
screenwriter
rhonda
odessa
progressed
##438
casually
krup
welcomes
trait
meaningless
ramos
moonlight
##anooga
mileage
evacue
duvernay
climber
doubtful
complicit
lesions
bleak
trujillo
wheeled
stabilized
stabilize
shrunk
##cheduled
novelty
ruiz
jamal
fisherman
patriarch
transmit
exploits
dumpster
levi
roofs
hammond
hammered
jacobs
dusty
##ilitating
robberies
steadfast
sinatra
mockery
cassandra
notoriety
reassuring
confeder
tempered
lorenzo
muddy
undercut
fulfilled
tuare
obscene
fools
astounding
whisper
nicholson
steinh
furnish
bethany
enthusiasts
harambe
hitchh
taco
paradox
remedies
seaside
granite
caesar
caesars
glaciers
relentlessly
execs
categorically
swimmers
carcasses
prevailing
glamour
whopper
dehydrated
dulles
rusty
orbiting
chillicothe
underestimated
##aturated
chattanooga
ludicr
discrepancy
misogyny
adriana
newcomer
aspirations
ecstasy
gravitational
monterey
miniature
kessler
inundated
angrily
crystals
prowess
vengeance
dprk
encampment
inspirational
sweetheart
davydenko
courtyard
lavoie
microplastics
prometheus
mcgahn
mitalipov
conglom
leicester
airbnb
2c
415
769
bick
bier
cme
cinder
ein
eaves
fons
fisk
gt
gile
hess
jaws
kail
lass
mok
mald
oops
pensions
qra
rov
sos
tt
tails
tammy
vouch
wichita
xavier
zine
##hh
##pes
##pace
##dele
##eri
##erra
theo
thes
##arc
ingen
toast
topless
##icist
##omics
##iland
##rems
##elage
rech
##oton
##oting
##otting
##urious
##story
##statement
stoked
preston
isps
##irk
##thals
sap
##estown
##opioid
##agher
haugh
##earns
uneth
degrad
deangelo
##odus
exodus
##orting
lea
##ieu
enlight
adorable
##iae
clive
clinging
plumb
worsen
outset
grilled
dob
agr
meade
phases
nobles
##oger
##ogene
prescott
soot
scuba
marilyn
emitted
buch
blm
##ucous
coaster
##ornis
wrig
consul
schieffer
1033
depiction
beltr
roar
apocalypse
warc
warships
demo
demp
##ahon
##roiled
millionaires
elba
##antsev
talents
northbound
309
corb
183
sexting
skype
propensity
taxed
distractions
distracting
blacked
hardship
##prin
##prod
moe
candle
##annister
315
312
palij
specialization
26th
nonopioid
prosecuting
embroiled
morse
hotter
birther
misery
angelo
conservatism
circled
##beh
msf
msu
constable
flyers
verse
garza
mosaic
recognizable
presenter
mountaine
attribution
textbook
selena
hurled
70th
patrolling
hypers
dismay
houser
prosperous
comedic
unpublished
derided
skinned
registering
050
scaling
nicky
techcrunch
gangster
batali
lyon
nutter
bathing
rumer
vigils
reprim
litig
elders
disclaim
anticipating
kilometer
baj
fetch
whitson
gerard
toddlers
retirees
coconut
daunting
prosth
cuyah
niche
cognition
hooded
schneiderman
fertilization
landscapes
imperfect
##hlman
ancestral
salmonella
dysm
coincided
chefs
scholarships
fractures
sacha
bruising
obstructing
ribbon
lobbied
kazantsev
creep
densely
nabbed
deterioration
coding
undermines
cedro
intoxication
jaime
sfgate
francesco
toxins
anatomy
philanthropic
tyrann
merrill
insecticide
grappling
vallum
neanderthals
underestimate
vertebrates
01558
incapac
chatted
abolish
dickinsonia
derivative
obliv
cbp
arousal
philosophical
funniest
python
daytona
lettuce
fellowship
najib
shapiro
monopoly
intermittent
vassallo
encyclical
peripheral
barbecue
raffaele
storytelling
horizontal
irreversible
metallic
ugandan
celibacy
guatemala
belafonte
wasserman
doomsday
myriad
archdiocese
bobbitt
bullshit
glasgow
vortex
comptroller
screengrab
neptune
seymour
rohingya
degradation
cuyahoga
570
778
723
bord
bsa
coke
etern
eileen
ferv
fuzz
ks
kett
lig
lous
lana
lopes
mv
nec
nau
rife
sement
vx
wagon
yik
yufe
##vation
##aels
##rens
##yre
##fin
##meyer
##gre
##tu
##bot
##bra
##kc
##kg
thien
##eroy
##inelli
##edience
##esda
##arious
##aracter
inhumane
anadol
##isure
##ompt
##iden
rethink
beware
onion
stitch
stamos
##americ
shank
shrew
shaming
ascent
##osl
ald
alas
atf
conrad
##estrial
##opo
##opian
##opolitan
chet
##ounty
##oclastic
unres
unmas
exon
aborted
leaker
##iever
useless
##ellin
bribe
brisk
worms
resett
crab
craving
##ageal
peach
phy
phant
scoff
##urrence
overstated
monoxide
blister
invaders
strips
query
##grown
mylan
evergl
backbone
bellev
apar
mined
joanne
smyr
defectors
##azy
busch
confided
confessions
boon
##media
provoking
nearing
##iolet
legends
annapolis
slack
slov
harley
refiner
##rata
calorie
##989
stared
starvation
profiled
1700
menlo
##cox
billboards
##303
snar
snipp
modifications
classify
sanit
terrestrial
241
programmes
geop
situated
organism
halting
excuses
288
mcgregor
ruler
nonstop
radcliffe
reviewers
morality
morgen
referral
domestically
rebound
volley
audits
multivar
marty
natives
primates
melvin
333
##202
5000
ladue
benz
432
375
##rects
mobil
vanessa
sprink
salesman
bowling
tribeca
##breakers
horrors
acknowledgment
progressives
adjour
exercisable
##121
854
bonded
bonding
eaton
##glia
establishes
politicized
1951
automakers
neuroscient
volunteering
taboo
mcdon
empirical
dissip
advancement
##ozy
jayme
tanya
##ohio
hoard
icu
anchors
anchored
siri
motivate
destroys
foil
cardiologist
gilad
muscular
graveyard
bedrooms
dolan
tycoon
ridicule
strangely
tremors
conservationists
wisn
jeanette
suvs
rosenbaum
fascination
sheds
shedding
taser
dividing
intimidated
manipulating
suicid
tracey
feminists
browsing
sketches
caffeinated
bursts
cherne
bethesda
diminishing
stumbling
accumulation
aux
purporting
distributor
hoverboard
bundchen
puzzled
brinkman
crawford
intimidating
anthropogenic
##lenburg
therapies
refunds
galvan
soliciting
swallow
mummified
infert
exhaustive
yazidis
croatian
stairwell
jacqueline
philanthropist
cougar
dismantling
kamala
lymphoma
resurfaced
commemorate
marietta
ignorant
grievances
turbulent
unrealistic
hierarchy
pizzas
spatial
tibetan
neatly
##chemical
oncology
phthalates
daiichi
videotaped
zawahri
kozinski
dictatorship
visceral
filipino
mchugh
fuselage
mundane
##arthur
treacherous
remembrance
fnirs
gcsb
mecklenburg
hemsworth
paranoia
perjury
eavesdrop
gilead
##remski
unethical
hypersexual
sementilli
everglades
bellevue
smyrna
biss
bashed
cen
cog
cpl
cages
dots
dae
dickson
elicit
fencing
fonda
gerv
hives
hof
iz
jos
kant
kesha
klux
lott
liner
mante
nhl
nws
ply
sill
sinal
tink
tetr
yarm
##aith
##yen
##sies
##hurst
##dick
##lair
##gary
##gang
##number
##ни
thur
##inty
##orth
##anos
##anna
##aren
##aretz
toled
##ayo
beek
stard
stained
##utive
##olt
##acuse
##aday
##adata
##adorean
atp
##chio
cheryl
wept
haaretz
##andre
##andest
notch
##see
spate
repaid
leisure
herpes
clusters
clandest
broom
polished
upbr
upended
agony
mankind
disarm
eviction
soyl
scors
scorn
scape
marissa
emil
asserts
himmler
##uca
invitations
decimated
stras
coasts
##aterally
##orne
1938
workout
underp
conserve
schi
backer
deplet
downhill
longoria
discreet
milne
milano
providence
neared
##etsky
filtering
lifeguard
patsy
souven
bark
barri
barbs
rightly
304
reflex
metadata
startled
swirl
swarm
leftist
turnover
sharif
takedown
syracuse
judgement
receivable
businessmen
216
snacks
sanitation
greatness
juarez
moch
##byn
lara
##show
custod
filmmaking
mcch
entang
leary
archivist
mccone
mccabe
managements
complains
borch
bloodst
##neau
rebutt
varieties
moviegoers
deepening
espy
pollock
pollster
admon
##ylance
doubted
foxnews
##ethyl
combating
combines
respecting
madele
pricey
amazingly
##409
378
##amba
##953
bombarded
424
illegit
catap
vanish
commanded
bowen
compensated
learns
lifeless
pathological
maturity
speedway
hypn
mistreated
raters
welch
partnered
adjud
spotting
sarcast
unprof
albatr
sorted
seatbel
synthes
palestine
##cowitch
knowledgeable
ceremonial
hangar
egeland
lescowitch
durable
comforted
baty
clarion
gainesville
dominion
bella
supervol
instructors
icons
dimensional
sirius
stresses
brightest
conceive
gmail
bulletproof
telepr
transforming
omran
intensely
pitches
collaborator
somers
sumwalt
tackling
thinner
exempted
luxemb
vegetation
fascism
bunce
bridget
fabulous
havill
khanna
stamped
stimulation
friendships
replicated
biomed
dupont
artificially
stirring
sympathies
lobbyists
pyroclastic
patches
flawless
coordinates
resembled
cautiously
prematurely
plugged
possessing
volcanoes
pioneering
empowered
tacit
functionality
scratching
ricardo
ecosystems
cunn
humbled
bureaucratic
bureaucrats
pandemic
digestive
adolescence
hesitation
hesitant
dissenting
ecuadorean
fulfillment
##ovych
intolerant
tantal
coulter
ventilation
dawson
frogs
algorithms
vineyard
rackete
counterproductive
societal
fermentation
poetry
penguins
scooters
sleeve
quirky
metabolism
bamako
giesbrecht
caucasus
seawater
crocodiles
jasmine
hindsight
vaughan
clauses
rochelle
yanukovych
haircut
1930s
geoglyphs
inexplicably
dazzling
tarrant
dessert
schreiber
jastremski
unhealthy
imbalance
parishioners
toothpaste
umbilical
zaslow
caliphate
fonseca
dempsey
anadolu
sinaloa
soylent
scorsese
albatross
760
720
725
870
820
ae
bals
cn
cns
db
dipped
daly
dashed
ewan
eluded
fated
ftc
gb
ie
jov
jens
jody
kek
koval
lach
mats
muzz
nr
napol
nascar
norton
oland
pud
pumm
rw
rik
rene
raged
rounding
vance
woe
wien
wifi
yep
zel
zir
zak
zool
zambia
½i
##oqu
##vable
##aise
##fair
##hones
##hots
##hoven
##mill
##mall
##cw
##count
##pic
##ienced
##nie
##taking
##kis
##kus
##koff
##xon
##wer
##inum
##enity
##enia
##orian
##anha
anarch
##alan
##iscrimin
##icion
##iona
##idan
##ente
##otected
##urous
onscreen
##start
##staking
##utter
##utable
##acons
forear
pratt
ish
ismail
shoved
##osive
##osph
##chins
conley
frivol
##optery
chills
##ulatory
weir
weprin
##iveth
unpar
unden
uniquely
207
excr
##ifference
##ifiers
ornel
seah
abby
##istine
butte
leia
herc
herders
usern
afar
aden
##osti
##ardt
cliffs
bricks
worm
outnumber
amir
complying
imam
incurs
noises
##ailing
##awled
pertaining
##avy
##005
##licity
cara
carriage
reclusive
##orsch
likeness
interjection
relocate
decency
fey
stroll
stramp
indifference
medellin
everett
underdog
sykes
##onson
##arges
desecr
deseret
apu
genev
genotypes
defector
norad
mrsa
boast
boiling
brev
servic
##odynam
locom
annan
##aughey
whitehead
harpo
headcount
##bright
305
corrects
markus
farrell
communion
sharaa
humility
democr
##coat
257
raisman
##strum
modification
taxis
irres
irwin
valencia
orderly
michaels
237
marchers
muster
mole
differentiate
denzel
fatherhood
401
coupon
footsteps
respondent
supermod
radel
emblem
lineback
camden
burge
milligr
nomura
frontal
##beats
distorted
distanced
##605
imprompt
spaceflight
painfully
painstaking
constell
expressly
extrav
808
dispose
paulo
bien
##157
walkway
melquan
brewers
rescues
##ulemon
sheriffs
snowy
unfounded
garrison
ulta
lois
mosby
repeats
bedford
428
fielding
existential
characterize
util
piles
hurried
kelsey
innate
##hei
##456
##450
hurdle
701
copyrights
jewels
faul
clicked
vacations
flagging
##685
mujah
horribly
definite
bulgar
bobbi
wilcox
essays
laboratories
##674
wwii
mandates
##oshima
##writing
magnate
truths
seminary
roseanne
mortg
climax
scalp
motorized
harvested
montage
contestant
saudis
breathtaking
conspic
##blatt
entertainer
844
matheny
liberian
icke
forgery
jamestown
downloads
blowers
implication
emptied
renewal
tearful
molesting
nurt
pronounce
deems
pods
uniformed
bachman
flashlight
scotts
hubert
somerville
fateful
hatchim
canton
philippe
shady
meteorological
convene
plunging
expedited
abbottabad
persuasive
reconstruct
phenomenal
##tzis
sicily
navigating
cherished
isaacs
d032
unprotected
inpatient
incumbents
eclips
mcmahon
##theid
spoiler
wfp
flourish
postpone
anthropologists
heinrich
microbial
upholding
resonance
humiliated
rituals
forfeited
##cephal
plummer
intruders
disapproval
ocampo
boutique
quarantined
lululemon
pseudonym
croissant
furloughed
segregated
downgrade
mcclure
analytics
scooter
diligently
discrepancies
obsessive
paleontologist
torrent
rambling
skewed
peppers
navarro
comrades
bombardment
herzog
crippling
tranquil
eccentric
compostela
cottage
typhoon
kieran
##journal
unattended
middlesex
dachau
bayesian
geyser
arteries
sylvia
protagonist
precursor
daphne
evacuees
lousy
apartheid
suicidality
madeleine
catapult
batygin
luxembourg
excruc
ornelas
genevieve
impromptu
bulgaria
717
940
bellig
cured
dell
della
flic
gly
gerson
korn
kutcher
lange
lament
naugh
ngu
rm
riff
rca
tc
tand
tanc
umar
wp
wick
yulin
za
zonal
£2
##via
##fits
##hound
##cases
##pont
##daw
##gd
##gated
##uy
##naught
##brew
##zyn
##ximate
##atran
##esch
##arbon
toomey
##eles
rearr
reza
##leys
stony
##olam
##etal
##adden
##igated
##ecked
asphy
asgard
sauc
saunders
conject
nefar
tripped
weber
haunt
hails
haunting
deed
deact
2023
exxon
seps
##mentioned
##istoc
spice
leasing
##allen
aryan
projection
outage
willful
groping
dover
mek
mez
##ansky
manfred
disab
disob
phar
nojay
drc
appra
overload
blades
##ishly
feast
coined
1935
getaway
##obic
indign
indiscrimin
parsons
lawfully
meditation
remington
##rax
belts
belmar
deserving
guessed
downside
smokes
genus
terrell
postseason
endoc
endemic
boasting
##roach
playoffs
servings
speculating
patented
patagon
readings
slugg
believers
edgy
barney
whitehouse
deleting
fares
swings
campaigners
##982
greco
rested
254
2201
raucous
snook
snatched
valve
debilitating
geologist
marches
christoph
moat
freeing
certify
299
mcgar
connell
317
palau
palpable
maln
bananas
radically
labelled
morale
morbid
windy
burlington
erased
britons
frontman
motif
##beans
jackets
audible
mattered
surveying
paints
##knecht
606
sque
intrins
##eteries
melody
scripted
woodstock
##618
favorability
##789
bedside
ensured
oils
##ieta
fauc
happytime
bowed
bowmar
tripled
jonah
fixer
lifts
pathology
pathetic
hamill
logging
hypert
microbi
577
950
fishes
apologise
591
rogan
mirna
ramse
plantation
beatings
ignite
roseburg
danielson
676
innocuous
complication
rowley
tabs
strategists
mcdaniel
columbine
comforting
comfortably
noticeably
vulgar
dissol
lyric
darling
complainant
kisses
pentobar
hatfield
litany
profitability
unnatural
tasted
buffer
foia
698233
embraces
grossly
huntington
omitted
cocoa
railed
inaugur
forgetting
presumption
narendra
dodgers
ridiculed
succeeding
infantry
hubbard
sumatran
mohawk
hollins
steroids
pillars
minimally
cemeteries
havens
cosmopolitan
rudolph
stimulate
bitterly
tenth
obscured
fooled
molecule
leniency
smells
stalemate
asthma
facilitated
dysfun
avengers
loopholes
telescopes
hovering
obstruct
lagarde
resembling
gridlock
griffith
toppling
parallels
anthropologist
lecturer
melanie
accommodation
winnings
prestige
soybeans
lansing
reservoirs
serbian
depressing
sacrificed
mitigating
bragged
forcible
strickland
stephens
culmination
kopetsky
uninhab
feathered
hydra
disconnect
duluth
schwartz
grievance
anomal
surroundings
zeit
siberia
incubart
retrospective
anecdotal
arrogant
arrogance
impartiality
fsis
consolidation
wizard
caldera
leahy
canterbury
rosemont
hensley
congestion
cyberattacks
2500000
schroep
scrapped
mathematician
nostalgia
fibrillation
unloaded
masculine
tadp
envelopes
doodnaught
covariates
##aparelli
lulzsec
guillain
maureen
oligarch
fungus
chimpanzees
squarely
haughton
thienpont
refineries
gervais
scapego
schiaparelli
wiener
frivolous
unparall
strampel
belliger
nguyen
tancred
nefarious
sepsis
patagonia
pentobarbital
dysfunctional
565
899
a1
bw
ds
das
duss
ehr
fart
fuse
fiveth
geld
hrs
kearney
lapse
macy
nt
nia
ping
pings
paved
rale
td
tbi
vat
vish
##oze
##vish
##vaney
##members
##ea
##eight
##ienne
##laz
##gates
##uil
##uaries
##bh
##bons
##wt
##400
thwa
thugs
##onder
##enb
##enary
##aret
ines
inver
anast
##isance
##iculous
##omish
reentry
##stice
##oled
##etan
prized
pradesh
pragm
##imental
shalit
asiana
alamed
sao
sabrina
fridge
chub
chee
chung
trous
##agua
##uncy
##ocaly
unab
deutsche
204
##ourtzis
spit
splin
##allero
afc
aflo
##ardia
##endously
planc
broth
reside
##ibur
crad
gripping
allred
twists
mehlman
compounded
expon
expires
##ogo
presume
##actively
scattering
carmel
recoup
liking
overhear
couns
##umps
knuck
invo
attainment
decay
flap
flier
##ensely
mayan
##itto
indiffer
lawns
mediation
wrists
implying
imposition
impasse
impunity
desires
##iewski
suppressed
demons
surplus
genoa
airfield
defying
defection
poop
subtr
veiled
confounding
boobs
##rolet
homework
##undai
effig
efficacy
takeaways
##rium
edible
transc
nighttime
meticulous
passers
explores
leth
farook
swung
swarmed
campaigner
gluc
skirm
humid
waterfall
receptive
restless
##305
snoh
taxon
suga
tweed
antid
janner
geographical
smalls
motherhood
solstice
youngstown
denom
282
entour
connie
paladino
homo
malian
malawi
immensely
landmarks
hillside
emblaz
robotic
burberry
##itchie
hopping
hunk
alma
miscon
misrata
enclosed
motions
353
ceglia
distaste
audited
rocking
cellar
celebratory
fairbanks
balart
predisp
displeas
squares
louds
respectfully
##ieces
326
##ompter
purity
snowboard
legislator
##612
unscr
oslo
##784
packets
bedb
ensl
surrounds
##steen
merrick
uttered
##101
novo
sensing
475
methamph
447
titans
##233
bowel
cooperated
renmin
flea
editorials
466
temperament
cookbook
trailed
535
imaginary
entrances
baywatch
rodgers
papacy
olga
macro
caballero
organizational
appointees
##249
freshwater
mortem
amidst
675
consequential
motorb
##350
glassdoor
alerting
aspx
autopilot
comparative
confrontations
durango
comprise
vaccinations
clarifying
henri
consumerist
supervising
mansfield
forgiven
treasurer
chauncy
##izzo
yeon
reciproc
gerber
omb
comprehend
nicely
withdrawals
gateway
fundraisers
experimenting
strangest
tremendously
constituted
gadget
scotch
ramped
gigantic
sidney
deceit
luxurious
overdue
nicholls
perpetrated
behaviours
adaptive
intimacy
##organization
polarized
ninete
nuisance
mlk
megna
##irtyeight
descending
berger
adversary
dorothy
trenton
ebov
##nutrition
utterances
cortical
myths
duped
d03
polygraph
chopped
##upski
merchant
shinzo
empowering
therapists
upgrades
mulvaney
aβ42
##keepers
swallowing
mickey
mickelson
tulane
anatom
stockpiles
pauses
veterinarians
coulson
bracam
lithium
disqualified
glamorous
precautionary
hambur
corroborated
contraceptive
lahore
summarizes
cyclone
marginalized
aguilar
##birds
safeguarding
mirrored
rehearsal
udongo
1800s
kinsman
overflow
krebs
petrol
##🌭🌭🌭🌭
bekah
##umaran
zurich
twentieth
disadvantage
cowardly
interpreter
olivier
bratton
musselman
transpired
ekstrum
pagourtzis
priceless
supercomp
moussa
catacombs
saldanha
oreskes
chevrolet
sausage
biskupski
rathburn
shampoo
dinesh
nightmares
infidelity
asperger
frazier
ludicrous
upbringing
teleprompter
napolitano
irresist
linebacker
mortgages
hypertension
ramseys
schroepfer
unparalleled
fivethirtyeight
raleigh
afloat
planck
snohomish
emblazoned
displeasure
1a
1b
495
615
812
930
bock
bisc
ck
cada
dag
denn
eun
gior
hoc
iu
jian
jensen
kou
kinski
kfc
lill
licking
mba
pamp
rer
rost
ripping
ricks
ritchie
sb
sip
sigma
tare
vor
vip
vucci
witty
zor
##rals
##rador
##yy
##york
##fields
##haw
##horn
##mers
##loban
##gast
##kr
##kley
##qing
##isal
##asper
##omena
##eler
reim
##aye
##stands
stacey
##olocation
##igel
##igault
##amic
heap
##thor
##chu
##chap
frisco
chow
##emann
comf
##tshire
tramp
haird
##umont
unapp
deen
spilling
repell
lebron
##allam
##apo
##outed
##ectal
arises
platt
yearbook
resorted
willfully
polled
##iky
amused
uphe
inco
##uble
##ubstant
peele
manigault
disable
phe
phoned
drained
drums
##ava
##avirus
interruption
relocation
monog
blitzer
invade
flipping
flashes
preach
strik
1923
1937
1942
##iatric
myel
syll
hels
desks
apiece
coloss
mina
miner
minivan
downright
childbirth
demilit
surges
##erte
##uchi
##ificant
speculates
speculative
takeaway
electors
seti
setbacks
keaton
interns
chartered
concedes
numb
runways
hereby
calam
starters
universally
esl
chrome
turnaround
skipping
humming
starved
grease
differing
judith
goto
snark
engages
numbered
hardened
hardline
249
michelin
saliva
devoid
231
pottery
502
stocked
copeland
colleg
questionnaires
283
equator
293
lima
palma
malnutrition
266
nonvi
commonplace
boardwalk
labrador
enterovirus
ideally
wallis
simplicity
urs
morg
waive
##apsed
##lerosis
burm
juneau
churchill
##beek
##odeon
collisions
apparatus
expresses
escap
pollard
diva
primer
biologists
biographer
336
panor
chevy
##iscover
borderline
pretended
persever
##785
packers
388
doorway
settgast
colorectal
utilize
psychopath
fortified
textile
avoids
##burse
442
macho
responsibleohio
gallmann
frankf
etched
prematurity
anthrax
horrendous
therese
odys
widening
wilp
wiltshire
progresses
picnic
disappears
787
harmony
waitkus
traitor
magnets
hurtful
mortal
spani
falsehood
coached
circumstant
savio
ivan
jenzen
coolidge
towels
folder
stretton
sucks
yellville
icbm
installments
sticky
loads
tariff
##claw
bronfman
guttenberg
disturbances
dauber
pitcher
flatly
habitats
blinds
rabies
succeeds
thickness
hubs
sidel
1902
hydrothermal
gravel
akron
ipads
kasem
dictate
perpetual
manageable
underwriter
humorous
rudd
backlog
margot
curtains
replication
bursting
biomark
contradicted
bmj
venezuelan
dystop
rooting
penetration
bluntly
butterfly
mantra
paddle
barricaded
gurley
booed
tacloban
wiig
detonation
deteriorating
stylish
defamatory
[...]
