[PAD]
[UNK]
[CLS]
[SEP]
[MASK]
!
"
#
$
%
&
'
(
)
*
+
,
-
.
/
0
1
2
3
4
5
6
7
8
9
:
;
<
=
>
?
@
[
\
]
^
_
`
a
b
c
d
e
f
g
h
i
j
k
l
m
n
o
p
q
r
s
t
u
v
w
x
y
z
{
|
}
~
##x
##t
##r
##a
##d
##i
##o
##n
##s
##e
##c
##y
##2
##0
##1
##f
##p
##v
##g
##l
##k
##h
##m
##z
##w
##u
##7
##b
##6
##8
##3
##4
##9
##5
##j
##q
th
##er
the
##in
##at
##on
##en
##ed
##es
##or
##an
##ar
##ing
in
an
to
##al
##ou
##it
of
##is
##as
##ic
##01
and
u2
u201
##om
##ion
##id
##re
##il
##ent
##el
##ot
##ec
##ay
##et
##ur
wh
on
##st
##le
st
##ut
that
##ol
##ac
re
for
##ad
##ve
pr
##ow
be
##ly
##ig
##am
##ers
is
he
##im
##ir
it
sh
was
##ter
##ation
##th
as
##os
##ith
##ch
##us
sa
##ver
al
at
with
u2019
con
##ld
##est
fr
##ce
##ill
##ere
##op
ch
ne
##ment
said
##ess
##oun
##ate
com
##ul
##oc
de
##ag
tr
su
##ts
ha
we
##igh
##ear
his
##and
##iv
##pp
un
##ain
##ak
##un
##od
not
##if
ex
u201d
##um
by
##ore
ac
from
u2019s
are
u201c
or
##ect
have
se
##ould
##ity
##our
##se
ab
##ort
##ist
##em
sp
##ies
this
##art
has
##ial
rep
##ab
but
le
##all
##00
##ud
##ap
##ive
##ie
##ok
##ice
who
##out
they
##gh
##ust
her
en
##ight
us
201
af
##ack
off
new
##day
##ant
ar
##ast
##ell
she
go
ad
##ost
##end
##ard
##her
##ri
##ome
pl
cl
had
##ated
wor
year
br
were
res
##ge
##ich
##ia
pro
##ound
out
you
say
will
##uc
pol
##ary
about
##ide
cr
gr
am
##age
up
do
more
been
tw
all
ag
##ough
##ber
##ong
their
##tion
me
u2014
after
##ans
##ik
one
##one
##pl
im
##der
##ally
inc
cont
##ub
pe
##ous
can
##enc
##ine
man
int
##ence
tim
rec
##ident
##ff
would
acc
ph
dis
##ip
##ther
##qu
##iz
no
##og
##ail
##aw
ev
##ace
##ose
when
pres
##own
app
##ople
per
##ure
which
##ord
people
so
##av
##ely
##ount
##ign
sc
##tor
there
##ass
dr
mar
##ue
##ook
comp
##ake
##ire
##so
car
##ile
##ib
than
##ry
##ations
##ian
##ase
state
##ame
##urr
##ite
em
also
##ind
some
lik
inter
##ump
what
##ted
##lic
over
part
rel
##ks
##aus
mon
##ach
bu
him
its
bl
just
##orm
fir
other
kn
exp
bec
ass
if
##ical
inv
our
dec
comm
##ov
##ep
fl
##oll
##ions
##ency
##ree
offic
any
##ey
##ish
##ied
##ens
fe
two
pre
##yp
##ance
president
time
sec
##ates
##ater
co
##able
police
qu
##ild
att
says
##erv
##ors
##oss
could
te
into
trump
19
##ick
##ublic
them
##ents
##oy
did
may
##ond
get
##ting
ob
##ob
work
day
##ath
##ause
how
op
##ning
count
like
report
curr
##iat
call
first
##act
##gr
str
ind
news
par
##ition
##ood
##ang
##man
##ade
el
law
##orts
##amp
2013
##ton
##lud
my
##ock
##hing
##fer
years
##ink
##iss
u2019t
phot
don
add
u2013
##other
med
typ
##ings
wr
ever
under
told
sy
##we
##old
cons
##ious
inf
##ra
fam
##anc
hel
##ily
##ult
sch
includ
##reat
buy
show
11
##pr
wom
##are
10
now
last
back
stud
##uring
found
##ery
##fore
##ues
because
ear
rem
##ek
type
##oin
##ned
##ments
##ational
##ug
doc
again
thr
cour
##arg
invest
##ife
##ons
bet
u00
high
##ory
##tc
most
##eric
bel
##ities
cap
ro
##iew
before
des
##ual
##way
hou
where
old
##ove
currency
act
##illion
##oup
americ
##ict
##ited
##ased
usd
only
fiat
##pt
official
btc
min
aut
##itt
uid
supp
even
##hn
##ating
while
know
##ft
##erson
gu
dep
##vern
accord
##earch
##ected
##ise
resp
##uss
during
##wn
govern
lead
down
200
reports
your
form
according
sm
house
child
reg
war
det
##rib
##aking
being
dem
every
those
sen
##ork
then
##vel
##au
##oth
these
long
way
##ama
sur
ins
compan
##ert
##cc
gen
##ince
##eral
mem
air
many
def
##ection
made
ter
##ful
through
##ked
press
##mm
investig
family
##ah
want
plan
post
sub
public
##ool
000
nor
disc
##ney
docu
##air
##ather
cent
serv
##uch
look
##son
end
month
##az
##oot
##elf
week
imp
bus
##ash
three
mil
##ific
mr
##oci
kill
help
conf
##atch
world
col
camp
prov
##ull
##ward
see
bo
summ
##med
##ets
##alth
##gan
ap
##irec
##olog
make
id
##ier
fin
court
##ible
##ro
sign
##ivers
bre
20
##ote
auth
direc
##ital
contr
person
such
inst
against
though
face
##ether
very
##ives
group
##istr
well
##min
prot
government
home
need
##lear
eff
##orn
should
million
##ix
##urs
arr
##ty
##und
play
still
u201cth
##ages
since
spec
12
going
near
##ists
##ently
##ange
own
spe
think
including
school
##ody
##view
tur
ret
##ged
fil
15
jo
##io
##oduc
##ee
leg
loc
##ics
##led
health
support
##ph
document
obama
city
life
##les
does
ann
pat
associ
##ollow
read
prob
take
sl
women
rele
contin
##bs
##land
hand
iss
much
##ax
##ween
company
##ope
follow
belie
##ner
national
##ren
dif
##ative
##ants
author
between
case
ed
##als
fac
another
##cent
inform
##augh
##ower
##ility
##ime
##tions
ser
##bers
##atur
called
##xt
sou
##ave
around
cond
##ying
happ
set
death
york
times
states
##omet
polit
mor
attack
bar
##ven
miss
officials
##ision
##ived
tal
##nes
##its
ve
right
white
##ms
sun
wed
##ress
del
put
##br
intern
##ecut
har
trans
head
char
vide
##ized
##ale
conc
##ior
use
republic
13
tell
##ys
north
num
##artment
sim
photos
both
ext
##over
cor
run
expl
##ew
30
##ered
##ient
former
##app
##ank
##osp
##ened
appear
russ
##ular
##ines
18
research
secur
ref
used
adv
##hip
mark
country
##wh
here
find
reported
##ief
##att
##ually
statement
##rat
##ved
requ
##up
##ained
night
good
##ott
14
never
met
story
compl
sex
pass
##iday
summary
produc
information
cal
start
fri
percent
spok
care
friend
later
tues
big
tuesday
prev
##ric
univers
sw
sever
test
poin
four
didn
mov
sus
##ene
##iving
##ina
ma
16
##aff
##ness
es
far
children
let
##ified
##ention
##ret
##ced
quest
##aim
photo
team
beh
##osed
##aign
##ember
chr
##98
somet
campaign
media
american
gl
left
##uck
##nesday
wednesday
commun
##ling
##iness
monday
ke
##ins
sk
##ution
same
days
shar
office
##read
prop
##ued
##red
tak
##book
hum
##gest
john
##ern
aff
##ont
u201ci
##ices
security
##ald
##ures
##itter
united
democ
fed
department
est
friday
vi
washing
alle
##erg
syri
record
today
sent
star
##ains
gre
poss
associated
u2018
washington
##gress
##ison
pay
##king
milit
##iel
cre
##ploy
thurs
thursday
##ct
claim
hour
second
real
##ights
wal
##ger
prof
##line
susp
differ
mus
17
south
video
##30
conv
water
##res
##ister
jud
county
woman
##ism
red
university
democrat
business
oper
rest
##ised
facebook
clin
exper
##lish
##ces
next
av
charg
##per
got
##ving
men
##ience
stand
##ony
##stem
stre
bill
##ided
u009
##form
took
##irl
whether
25
la
##ever
twitter
22
asked
##ele
##idence
di
art
##ead
##ll
##ects
##ize
dat
opp
each
##iting
##ially
hosp
ris
21
system
ra
shoot
proc
sit
rece
clear
win
watch
few
coll
hospital
incre
##ason
gun
sn
power
mod
members
several
tax
##crib
unt
too
saying
girl
##ject
##ases
place
come
killed
vis
ir
study
##con
prom
maj
##ley
##par
least
based
federal
really
eng
##ended
without
might
came
##ically
director
##ured
viol
partic
months
meet
image
histor
sunday
top
number
##side
among
youn
##used
##ety
saf
##str
fire
##thing
##els
coun
class
invol
##co
lot
##enn
allow
something
interview
major
pop
went
##ering
won
ste
##ames
five
main
val
why
admin
##sh
best
caption
##ense
crit
pa
##inal
party
data
##rem
##ute
employ
seem
away
sug
##oney
2014
##velop
list
kore
twe
arrest
ent
soc
##nn
##tern
##te
sour
until
bur
less
black
##iver
ident
hard
search
order
##eng
past
keep
dead
stop
ant
##ails
announ
##ds
##ators
##ending
##ral
morning
jan
early
##gram
military
investigation
great
develop
##self
##02
open
24
##une
fund
deb
##ury
taken
shot
vot
##ech
known
net
mich
area
##ittle
program
mean
##na
##ator
##ired
service
sal
##iven
mid
##icle
mur
ge
administr
##urch
little
##bc
authorities
dev
##ark
inj
##ictim
jour
center
seen
victim
spokes
build
earl
23
boy
ang
polic
##iam
proble
consid
job
however
##atter
698
##ined
wrote
six
likely
##uary
attor
attorney
small
mother
pos
deal
mess
things
march
occ
suggest
##ought
##ides
##ands
retur
##uct
must
clinton
pot
##aph
hold
move
sing
##gin
stock
##nal
##acy
u2019re
chief
sol
##ror
##ves
secret
ju
body
evidence
view
##04
cover
died
added
hear
##unch
using
mom
human
christ
hol
u201cthe
##ably
##iff
believe
level
2016
political
earlier
chang
##by
money
general
change
50
released
organ
threat
republican
drug
acr
social
##port
##oad
son
point
satur
##aining
kid
anal
execut
##ways
##ians
exc
close
outside
##inc
interest
hal
vir
across
hit
##thers
describ
confir
young
local
hours
priv
medical
activ
calif
protest
##ready
##ox
##ones
##ately
2015
already
dam
step
cop
full
others
##ane
##eted
ago
##aged
##for
##ences
mass
##ush
cert
lar
cnn
ple
rom
cand
saturday
free
##ional
congress
cost
fight
##iously
##af
fur
different
##amed
name
##ature
making
##ults
question
colle
along
##emp
199
##oon
control
dist
decision
tex
##630
import
den
book
doesn
officer
process
crim
##ology
civ
journal
##ann
yet
2012
28
##ird
dav
working
father
698630
##oved
short
##stand
wife
once
share
pub
##less
##ising
##my
grow
trying
##ference
##akes
econ
decl
continue
shooting
cust
econom
##echn
feel
able
perform
equ
##oub
##tors
29
cut
elect
mc
better
international
##ipp
##ape
friends
##eck
officers
event
##ield
impr
##ten
thought
eur
li
civil
agency
fre
##ried
kind
recent
sell
addition
following
distr
street
rul
31
fall
conn
u202
foot
techn
lim
laws
fun
reach
treat
pal
risk
special
possible
administration
##ries
hom
senate
alleged
love
always
election
leaders
community
26
##aughter
##ivid
market
mal
west
san
##vert
donald
u201cwe
repres
##ke
heart
staff
candid
park
100
meas
27
history
fail
legal
america
began
live
##ees
fore
held
non
arg
thing
larg
having
related
unc
email
##ike
respond
late
fact
hide
relations
##ogr
2011
sand
wanted
oct
lear
age
pet
##ared
bab
phone
food
imm
appr
strong
er
##mit
flor
deter
board
judge
sept
film
wall
##lex
taking
##oke
canc
common
##sel
july
pros
ban
rights
##ats
account
aug
given
arch
land
mcc
give
effect
lab
incident
init
##ico
##ients
hill
##uit
within
rad
comment
##ances
##let
tot
justice
40
enter
students
review
mag
##utes
##ential
caus
link
ide
orig
become
los
behind
himself
committ
prosecut
enough
wee
speak
##lished
emb
certain
apr
##ination
russia
site
line
famil
prison
##rael
trav
californ
fig
eas
uk
simp
cam
anim
weeks
syria
##itor
doing
israel
expected
russian
policy
foreign
##ively
parents
respons
##tt
tells
important
port
someone
##ida
wind
tog
##aps
##ening
often
##cement
##int
wasn
california
lat
##sy
##ribut
billion
nearly
april
##oor
notes
financ
ur
discuss
inside
##den
##ization
happened
rob
further
wa
page
##igr
2017
agree
issue
looking
u201ch
coup
refer
##ars
hot
shows
committee
##uation
sexual
join
##ards
texas
individ
scient
discover
june
sold
##ler
led
turn
##erman
charges
china
address
host
upd
room
##ilar
saw
bas
cases
murder
##itch
immed
u201cit
##ps
getting
intell
targ
involved
##aper
aust
online
glob
stay
nation
bir
##be
together
gener
##ester
##ites
lawy
##bert
korea
personal
aw
force
researchers
##gn
mill
##itions
large
webs
hop
done
##oo
individual
bad
started
side
profess
##sw
half
presidential
release
##lam
##ission
##atic
##ify
nom
##ne
##itive
ground
suff
europe
brit
##ault
represent
hun
request
lost
front
##irc
##go
u2019m
meeting
scre
je
clos
##body
##ither
##erc
neg
pict
bor
##berg
leader
##imate
##isc
ep
##most
received
advert
action
u00e
fut
hope
##ows
enc
##bi
terror
announced
sup
##ael
syrian
##yr
ce
images
##bor
##uff
conserv
florida
foc
third
stor
##cept
similar
fel
##get
david
church
blood
december
##ival
angel
vote
sure
town
tre
flight
mot
road
minister
anything
circ
ey
u2026
neigh
low
##aily
dom
republicans
daughter
services
hus
rev
bom
##iod
succ
##ulation
actually
##ped
##rec
##aced
35
##work
whose
nothing
##ibility
resident
couple
cred
stat
financial
##ium
source
##use
bush
geor
##iter
##umb
##ift
signific
##uge
##igence
veh
##onse
appro
romney
future
jack
mo
daily
##ring
safety
reb
u2019ve
arrested
##uters
trad
##ograph
reason
var
conference
##ode
rich
##11
obs
ill
super
access
##65
##lement
quick
success
vol
##hood
response
building
##though
assist
movie
dise
period
break
aud
michael
almost
instead
complet
ll
weap
scene
##thern
cause
lives
##uel
cho
due
##oph
secretary
victims
anyone
term
enfor
questions
65
present
avail
total
member
mult
custom
##ench
##yn
key
reve
internet
spokesman
described
stri
cris
##eal
toward
##ateg
speech
mart
results
##ai
franc
published
problem
comes
heard
tried
##uclear
calls
capt
env
protect
issues
u04
deep
##ming
iran
isn
grand
##aster
medic
##ters
##uce
45
##60
broad
crime
although
americans
recently
soon
ver
website
tv
##que
##aut
##ana
space
desp
minutes
thous
##ades
launch
bene
particular
significant
game
appar
##band
dog
travel
patients
##oop
trial
emerg
executive
gold
countries
2010
##enced
##fic
repl
##ounds
understand
##oid
plans
intelligence
htt
matter
rock
bring
democrats
chall
defense
concern
cele
democratic
surve
bank
surv
##dr
light
const
indic
design
##anger
became
leave
relationship
ms
district
pain
baby
phys
##uction
coming
bit
student
##ample
available
express
esc
##rew
##acter
fell
specific
location
##istan
private
##ability
workers
series
criminal
answ
direct
shares
nuclear
##rain
poll
guard
details
investigators
esp
##ept
##ensive
indust
loss
confirmed
charged
remains
pull
storm
198
hon
immigr
sam
course
role
provide
current
groups
return
crisis
div
##ession
companies
##ortun
##ogn
turned
else
crash
islam
sher
husband
prim
fbi
##ball
pick
cell
forces
makes
miles
deliver
gave
claims
kim
##cep
wrong
##kn
##ett
earth
##iron
alleg
##reme
##ays
latest
celebr
college
accused
try
##action
pen
##asing
include
##ugg
37
drop
behav
##ager
attacks
william
posted
##lin
everyone
plane
missing
##com
##ille
talk
##atives
appeared
particip
january
dest
##ino
##avor
august
worked
message
means
showed
despite
fly
fair
island
letter
reuters
file
visit
self
##ij
senior
##32
instit
article
##dle
disp
##iately
ah
pred
cle
fear
environ
ran
condition
##ots
immediately
ira
reveal
paul
exam
eg
##not
bal
cit
fem
##icide
probably
running
begin
east
anti
doub
tele
##ends
capital
phil
##ada
web
##lus
bi
sat
##ality
iraq
via
potential
september
angeles
tom
sil
records
vers
tweet
seek
##undred
corp
fox
il
knew
francis
lou
commit
enforcement
mex
marri
employees
violence
disease
hundred
award
result
everything
##wood
included
##ergy
lo
##orter
living
##eter
##yl
pract
educ
##ecess
##epend
##ron
camer
##overs
final
##mber
##iding
track
##itness
##eth
##tim
birth
squ
2018
carry
families
walk
race
estim
cast
contribut
##aring
chair
provided
nove
brew
brown
analys
##yan
november
##ounts
##row
independ
environment
thousands
expect
hearing
##15
entire
##attle
##inks
##iple
continued
mel
crow
diffic
eight
difficult
comb
serious
##ored
##ex
surpr
cancer
mis
date
##ston
critic
brother
oppos
single
resc
##iate
80
##ober
accident
##iation
##ental
spent
forward
respect
60
german
block
situation
october
##selves
##aging
moment
contact
believed
rather
kids
either
idea
separ
insp
32
33
abs
identified
base
pan
##ender
gop
king
mater
filed
##ham
##itten
issued
aver
seven
increase
##leg
##ogle
rate
##fully
che
neighbor
treatment
##back
afric
ball
intr
hor
##hol
##iec
##room
products
effort
##of
disapp
comments
cult
station
consum
##ky
##isl
fat
bud
heav
##ma
debate
central
suspect
##ished
global
hands
##lu
citiz
cross
197
##akers
compet
higher
u0097
##ule
marriage
##acted
music
##ask
##ners
##uty
u201cb
chem
candidate
efforts
##sc
majority
sheriff
500
##ceed
leav
assault
##where
border
oh
pur
##venue
##atory
needed
##essed
emergency
legisl
army
mount
whole
nbs
##bed
##omm
nbsp
##lim
brought
mind
##bur
longer
##cil
##uz
##ilities
pun
approach
lad
attemp
communic
teen
snow
##61
##agement
safe
middle
position
gar
below
mad
norm
sle
amount
reporters
price
doz
##apan
decided
experience
##iers
remain
problems
favor
##ength
check
cur
words
energy
rac
killing
quickly
scott
prime
additional
james
prior
bott
nbc
google
documents
sources
consider
wood
japan
sym
vo
spot
benef
##ude
matt
recover
##ago
ca
##ese
##uth
hall
##esh
scientists
##37
mos
deg
calling
previous
paid
austral
project
prevent
previously
ukrain
##ugh
##ecially
ov
##ru
unf
attention
rap
witness
french
pret
network
wants
amaz
convic
named
residents
##olution
2008
felt
##bo
brain
ben
commission
appears
##ural
analy
wild
##to
amb
danger
recogn
ul
changes
true
##ounded
subject
determin
hack
spoke
##ips
##ram
##95
example
34
42
##yc
users
##ae
shut
green
getty
especially
industry
dig
##aur
2009
##ological
seems
##fl
george
tour
popular
vic
british
pers
##ondon
focus
box
##ster
london
##ville
ended
##ging
science
##lines
ham
##ification
areas
needs
note
##ancy
born
pregn
apparently
##ghan
##rip
aftern
weapons
##ges
##oper
regard
##mitted
afternoon
##ider
caused
##idge
##uing
push
##oken
uns
please
mic
exact
##he
##ortion
##izing
events
##off
unl
god
##88
febr
currently
drink
advis
ow
coast
traff
##apped
brief
song
worth
crew
43
convers
february
repe
supreme
created
bomb
creat
##imes
chic
demon
bed
discovered
##tain
##hen
destr
pack
##aint
field
lawyer
##asc
allegedly
exist
council
advertise
airport
##99
##istic
lawsuit
target
themselves
lib
lower
##empt
door
written
analysis
surr
ice
doll
##ris
##itution
voters
injured
hundreds
##ste
illeg
piec
prepar
character
##hold
thom
vehicle
##while
occurr
telev
und
adding
union
experts
u201cs
pages
afghan
bost
smith
model
girls
mer
offer
governor
38
region
shall
arm
fired
guil
word
organization
observ
##la
##haps
##inated
applic
##ya
doctors
color
##ucted
##sych
##etic
insur
gone
material
leading
arrived
##ples
hur
draw
technology
fort
##opri
require
multiple
opportun
helped
47
##aces
ens
##aught
talking
value
development
mayor
propert
considered
economic
season
average
ut
subst
##atures
reached
above
feet
dan
jail
purch
speaking
boston
##oom
suicide
necess
##ole
income
conservative
firm
allowed
##ypt
guy
ask
abc
dri
##down
u2019d
##unt
pil
sea
alex
store
points
cat
##ki
48
cash
gather
##add
##oyal
korean
declined
kel
brand
##reed
exch
female
##oud
gas
psych
##eed
nov
bbc
##inary
##itz
##oman
carol
##arily
##aker
strateg
55
chicago
perhaps
decades
bod
weekend
##69
##34
card
lang
sched
44
van
inn
##ague
cannot
##ibly
couldn
##0s
charl
mob
pray
impact
subs
explos
peace
mexico
##reg
##ocked
u0
estab
##uries
reading
behavior
prosecutors
figure
simply
sens
credit
nav
noted
recall
conditions
works
product
operations
charge
##rup
version
##han
moved
advertisement
75
##sequ
passed
lack
robert
##cohol
crowd
41
##ette
##ping
avoid
driver
##key
trade
wouldn
paper
looked
alcohol
claimed
agreement
36
johnson
rules
##mer
command
surf
aren
influ
professor
##ara
lee
protesters
roll
sel
##estern
gov
grant
changed
demand
prec
ros
alone
allegations
itself
##stein
failed
ok
##yle
##iana
raised
paris
die
bull
levels
hotel
39
##ev
finally
biggest
ten
thank
##hod
troop
dna
##urric
measure
ceo
terms
mission
concer
damage
##12
european
bid
##isions
##ado
spr
sant
49
rout
##agn
offered
strugg
largest
corpor
ken
soci
##ford
bey
happen
copyr
original
item
##ully
education
liber
france
abuse
stories
hurric
goes
##ung
gay
##35
spread
54
72
oil
parts
sett
##ble
##encies
drugs
##tr
trust
videos
victor
pressure
immigration
ahead
whom
##nel
controvers
pretty
touch
##eless
u2019ll
performance
played
##ises
mach
##me
##any
dark
u201cd
grad
chemical
jew
offering
actor
statements
guilty
##woman
##iet
chance
career
origin
bow
click
closed
takes
virgin
vice
returned
responsible
tit
memor
numbers
sales
television
##iest
studies
sense
challen
copyright
writes
planned
summer
spending
tweeted
required
weather
regul
nine
beach
cbs
fa
##17
##iles
extrem
picture
##erve
##ams
hillary
association
ryan
content
trib
actions
remember
jobs
##raft
holly
economy
range
##ona
followed
overs
shop
counter
mary
mail
vac
##icles
##inese
##ective
gall
compens
weight
relig
looks
ways
receive
meanwhile
chinese
maybe
train
usa
u201che
martin
species
##esterday
##67
broken
primary
princ
fighting
jon
natur
##82
concerns
opposition
citizens
u00b
cooper
happy
yesterday
##bre
##erry
##wor
century
restaur
seemed
##adem
flag
growing
##mar
warning
tem
##plom
##mp
suit
size
flood
##bol
##oming
##ding
##64
increased
##ouse
u201cwh
upon
reportedly
device
##los
text
diplom
newsp
bag
learn
animals
repeated
male
river
section
animal
##iar
agreed
##aza
asking
hurricane
din
##mine
giving
beyond
includes
evening
transport
radio
occurred
match
photograph
growth
90
fix
mu
sanc
opened
engine
revenue
sleep
lif
academ
reporting
##ato
sometimes
aid
cub
acqu
southern
langu
climate
52
compared
egypt
##fri
individuals
ren
trip
population
revealed
##ique
##come
##elling
u2014and
defend
eth
owner
ukraine
francisco
##rest
frank
increasing
property
reporter
u201cthis
linked
refl
blue
houston
##iant
eventually
armed
apple
leaving
barack
sanders
##ground
ii
kept
swe
##jects
training
management
create
fill
fast
driving
brewing
bodies
table
supporters
particularly
poor
##aming
##awl
millions
blog
hers
annual
initial
answer
hollywood
##entially
contributed
##airs
editor
sister
tel
virus
sound
ship
##68
suggested
http
displ
##za
u201cc
magaz
frequ
jeff
customers
campus
##tained
stage
muslim
wonder
coverage
path
##ica
##owing
veter
traffic
abortion
accus
eye
##ires
independent
operation
sites
exactly
##arr
##ilt
deaths
tun
##uf
shared
islamic
et
quar
u00e9
hy
##dd
goal
throughout
temp
attempt
quite
refuge
purp
##62
injuries
##arm
##14
extra
archive
68
recomm
propos
chairman
watched
57
huge
lived
louis
budget
79
experi
emot
prem
##icated
forced
showing
doctor
treated
seeking
wein
senator
chris
yes
##oms
temper
70
wat
emails
learned
fle
##uled
troub
##ously
served
moving
##know
ath
##onym
telling
cook
anth
married
##10
beaut
##istry
freed
rape
##ware
plat
connect
negot
comput
##hib
ability
effects
##oint
oce
players
western
confirm
complete
williams
speed
lawyers
gets
illegal
virginia
##ocks
floor
punish
trail
acknow
defin
##miss
costs
cos
##rian
scr
acknowled
mike
accounts
log
##wise
##38
##unk
ord
nations
tor
##sa
##omp
##ume
u2014th
playing
patr
send
##wide
##urb
micr
ele
battle
##lor
clean
ohio
nature
lawm
detail
screen
##vey
adop
##opriate
stone
politics
muse
compensation
vill
##friend
games
rub
responded
demonstr
talks
hyp
##ny
##just
abd
option
deputy
##resp
jose
beg
carolina
bloom
bob
minor
stopped
holding
soldiers
##asons
schools
employee
##ayed
95
ther
##light
##aly
denied
israeli
society
cruz
northern
advoc
troops
##cast
ones
isis
jim
##time
encour
rise
patient
##uk
##onald
diagn
update
constitution
wid
2007
fish
mist
po
wearing
soft
regular
appeal
kar
##ologist
resour
messages
##going
determined
tab
sud
ready
museum
##20
##aks
estimated
mention
manager
##engers
rat
u201cy
convention
voice
progress
spokeswoman
##vin
shown
##ersey
production
ess
names
pak
labor
wil
magazine
hous
pic
purs
##onn
##acts
lic
drive
##oval
tradition
dangerous
herself
##ction
##men
partners
ordered
##ulated
actress
jersey
rare
rates
hopes
aim
##bit
terr
putin
##aud
46
##ented
cas
ww
method
##fort
##arian
user
slow
ber
##fect
disappear
jump
natural
older
u0092
richard
58
##joy
##imum
u201cw
physical
institute
##iction
candidates
argu
launched
rescue
partner
certainly
updated
##anch
caught
51
meant
##25
amazon
fal
u201cm
wel
complex
teach
code
tough
##essions
pakistan
300
oly
attend
pictures
opportunity
##amb
ash
exerc
##igned
destroy
jones
##jected
kelly
mand
signs
powerful
positive
neighborhood
homes
olymp
imag
leadership
insurance
limited
analyst
language
sad
##apt
exchange
##cing
##eller
piece
penn
rod
prosp
u201cn
##hner
##ania
##aves
proced
##ipped
pulled
u201ca
continues
newspaper
parties
apolog
max
reform
critical
publicly
concerned
platform
cou
rand
constr
breaking
normal
77
authority
conflic
thomas
fans
comed
findings
directly
highest
bay
consist
passengers
determine
beginning
mobile
nas
none
anonym
##ulted
##lant
measures
choice
pap
##enses
circum
survey
##oted
clearly
59
##iled
##olf
##ifying
thanks
airlines
joe
tick
crawl
status
quarter
##33
harm
##aked
opin
ocean
carried
https
78
decade
corn
dre
##set
placed
affected
##wr
##anda
canada
attr
##phone
sar
broke
ton
intended
nearby
starting
lake
que
ensure
standing
##iny
ruling
square
##osh
alb
##elled
cars
struck
lay
obv
suspected
degree
gaza
##ulf
built
otherwise
##kins
##iger
finding
expand
##ferred
u201cf
##aded
club
profile
shortly
suffered
##craft
haven
wait
necessary
u00f
sentenced
greater
funding
agencies
foundation
systems
various
raise
##iling
activity
u201cp
impl
removed
counsel
accept
##ounding
hair
##ns
feed
##others
carrying
rule
amend
afghanistan
mac
##ucture
surveill
##ze
highly
audience
ol
nomine
der
##45
##ustr
writing
football
tra
custody
limit
scheduled
proceed
monitor
debt
items
cab
rain
sor
##ears
suggests
completely
##ador
afp
protection
wide
plant
expert
apartment
heavy
85
##eg
atlant
##oving
sale
chec
assess
smart
conduct
modern
surveillance
rid
##oking
morgan
camera
computer
ram
rog
##crip
##rel
worst
serve
##west
programs
guardian
challenge
bond
mat
##ota
u201cthere
reduc
eyes
ach
improve
aware
##da
enjoy
69
mix
rough
##aped
##igan
ali
ariz
meaning
organiz
lines
policies
introduc
save
2006
mir
##iated
chap
convicted
53
parent
signed
jackson
sports
##avan
##ension
african
adds
lu
##iring
supported
termin
conducted
##field
thinking
politico
pair
wish
hasn
##astic
aircraft
remained
seeing
connection
committed
##rim
##igar
honor
magn
culture
royal
##aft
chann
agent
##iance
turkey
www
##mb
##andal
standard
collect
germany
tay
##estic
74
du
knows
skin
initially
australia
##ufact
lawmakers
71
cath
00
##iot
##24
reasons
assistant
refused
register
##acher
ford
truth
manufact
conclud
tests
hurt
cold
willing
explained
##burg
##gl
##ano
##agues
familiar
practice
restaurant
minute
tweets
athlet
brook
controll
01
kr
##ero
stuff
unit
options
critics
##aham
planning
sort
beat
environmental
moon
##uate
shock
##erved
ec
fine
##ika
u201cthey
dollars
surface
iow
##itude
active
supposed
cere
fully
##actions
responsibility
depr
##astr
##ript
warned
factor
tool
ministry
##608
##arks
voting
activities
massive
eat
##iced
movement
appearance
resources
faces
bern
pac
##ids
unclear
seat
mostly
##ube
legislation
05
arab
appl
2005
absol
eric
jury
stra
equip
vari
##oles
kick
spl
ign
iowa
shel
parl
loved
##arters
operating
easy
56
andrew
cigar
directors
crimes
##och
##uana
unrest
scen
epis
conversation
##mas
##onna
unus
reality
osc
detect
##atively
##pped
separate
indian
facing
effective
dogs
sought
##ieve
estate
winning
opening
occas
approved
larger
##aries
##ijuana
capit
businesses
watching
designed
pow
awards
##inger
devices
kidn
agents
u00a
believes
delivered
gal
##mission
u201ce
u201cif
swift
humans
##iami
rose
stars
mccain
originally
equipment
##rich
##iber
owners
dozens
syn
colleagues
onto
band
haw
##ifer
##apping
malays
##ef
usually
bridge
##encing
strength
evac
waiting
prince
##oses
mile
##enger
##rey
overall
obtained
##oes
##ha
factors
fourth
rally
##ipl
jul
##aa
##eline
spring
emer
fellow
establish
perry
facility
##night
##rect
faith
sick
##iment
dropped
lady
miami
##inson
eastern
attempted
academy
##zz
surg
investigating
marijuana
planet
singer
challeng
participants
covered
expressed
cia
parliam
ts
steps
##eled
failure
domestic
sanctions
fuel
write
categ
jr
##ches
##isted
complaint
religious
cities
##ius
peter
daniel
parliament
acting
helping
67
64
mort
fresh
africa
freedom
astr
kil
##town
champ
perfect
internal
extr
joined
kavan
adults
quality
##ledge
announcement
benefits
hate
##agon
##orted
presence
politic
promp
bail
##oduce
places
clim
testing
chron
length
##oked
simple
##ym
unp
admitted
rang
##ribution
boys
selling
victory
kavanaugh
sentence
02
scal
assad
identify
##ingly
affect
vehicles
uff
anc
##ander
taxes
funds
arms
contain
rick
##ighter
195
object
personnel
writer
##enty
congressional
extremely
##ena
span
bloomberg
las
rh
##rom
222
developed
cuts
features
u201cyou
kh
##sey
amid
##ulting
coach
possibility
sympt
##tsy
focused
circumst
straight
##815
style
worse
investors
harvey
occup
palest
nasa
warr
nomination
ultim
sudden
repeatedly
##icit
involving
round
##ba
##rees
india
##ios
famous
fit
##kes
##uted
##irt
britain
##board
##egr
boe
arizona
##load
##outh
proposed
drinking
u201ct
severe
exclus
regarding
##39
##aine
autom
sitting
etsy
dismiss
assets
##agram
spir
feb
restric
doubt
false
bure
##ulate
plus
flu
belong
farm
predic
org
spend
manh
putting
protests
discovery
colorado
taylor
cy
privacy
##eland
##atever
walking
negative
##ception
setting
walked
reduce
largely
laugh
##cow
##fd
indeed
difference
##ining
##utions
asp
offers
commerc
confident
##otten
streets
collection
window
innoc
99
pope
consequ
dozen
##erate
##oma
##azi
authors
walker
influence
santa
nominee
##more
##standing
successful
owned
nar
brad
knowledge
medicine
penal
ultimately
##isher
reaction
communications
weak
unkn
adjust
entered
##gu
u201csh
scandal
christmas
links
neur
integr
attended
##rible
declared
outl
coal
##anced
lose
bear
400
argued
dim
##oh
##ga
sav
basis
generally
luc
player
wedding
discussion
##works
##iful
serving
nick
row
##oned
##icip
##ills
glass
palestin
##ici
whatever
canad
depart
solar
##vard
##unte
afford
steve
keeping
michigan
pregnant
lind
##owed
truck
prepared
tempor
batter
background
volunte
ale
##utely
machine
cerem
wer
expos
##dc
##sen
65815
##ez
658152
98
##berts
healthy
winter
feeling
joint
flying
memorial
guest
explain
u0095
prosecutor
unknown
mental
##elle
pra
fraud
crack
recorded
opinion
hang
luck
##izes
deadly
weapon
benefit
##cer
resist
elected
correc
embass
polls
##aid
##ivity
accep
everybody
suspic
motor
ped
u201cin
scale
proper
violent
injury
strike
estimates
amendment
alive
regional
terrorist
##eda
##ores
anton
guid
ded
sides
##19
instagram
sessions
##kin
ongoing
myself
regime
threats
footage
62
dad
ip
##itation
trig
votes
ring
##very
##ucks
moscow
substant
fest
##bel
##oul
##icop
##ucc
##xim
##oe
##ansas
explains
ambass
##respond
les
investment
##ront
##mates
##well
stol
remarks
younger
pilot
jen
elections
adviser
##uties
autop
escape
criticism
commercial
jenn
function
rebels
altern
cohen
activists
bottom
surgery
correspond
##east
##gment
eval
##ews
suspects
u043
unusual
bought
divers
##rop
##onents
produced
assistance
purchase
apply
qual
funeral
iv
aggress
mont
##ointed
u2022
ble
fif
##ories
##ector
decisions
coff
roberts
possibly
digital
conflict
##usion
electric
speaker
outr
compar
newslet
##asts
contest
providing
affil
classified
navy
title
anthony
giant
seriously
professional
##bola
punishment
##bl
sequ
broadcast
##ashion
affairs
lew
signal
league
missile
conclus
fake
tech
##ushing
incred
happens
christie
##reek
founder
appropriate
04
eating
flint
fatal
ufffd
circumstances
grab
disaster
calc
potentially
captured
replace
joseph
tens
##iters
##osis
mueller
liter
english
devast
guns
proposal
views
christian
threatened
strategy
capitol
fashion
wounded
##ula
u201cl
##abor
becoming
spect
retail
listed
presented
roughly
##isan
pattern
moments
immediate
moore
divor
od
##gs
##icks
suppl
07
dur
##awn
skip
gallery
66
unless
slight
sharing
books
davis
consumers
##antly
##uated
##isters
##abilities
movies
ruled
australian
gang
twice
relatives
##active
columb
mcd
symptoms
stolen
somebody
teacher
rebel
pregnancy
cosby
os
faced
diet
2000
located
tested
sky
surprise
gives
misc
qa
unable
notice
##etts
neither
##ections
grew
standards
software
##water
corporate
##omes
flow
ox
pin
rush
vul
2004
palin
u2014the
##pm
##inate
emp
identity
ebola
jord
wake
##bing
2003
double
beautiful
##uses
150
teams
u044
channel
canadian
nfl
zika
cool
deeply
comfort
noting
accur
assa
helicop
661
##gen
194
valley
##nam
provides
summit
ly
mol
##ete
interests
targeted
nut
resign
mountain
dall
##roll
implement
veg
adult
harass
yout
##eas
dress
passenger
england
tonight
talked
84
##born
pled
actual
urged
specifically
astron
embassy
bath
mall
georg
malaysia
weren
##olic
##quir
counts
##ipping
banks
absolutely
pip
##ashed
08
py
sac
braz
##mann
raising
promot
heat
instr
advance
embed
ambassador
gard
##upp
directed
murd
suffering
rum
##ban
investigate
performed
figures
illness
spotted
##onnell
##erous
u2014wh
headqu
kat
lie
deleg
witnesses
emotional
bin
##77
cham
obam
greg
voted
sorry
sending
##vant
##rier
smaller
miller
##lig
thinks
tow
##adel
saud
intention
edward
##ched
transition
exercise
ted
involve
filled
widely
map
ud
##iders
neighb
increasingly
recommend
dun
rank
##36
waste
remove
attacked
pointed
##cription
vent
wealth
interviews
jordan
kate
##ih
##itely
alt
advant
paying
causes
tru
quiet
considering
representative
youtube
lock
##order
##atern
surviv
##ulations
graham
decide
approval
661608
dar
##oz
##how
prices
holiday
##coming
panel
##lv
except
supply
u0094
speaks
japanese
##rupt
subscrib
oscar
bat
markets
organizations
##reh
##eld
deploy
complain
risks
terrorism
dallas
##house
breath
condem
sharp
holds
winds
picked
pushed
comedy
duty
highway
##othes
understanding
##aska
springs
ride
##isf
##istics
##ologists
hen
jess
##ini
adm
allies
2001
requires
nice
##coin
asse
##roit
referred
##holders
babies
brian
yah
unique
communities
threatening
archae
explosion
stood
controversial
fol
##rial
##imm
interested
episode
bell
stret
##erse
sust
##abeth
clar
u0093
scientific
vacc
micros
##hab
##ican
##uther
contract
differences
weigh
##ppo
guys
hoping
coord
u201cbut
u0092s
fan
##ker
vulner
headquarters
##person
belief
barb
shots
approxim
bitcoin
dispatch
##utation
consp
runs
kenned
aleppo
harris
##654
cart
fisc
ray
##ca
##ua
##actor
traged
##iev
controversy
gh
##22
whe
stab
detroit
##timore
tan
vig
##oring
##itory
stands
catch
gain
hamp
jay
remaining
centers
##phia
closer
forest
turns
cyc
##ship
##31
prove
##achus
typically
testim
911
uses
attorneys
losing
consumer
##achusetts
spons
worried
traditional
bureau
kennedy
kiss
frustr
charles
payments
massachusetts
liberal
##ompl
##acare
proud
relatively
##anged
kevin
philadel
surrounding
batt
##hal
##tered
leads
2002
sexually
publish
route
emerged
master
##utch
gathered
weinstein
temperature
trouble
ceremony
saudi
##apy
youth
baltimore
##oft
angry
entertain
jam
lob
seconds
promin
fiscal
##89
brothers
feature
towards
##ta
##mate
outbre
subsequ
existing
prize
happening
castro
managed
worker
allowing
libya
album
philadelphia
tree
##eness
suc
novel
austin
favorite
split
drew
##outs
interv
causing
obamacare
mitt
militants
promised
virt
matters
rapid
granted
zone
##iner
##umn
underst
facts
headed
advertising
sarah
festival
citing
jur
ny
pent
##lan
ads
secure
fighters
bringing
controlled
vegas
georgia
therefore
values
globe
dinner
warrant
yell
alab
epa
##mark
tox
scar
direction
honest
yahoo
##bon
thus
##agan
craz
##oves
customer
utah
jac
joy
##umed
suspended
stores
transportation
##inct
amounts
dram
eliz
bigger
visited
testimony
##life
italy
u2014b
1996
ties
developing
spokesperson
purpose
assemb
##mond
chain
##place
marc
changing
##afi
superv
brazil
clark
fees
prep
securities
approximately
76
daugh
session
##using
airline
dou
hid
task
elim
winner
zoo
##alf
##amm
blast
##athan
construction
concluded
94
##ala
mcconnell
##884
hat
##dom
##agers
infr
milk
##attan
math
na
ru
##fall
isol
shr
##pper
##iban
disclos
experienced
##eding
##idency
taliban
swim
diss
instance
alabama
09
800
kur
lit
##ached
stephen
electron
unfortun
jennifer
cdc
sounds
vast
forec
perman
##umption
backed
confidence
copy
olympic
prospect
daughters
eld
plot
##ogen
registr
imposs
probe
requests
cells
elizabeth
61
hay
completed
immigrants
tar
##itors
spain
harvard
profit
##ributed
acknowledged
03
era
##va
films
traum
eu
va
resol
##ikely
blame
continuing
receiving
argument
bon
mans
wing
nev
seattle
solid
journalists
##sylv
pennsylv
introduced
ic
pool
stan
contained
nobody
u201cthat
numerous
claiming
girlfriend
initiat
closely
display
advantage
josh
ka
fred
flights
rising
allows
easily
tragedy
87
ho
mouth
##dy
##hr
stated
produce
##opher
##odes
newly
laur
samples
matth
theory
petition
surprised
obviously
boehner
manhattan
wik
##inn
chick
replay
pennsylvania
drove
interp
mrs
807
recovery
hired
mitch
##83
##ela
##illing
evolution
supporting
advice
hell
##ias
##lyn
genetic
discl
97
##head
minimum
investigations
##echan
recovered
cited
##mon
forg
##orders
wright
damaged
connected
choose
imagine
exposure
##fire
types
install
simpson
survived
snowden
established
wine
##sp
##lights
##acing
searching
reflect
dream
##can
##ocol
marine
emph
smoking
jewish
##inating
exposed
##phere
village
##iations
encoun
revolution
celebrity
satisf
birthday
applications
impossible
repr
buzz
expenses
feels
correct
marketing
creating
diplomatic
rif
stick
##essive
unlikely
63
jong
tight
surge
anonymous
lands
zero
##ka
##ounced
civilians
learning
hung
significantly
destroyed
##94
##aling
relative
discipl
bacter
neck
sport
turning
6982
referring
hamas
variety
##cl
##uations
senators
behalf
surprising
ancient
u201cshe
dating
tam
##aug
##ading
aband
apart
achieve
core
wear
outstanding
defe
finds
physic
charlie
82
##icient
client
contacted
earned
swed
incidents
truly
bills
balance
analysts
worry
studio
worldwide
protected
percentage
apparent
indicated
catholic
mechan
##acting
prohib
buildings
criticized
charlott
settlement
louisiana
gotten
atm
smoke
boost
patrol
pacific
qaeda
bol
pist
##iqu
##pet
detailed
gender
vest
##66
pleaded
shutdown
u03
consequences
forth
##chester
firing
tunis
88
cann
infection
boat
finish
delay
estimate
describes
updates
bes
mut
##elson
buried
807884
sample
##fe
##ops
spar
offensive
disney
##ijing
laden
tiny
wisc
beijing
memo
heads
trading
heavily
06
fer
tall
wire
##ington
reward
unn
allen
shouldn
hospitals
journalist
windows
silver
jet
pounds
reputation
appe
interesting
dub
rein
score
artist
firef
discussed
license
ven
beer
withdr
##under
##eme
strange
weekly
realized
meetings
falling
division
antonio
##cious
##thy
disorder
consult
##ields
basic
golden
crawls
hawai
nato
treas
elsewhere
refugee
##05
##har
##elines
represents
cyber
##orse
##onsin
engaged
generation
application
600
native
tort
harry
greatest
equal
sweet
random
queen
ging
##ko
##wal
cry
driven
warm
transl
error
conservatives
kilomet
entertainment
wisconsin
tend
accomp
interviewed
positions
sandy
attempts
waters
definitely
ech
load
ron
inches
alert
hero
branch
comprom
informed
anticip
suggesting
solution
answers
behavi
recalled
tony
##nd
stun
shift
fratern
earning
puts
satell
regulations
frequently
tip
##isa
rejected
distance
ideas
birds
amazing
consistent
mun
anger
##acc
##agic
resolution
##ogue
marsh
courts
boyfriend
liqu
wildlife
emphas
tast
##75
##alian
##illy
plastic
presidency
oblig
myst
highlights
missed
challenges
palestinian
brut
##reck
crashed
spirit
cha
debr
household
73
fda
pit
fled
download
journey
christopher
robin
observed
fisher
anch
cabin
prompted
slightly
han
##ications
repeal
discrim
handle
historic
##ennis
avenue
ment
merc
##de
alaska
guess
viewers
motion
veteran
dial
vet
##mad
##inder
facilities
spoken
switch
250
equity
iranian
cultural
##ruption
atlantic
registered
oak
##atically
##ertain
models
fifth
gingrich
lying
aler
grown
decre
structure
index
ell
edge
testified
##ocal
adam
hadn
incor
holder
practices
procedures
spanish
rival
soph
##iences
noticed
enem
apprec
drag
letters
historical
listen
strongly
combined
leaves
recognized
microsoft
joke
cru
retired
opposed
##shot
domin
degrees
penalty
conspir
prominent
kerry
pence
##equ
reference
quot
stress
breast
explan
questioned
commissioner
##box
##ulous
buff
deputies
filing
gunman
distribution
cigarette
lewis
dyl
element
revel
##onduct
locations
producer
mentioned
##whel
targets
fears
citizen
krist
ba
vl
##ties
##rie
u201cand
bright
drivers
maintain
salt
##inois
fet
u201cg
abb
upset
u2014a
accompl
downtown
killer
patri
##apper
##ucker
motiv
unlike
orders
appeals
jason
inquir
##acity
province
imprison
mistake
mcdonald
81
92
jer
sir
##care
memory
illinois
minority
debris
##icial
whit
recip
thoughts
rocket
escal
adopted
misconduct
fo
##ahu
loud
gulf
tied
##illed
##aken
recon
earthqu
refugees
poison
athletes
scenes
pentagon
cord
cup
huff
lav
##tv
##iable
thir
chest
officially
depos
handed
clinical
##shire
cutting
funny
horr
battery
##onent
stew
clot
longtime
maximum
coffee
loyal
##omb
##ece
desper
extreme
rubio
93
mour
unex
exhib
banned
entirely
negotiations
politicians
outbreak
dylan
cards
lam
##85
confront
##greg
##ils
portion
competition
maryland
nevada
##ints
##ables
becomes
category
##oster
blank
guar
chronicle
##inations
communication
requirements
biden
##kel
gray
graph
manner
drunk
embr
blow
songs
sensitive
accepted
cats
##79
##enda
anybody
networks
erup
welcome
crazy
bapt
theft
wash
relief
collected
commander
##ext
##point
##74
##oner
toll
italian
gross
##appr
bowl
height
disag
colon
authorized
flynn
aides
nsa
##iser
##athy
yourself
metal
entry
painting
bullet
89
##ani
andre
##ouri
tea
shark
stayed
representatives
reduced
divorce
sem
overwhel
justin
1999
innov
complaints
nelson
##ales
shape
draft
##ancing
##ahl
michelle
closing
relationships
inspired
cauc
weiner
tools
innocent
vision
##racy
carl
offices
goods
symbol
cardi
select
tribune
wave
##ito
comey
shooter
violation
package
##itzer
telep
housing
coalition
##pread
todd
projects
string
remind
alongside
basically
prayers
assessment
harassment
oreg
##okes
##veland
posts
suburb
activist
mexican
guarant
gm
nurs
##do
flo
depend
governments
wars
extent
totally
cleveland
woods
extraord
helicopter
stewart
oregon
dick
lin
##yang
acts
carter
prevention
snap
entr
outrage
newsletter
##ument
##uts
bron
antib
cops
neighbors
gonna
migr
tact
wides
##gar
##usal
schol
terrible
retire
extended
homeland
landing
rolling
gi
mas
##amin
##apol
indones
executives
princip
accusations
##arrass
exclusive
survivors
bacteria
boss
##oj
appoint
decline
preferred
centre
occur
racial
fighter
ger
sight
tm
asia
##eston
##agr
grass
##argo
belg
soldier
traveling
ticket
pyong
spin
minnes
personally
hunter
struggle
toxic
widespread
86
pump
pushing
##state
indiana
datab
lots
vlad
##itarian
concent
##aware
##affe
returning
equival
mine
judges
burning
embarrass
combat
territory
wells
relevant
addressed
strikes
dollar
shopping
diagnosed
u2014but
infrastr
kus
##uits
##ita
##ionally
##idated
##eman
##ucting
blamed
elig
insisted
indicate
bound
cable
empt
warren
requested
pieces
gamb
stem
knowing
ending
deliber
buck
tes
highlight
handling
promise
renew
minnesota
concentr
ingr
##otic
shif
orange
##road
passing
disturb
begun
aimed
punch
ye
##gers
forens
tragic
containing
buying
engage
verd
methods
dil
ire
tob
independence
alternative
700
plenty
cruc
drama
maria
legs
describe
hunting
disappeared
columbia
accompan
lunch
##win
##aters
seats
##uster
meat
follows
entit
cameras
conviction
dismissed
mystery
bul
##rary
context
preserved
expensive
##iveness
entering
references
materials
matthew
aide
cave
fant
finger
hu
##esus
anderson
##lying
outcome
struct
parking
flooding
hampshire
pyongyang
##zed
##80
##usted
##avit
overnight
defined
##ashes
transform
larry
losses
conversations
tenness
hawaii
cow
gag
tear
remark
explo
complained
infrastructure
coc
kir
##nbc
intense
apps
breach
increases
institution
wage
##apher
intent
marked
consol
helps
hoped
manufactur
baptist
##anes
amy
prisoners
u201cwhat
regularly
corner
elder
conspiracy
83
mit
nur
pending
##gun
##idem
reid
##cher
##uls
intens
expans
capacity
detained
clinic
failing
u201cwhen
detectives
kenn
rar
rice
column
fewer
jonathan
atlanta
##wa
stuck
haz
serge
moves
##ographic
crews
egyptian
tamp
##ella
phones
friendly
hacking
suddenly
hidden
lt
pel
piz
##lay
##uous
##bal
##imir
##issions
missouri
stepped
dealing
ratings
bang
##aled
##ceived
##lands
concert
rs
##esy
##ogan
expense
headlines
calm
rescued
bottle
ukrainian
veterans
teachers
clothing
tmz
kansas
nic
chose
scan
writers
contrast
##atured
researcher
greece
uncover
370
commitment
essentially
##taining
##55
inaug
brun
ages
ends
opponents
plea
alexander
precise
vigil
gil
rating
overt
forms
legit
musc
excited
epidem
pig
rail
ross
##aire
frame
trend
##umer
enh
provision
radiation
patrick
papers
mah
inappr
infected
plays
fallen
reviewed
represented
scalia
withdraw
kushner
hug
lane
alter
measured
strip
temperatures
wilson
assembly
teleph
tesla
locked
ri
rig
##gy
##orum
stable
susan
homeless
moham
aggressive
encounter
vladimir
gap
bever
shirt
compreh
##erves
soccer
##owski
drawn
cuba
begins
##immerman
fault
hook
jun
mamm
nancy
zimmerman
optim
iron
radar
reasonable
houses
obvious
applied
suther
##acle
marks
planes
arrive
visiting
landed
constitutional
npr
tiss
upper
vess
##war
##orrow
##acco
sean
grade
invited
##acters
sellers
cock
golf
pm
pitch
##etime
doors
instru
reads
heading
southwest
parker
hunt
terrorists
##ography
persons
depression
vulnerable
##omen
shocked
finished
##phones
characters
realize
judgment
bombs
struggling
yellow
satellite
tennessee
gut
lev
##apse
aged
##ords
interior
##ixon
##annon
tears
##feed
##eler
aside
##enders
##aws
fla
##athers
##rators
delivery
islands
dispute
checks
bart
tap
forget
##the
exception
flat
roof
employment
uncertain
jackie
bedroom
substantial
henry
##osphere
units
asser
featured
captain
escaped
subsid
monitoring
sutherland
##ports
##arch
pron
##iform
##aved
quoted
raid
hackers
niger
uber
thor
u201cas
##emen
resulted
insider
skept
collaps
pleas
canceled
primarily
##cript
##ario
deals
teens
##what
fundra
medicaid
tomorrow
cameron
gate
uc
remote
violated
viral
iraqi
##wan
##ulating
clients
feat
endorse
bars
palace
flee
u201cno
bathroom
principal
iphone
tiger
##oration
prost
##osen
deem
grave
plants
recognize
powers
guidelines
mh
sed
shout
seized
apology
annivers
charity
burn
##ographer
combination
fame
icon
pod
##18
##eling
transpar
felony
dump
hiv
##laim
anx
sued
courtesy
files
promote
##anny
technical
iii
kent
##oen
##tery
##pping
sees
##abet
turner
transfer
screening
opportunities
scrut
casual
involvement
disclosure
unfortunately
extraordinary
ta
tone
proof
amp
meg
##away
hitting
portr
websites
predict
purposes
guests
permanent
dod
wag
##73
##ileaks
investigated
##strong
electronic
vatic
rehab
##sea
plaint
agenda
anywhere
finance
healthcare
diseases
##ettes
lucky
tobacco
vatican
cair
dol
gift
ug
announce
institutions
predicted
jacob
wikileaks
gym
##stri
habit
u201cr
evol
permission
earn
payment
experiment
damages
prosecution
destruction
telephone
ps
ty
toy
chel
##uctions
pharm
restr
##inction
traveled
racist
therapy
supplies
anniversary
button
##ishing
documentary
##onto
collins
##iffs
hills
capture
replied
tank
##ola
##ria
medicare
teenager
regardless
demonst
bach
da
hits
mph
rab
##ication
##ilit
##stre
##actors
enl
enroll
founded
deficit
stronger
sets
##era
##stone
##osing
uniform
exceed
1998
medal
turk
recording
examined
ballot
purchased
hart
wreck
chuck
trained
120
starts
stockholders
priority
ambul
olympics
kidnapped
integrity
auction
ferg
greek
hole
##pass
##lee
##osa
neut
trick
##employ
clothes
u2014w
schumer
effectively
survival
necessarily
beauty
succeed
firefight
bip
##63
ups
dressed
blind
strang
arrange
##ippi
confirmation
stretch
lies
##92
##arge
##ardash
##aze
soul
##bridge
nationwide
procedure
fraternity
verdict
ga
##ashing
##icts
recru
shelter
volunteers
echo
dust
dying
##oard
thick
##ari
##rets
bruss
somehow
##graph
viet
fundam
conservation
survive
conclusion
chamber
ax
rot
sisters
##pa
inmates
##imer
##raid
##ribute
complicated
steven
maine
##9582
toronto
dedicated
bird
faster
kardash
##xual
##news
##uson
assigned
flash
prefer
##ologies
speculation
northeast
advanced
restrictions
astronaut
##een
##pected
##mart
##ials
106
desire
airstri
courtroom
affid
visits
viewed
scientist
bombing
lyn
zucker
##72
##isation
contains
consumption
narrow
threw
fee
legend
representing
constit
briefing
##anyahu
unpre
temporary
earthquake
nazi
porn
rely
wolf
afterward
drone
russell
execution
reviews
659582
literally
inappropriate
dyn
torn
##ket
##44
theater
##inem
saved
unemploy
ark
formed
mississ
democracy
reaching
robber
visitors
surrounded
explanation
gad
trem
##abled
anymore
infant
prayer
database
hik
ramp
toler
##rell
appointed
howard
indict
netanyahu
wonderful
brooklyn
forecast
unexpected
odd
wis
##erce
##itable
stead
##ieved
upcoming
engagement
peaceful
jessica
kilometers
u201cmy
publication
diam
legislative
approached
sleeping
jumped
odds
registration
##apolis
##umm
manning
studied
possession
arrests
awa
jean
acquired
empty
ay
dc
dance
ward
##illa
outs
crying
##cedented
sentencing
##flix
##addafi
hydr
initiative
##pson
resulting
provisions
judicial
grounds
striking
traffick
psychiat
diagnosis
##ihad
mississippi
fate
pink
##bury
##icut
##ila
scot
capable
autism
formal
everywhere
articles
collabor
collapse
roman
trees
pulling
caution
ult
thompson
##lah
stom
##oded
myster
throw
stream
jane
recognition
gathering
diego
religion
photographs
connecticut
ridic
expansion
ferguson
zeal
##13
trapped
afraid
sheet
extensive
searched
normally
symp
experiences
advocates
syndr
chelsea
rural
##vent
##lo
exit
delete
laid
administrative
importance
encourage
partnership
roger
liquid
az
cous
gained
som
##pan
phen
desk
probation
keeps
attempting
graduate
defendants
disappearance
apologized
suspicious
folks
gig
##areness
forb
priest
actors
usual
scores
attending
supports
netflix
limits
staying
awareness
tracking
library
preparing
oklah
anonymity
forensic
gest
gary
##hi
##inals
##etr
##olit
outp
readers
operate
responding
circuit
earnings
syndrome
fought
ronald
sin
##ilton
##ivals
aboard
cra
commerce
guards
regions
##ctic
snip
falls
easier
overseas
engineering
chapter
##agraph
zuckerberg
conce
weird
##000
corruption
1990s
homicide
arguing
##eva
u00bd
praised
hans
pock
##isp
##artisan
permit
##iating
successfully
couples
nurse
aer
pul
sons
wounds
##lers
##lings
##84
##ata
##ima
obtain
objects
##ifications
playback
harder
subsequent
prepare
rifle
wins
enth
admit
reserve
authent
legally
demanded
santorum
apologize
kidnapping
champion
assaulted
gon
sid
##cr
##09
barr
campaigns
announcing
cease
baseball
essential
properly
subscribe
cannab
665
gill
holl
yard
reagan
carbon
##ibr
somewhere
##ricult
experim
visible
thousand
armstrong
drawing
demanding
pakistani
intervention
dramatic
rarely
affidavit
bash
cu
rav
tag
##real
##otyp
##enson
transpl
aviation
1994
argue
generated
negl
participate
mountains
recommended
unprecedented
cul
jesus
agricult
invas
##eping
universal
radical
silence
ud83
foss
tack
##yer
##anted
peak
emissions
slam
passion
affair
covering
blocked
extrad
cabinet
dates
lion
##ati
##omy
chosen
unpr
sov
depth
questioning
basket
cigarettes
craig
##rison
forever
unve
seed
##antic
detected
mete
returns
celebrities
substance
arabia
correction
trigger
incredible
bunch
jihad
##oric
cloud
u2014s
drinks
posting
providers
slide
violations
damasc
muslims
rogers
oakland
imprisonment
hatch
##uable
##icate
forum
asks
leaked
anyway
##ocking
busy
performing
seller
breaks
acquis
resistance
flex
latter
raw
hem
shell
chase
abu
knife
demands
signing
##phy
foods
telegraph
outlets
damascus
biz
hong
##bus
##anth
##arthy
chat
knox
description
shootings
deadline
intellect
oversight
kicked
establishment
sparked
collapsed
##stream
turkish
91
##nic
##cia
##gi
##mother
##jo
thin
##igation
trillion
suv
accounting
personality
kingdom
persp
jimmy
##upported
cairo
##cience
##eration
dement
typical
consent
thrown
companion
discussions
protecting
proceedings
yeah
mothers
sib
##sl
residence
cruel
##awa
mars
killings
owns
moderate
volume
islamist
advocate
oklahoma
nat
##uan
reun
##estyle
grace
grav
perceived
mccarthy
unsupported
elev
alien
lux
abandoned
pizza
comprehensive
bish
gam
hiding
##rence
##nc
##mont
##ami
dean
##ouring
u00ad
serves
classic
advisers
illegally
restaurants
linc
tb
##ni
##oral
resort
likes
overd
counties
##olds
buyers
addresses
roads
##ophy
bottles
ranking
equivalent
ireland
dated
fields
lap
##elet
##oln
##che
arrival
stev
excell
illustr
raped
##ii
##inced
adams
##izon
##athon
useful
explosive
jews
ethics
expanded
accurate
sits
script
somewhat
detective
insist
describing
robot
u00ef
##uzz
madison
rosen
flew
murdoch
cruise
eligible
stomach
gab
lor
vowed
##bell
##boy
ster
preced
parks
guide
submitted
midnight
processing
err
pursue
entrance
jerry
wy
##father
##pe
##isers
bears
concept
##ested
acted
u201cto
northwest
antibiot
crucial
uncovered
firefighters
brussels
ak
kong
lisa
pill
beast
leon
phr
handful
salv
privile
industrial
fairly
mixed
autoplay
anchor
lists
loving
pier
wound
##rid
##iller
unw
seoul
enable
dish
scared
infants
defended
edition
veget
convinced
##comes
encouraged
challenging
ranging
tensions
murders
gif
nich
shame
##chi
trop
##acked
caller
walks
denver
liability
affordable
autopsy
resignation
trauma
zealand
dementia
lincoln
borders
##fund
##gle
##esc
##armed
chances
##agen
u201cpr
##aving
##ucky
sugar
voter
humanitarian
civilian
constant
opposite
laboratory
devastating
garden
##hran
96
bie
lun
md
tie
##izz
associate
barely
##afe
##anne
referenced
domain
ipad
665654
amended
liked
electr
nominated
towns
audio
protective
philipp
cooperation
arguments
bernie
##ucci
deemed
gear
nass
sadd
##lie
##uration
prol
alan
fires
belt
filmm
adjusted
rushed
tissue
neutral
cem
##03
##esa
##icing
shed
brings
carrier
##ensus
tourists
targeting
couch
correspondent
scrutiny
fasc
##hor
stations
reven
##umes
##osexual
assange
facial
appearing
populations
antar
responses
broader
catal
chemicals
enthus
##07
##pay
u22
incent
addiction
proved
gunshot
unfair
boxes
tabl
incredibly
cogn
kas
ott
tape
tips
##ien
##21
##arre
##irts
oldest
minim
##opez
respectively
routine
oxy
understood
atmosphere
meteor
##tive
##hy
##bour
shad
##ocation
dry
eman
quant
infl
skills
topic
pilots
settled
champions
bone
##iety
##ss
##uto
lawrence
editing
##985
hospitalized
irma
funded
technologies
walls
recalls
u00bf
bleeding
chicken
entitled
consolidated
bp
dutch
lopez
waves
##mo
wheel
charlotte
scholars
soviet
pere
roles
tail
passw
valid
sandus
agreements
unders
schedule
u03b
gib
##ifies
abroad
donors
detention
russians
organized
profession
trials
engineer
editorial
overwhelming
demonstrators
eag
##isons
##aying
##adium
contam
compound
donations
childhood
instant
retr
universe
franklin
deployed
defeat
gaga
bump
cant
dict
gent
kitch
nerv
##star
##osition
herald
recep
imposed
advised
exclud
penins
watson
trailer
hyper
cycle
rapidly
bieber
creek
gains
rivers
tu
yemen
##iary
##ls
##mes
##wich
ships
clock
manchester
justices
##ollo
subjects
legacy
burned
pastor
solutions
patterns
u2014which
delegates
inquiry
kardashian
gaddafi
tas
##hd
uncon
goals
resigned
presidents
politically
maintained
existence
confidential
##iciary
comfortable
rumors
wealthy
bones
dawn
jav
nose
stadium
##riers
amanda
twin
smile
apollo
judiciary
frequent
##iques
cass
fid
foster
hub
inher
##iti
contacts
partisan
##roid
releasing
jeb
corporation
jerusal
cannabis
jerusalem
vital
##ingu
##asia
andy
chan
brands
timeline
##owned
flowing
cleared
sixth
kinds
##ycle
creative
warnings
recommendations
basketball
peninsula
825
hij
ker
##math
##aning
##ighth
##ortions
phoen
##lick
followers
controls
staffers
medication
disappointed
cuban
rhet
prospectus
817
bou
pd
##here
##ora
##repr
spy
brid
perpet
tehran
discre
holy
improved
joining
biological
elements
guidance
supervis
incorp
phoenix
hann
##gt
##gent
##oto
##iro
cliff
polling
manage
firms
assumed
invent
supplement
proven
extend
runner
carefully
##after
declar
tickets
sustained
##tle
saving
conven
frag
##oured
heroin
enorm
##acks
prescrib
elabor
courage
screaming
bankrup
cellphone
silent
briefly
diplomats
comparison
reproduc
discrimination
disagree
intellectual
gord
nash
roy
##po
ally
bruce
conscious
deport
20th
harsh
165
situations
murphy
distinct
murdered
verify
replaced
fortune
indonesia
sandusky
bun
hud
sector
##oat
##zing
##isms
u201cour
phase
skull
archived
okay
struggled
bags
defendant
slowly
hanging
barbara
featuring
bankruptc
covers
fab
vert
##ectors
attached
infections
poster
retal
glad
##enna
solve
hearts
suffer
reveals
##heimer
psychological
lifetime
brooks
tsar
dougl
bankruptcy
kal
naked
wore
##omic
quit
1960
advent
crossed
frequency
behaviour
enemy
retirement
mohammed
##rick
toky
trucks
interf
blocks
backing
endang
u2018i
classification
portra
answered
squad
vacation
shocking
buzzfeed
brutal
quotes
##abetes
gonz
jokes
lord
pu
##itis
stup
##iration
grate
timing
conducting
classes
listening
##340
cubs
eleph
devastated
unemployment
bench
dave
nest
vs
##onia
##organ
notor
u201cfor
repair
##apore
##iki
warming
musical
diabetes
##attered
singapore
executed
1997
lawsuits
treating
sams
horror
flags
tokyo
404
pose
rhod
##71
##arms
##identified
marathon
2020
missiles
classroom
seemingly
congressman
distributed
badly
hopeful
##liminary
condemned
pronounced
diamond
dennis
fi
rounds
##no
##hs
##oli
reserved
##issa
underwr
##elfare
talent
130
farmers
departure
samsung
boot
hood
##yard
##bled
##54
##omfort
gene
confron
profits
##force
distress
awarded
settle
attract
manufacturing
grabbed
edwards
vaccine
appointment
gates
khan
vit
ws
safer
chocol
opens
photographer
genes
signals
moral
humor
mainly
brewery
absence
teenage
touched
cosm
robbery
perspective
ailes
nixon
welfare
##mel
##orated
shipping
saint
neil
managing
##ibilities
emoj
##ova
throwing
##atherine
arriving
preval
competitive
galax
isolated
taste
arkansas
mood
narr
##bits
##orius
##anor
forcing
notified
u201cj
seal
newborn
clip
evil
margin
##iano
theme
investigator
metro
safely
excav
certific
1993
robinson
melania
mandela
prompting
bipartisan
oxygen
bald
stamp
hav
##ivan
abused
preliminary
studying
regret
confed
kidney
##etta
analyses
strategic
selected
checked
mirror
u201cevery
stanford
ingred
overtur
indictment
101
##udes
##apers
aftermath
reck
defending
deleted
reduction
1995
waited
customs
tunnel
applause
disclosed
desperate
dow
dop
divid
rent
rud
dism
soil
ourselves
wrapped
deserve
keith
valuable
feelings
revers
misd
consideration
licens
bernard
pistorius
rsus
bizarre
lung
##die
beef
##verted
herit
arts
##iped
handled
delaware
extinction
##rete
walmart
##ushed
multi
indicates
horrible
berlin
##astroph
huffington
caucus
thorough
dies
fm
yield
##ruit
##29
asian
##aki
##unction
orland
##ghazi
craft
phill
nobel
strict
underw
defence
seeks
corps
##naev
divided
rodr
magnitude
elementary
kitchen
tsarnaev
grateful
fav
nether
vocal
##rist
##ht
notion
##iani
investments
145
starb
criter
garcia
mosque
benghazi
machines
ethnic
linkedin
physician
alerts
elderly
morm
rach
##rol
##gered
reass
##oker
polar
dece
signature
handgun
correl
pointing
taxpay
particles
administrator
copies
marketplace
ern
rebu
compete
legislature
arena
teaching
tower
chaos
sony
##eb
u20
interven
genu
125
lethal
massac
ceiling
applicable
tribute
ambulance
711
pear
##held
toil
prin
u201cso
intim
expects
coh
underlying
##rah
delayed
promising
hardly
debut
examiner
voices
posed
rocks
##iere
##yder
stim
##igue
##usive
adapt
schne
endors
skelet
musk
cambridge
premium
acknowledge
reducing
treasury
riot
##oning
##aron
##alid
stake
bee
twenty
manip
obst
careful
exciting
##burgh
catastroph
academic
kentucky
kay
lights
ruth
##bie
##aria
inbox
shore
congr
poland
##achment
transferred
borrow
superior
1989
coastal
compromise
structures
nervous
bub
fert
maps
tum
taught
##pers
sole
assass
stressed
appropri
u00e1
circle
volunt
expression
##ceptions
examination
accidentally
##worth
electricity
dispatcher
inauguration
epidemic
championship
mate
##dale
##87
theories
##inely
##enz
print
##agu
plun
cole
opt
slate
coroner
oppose
visual
steel
privately
approve
packed
alexa
landsc
dialogue
netherlands
starbucks
km
##iples
##kee
##acon
u2014in
donating
backl
creation
irs
engaging
##shore
urging
dropping
tracks
analyzed
merely
pledged
giul
perez
aqu
sgt
tang
ware
##fast
u201cun
spill
estr
administer
potato
palm
lowest
pollution
abbott
accompanied
heritage
loves
nap
rou
sink
till
##137
##esville
shoes
suic
outcomes
##auss
exped
transaction
meters
southeast
holders
uncle
periods
alleges
celebrate
##comed
brady
wagner
enormous
riding
##ura
##alled
clashes
param
involves
employed
closest
sweden
disturbing
vietnam
emanuel
orlando
bitter
eve
rated
##eli
trash
unidentified
##aping
recruit
explaining
propag
tradem
owen
jenkins
interpret
douglas
stupid
mud
porter
##rum
##cott
thumb
##asy
convert
##agger
##endous
groc
investigative
##enez
grandmother
expanding
trafficking
nassar
kl
nu
nin
reop
exists
u201call
##uded
reserv
submit
patent
openly
embargo
millenn
crossing
##370
mosqu
anxiety
criteria
om
sinc
##orate
alger
unh
##ipe
scheme
longest
##teen
denies
urban
expectations
fatally
persu
parenthood
ignored
suspicion
mitchell
tampa
lynch
transplant
817985
chocolate
fence
hind
ml
pure
tent
tons
##rd
##alo
leak
adj
##heric
brill
##ateral
underground
inflic
raises
statue
loan
brotherhood
garner
fortun
citizenship
accusing
connections
restricted
promoting
virtually
dj
##ooth
##icted
plain
carries
overl
knight
##azz
meth
1992
label
discussing
hosted
martine
emerging
physically
examine
limitations
sacr
fundamental
cemet
bannon
cov
dot
gor
horn
ky
rall
sull
##bn
prote
hey
u201cnot
segment
##istent
manaf
marry
modest
picking
separated
welcomed
enjoyed
replacement
reconstr
manufacturers
bashar
lov
pound
uva
##irty
marg
paragraph
techniques
accountable
inspector
cait
affiliate
conclusions
calculated
sustain
beliefs
resolve
sophistic
graphic
toys
##stal
##child
trace
alliance
meal
transg
requiring
juven
1991
booker
latin
constantly
philos
madonna
evacuation
legitimate
siblings
maker
wang
##bar
alg
trends
##ante
##urred
partially
regulation
protocol
limb
sufficient
liberty
ordinary
macron
diversity
vessel
hip
pover
u25
alz
##ours
opio
u00ed
colleague
feared
racism
##ught
principles
newsletters
archaeologists
anticipated
fulf
##ois
##97
##jection
rex
exha
orle
##004
scram
sciences
expend
elite
##prof
tale
explicit
168
burden
pleased
deny
friendship
paint
femin
adoption
empire
phenomen
cognitive
rhetoric
berg
dw
naz
##rition
##bow
##ede
whist
##accept
arth
u2014h
evans
computers
donated
underc
removal
depending
producers
promises
identification
benj
triggered
jenner
chambers
cousin
cemetery
poverty
##27
reject
bees
albert
tri
##acking
arsen
adequ
cler
assign
parole
wrest
desc
warner
employers
billionaire
storage
beneath
politician
uncertainty
alzheimer
dign
fiction
mast
##tz
anders
fruit
barry
sentences
stephan
statist
goldman
bias
spotlight
sanct
lifestyle
watts
checking
temporarily
kurd
martinez
orleans
##note
##ja
##vere
spic
acceler
interr
removing
imper
swing
militant
##leton
participating
properties
kelley
regulatory
displayed
definition
mortality
aspects
praise
manafort
rapper
##don
##vy
sum
##uming
##usting
brows
resem
reliable
beloved
producing
##intend
rockets
volunteer
pediat
stevens
825654
jets
kath
rivals
sod
##91
##icon
##omed
##etch
##urity
stance
incoming
perm
pressed
starring
criminals
technique
statistics
panic
##rupted
ratio
opinions
occasional
bere
mug
##iy
##idal
##etz
##storm
##amous
##osi
fever
donor
underwater
colomb
slides
transactions
homosexual
hostages
bloody
curt
memories
breathing
subsequently
##walk
agriculture
gins
hire
##28
theat
##itated
alph
##ieg
scary
assume
180
letting
operated
libert
msnbc
contributing
explosives
proposals
demonstrated
feeding
palestinians
juris
mormon
bot
fu
##feld
##uating
##eting
##etically
##imp
##ules
dear
spac
herman
##astics
disg
##assion
medium
##anka
profound
motive
obsc
speeches
ranked
tourist
charleston
ashley
proceeds
ownership
occupy
automatic
u043e
hob
lyr
nerve
##vest
##tha
suing
abortions
usat
##asty
crown
twins
teeth
syd
concrete
winners
membership
burns
developments
indication
1980s
##ylum
expecting
jeffrey
factory
affiliated
astronom
swimming
gambling
cocaine
ridiculous
ease
murr
pants
##omo
whale
allerg
aggr
investor
smugg
associates
johns
restore
liabilities
males
enterpr
unfold
popularity
innocence
u2014who
swedish
tropical
huck
jared
mors
rome
xi
##western
inev
franch
##endum
grants
marco
##ache
quote
strauss
##othy
anne
##ternal
impression
choices
neighboring
libyan
duke
frustration
doug
authentic
acquisition
congrat
caffe
lub
sier
##aver
##lass
##hl
##ento
##ecraft
stern
replic
##ello
components
stroke
joan
condol
excessive
journalism
deeper
vermont
eggs
communicate
julia
chronic
duncan
mh370
fossil
eighth
fool
jp
lump
pard
##gate
##hand
pride
asylum
##essing
noise
carson
##onda
mining
wayback
explore
businessman
richmond
princess
cleaning
tunisia
dolph
ultimate
benjamin
bold
len
nun
pace
tired
##vis
##aya
tries
noon
harbor
snyder
firearms
reviewing
hostage
witnessed
scenario
evacuated
ancest
lucas
molec
##acceptable
dor
koh
wol
##uers
##90
inch
##stan
leaks
disch
monument
secrets
helm
caps
airports
impair
advers
##inski
suspension
artists
1990
addressing
loans
determination
characteristics
selection
challenged
remembered
battles
mysterious
luxury
professionals
endangered
giuliani
transgender
mack
##gb
##etary
##acent
leban
##iaz
stranger
warn
employer
burst
searches
suggestion
halt
damaging
romantic
##lessly
portland
predecess
convictions
victoria
reflects
encouraging
episodes
ipo
flowers
virtual
laura
appreciate
guarantee
711137
sydney
dian
gur
ib
mt
##ded
##bling
inner
reactions
isa
##berry
knocked
##ulty
campbell
attacking
##alez
pete
accidents
preventing
spreading
##breaking
advocacy
belgium
confederate
jurisd
benn
fas
fier
goss
hugh
kle
krem
liver
zh
##iya
stal
seiz
gofund
prescription
cob
smell
monthly
arrives
extension
walter
singing
uncons
strongest
observers
exchang
hypothes
qualified
condemn
discipline
confrontation
enlarge
sierra
gofundme
ast
duck
hiring
nyp
yo
yards
##hire
reyn
chern
sheen
##ailed
##print
billions
developers
improving
rooms
cheap
focusing
##ascular
ramsey
tactics
dynam
aaron
cork
duties
venez
##kward
##bound
whis
whenever
preserve
partly
1969
auto
smooth
##erto
contracts
attackers
u2018s
##icole
ranks
unlaw
alexand
concerning
flooded
engineers
smartphone
evaluation
jamie
dubbed
pitts
gonzalez
certificate
rachel
morsi
bour
dug
nam
tatt
##16
##isly
##ione
impose
headline
simon
compliance
salary
salmon
responders
examples
transported
premiere
oliver
disclose
accomplish
horrific
##olitan
gravity
nichol
##elihood
lift
tai
##cano
##front
chip
sevent
##embers
##ieving
recre
thanked
##ancies
identifying
prisoner
hosts
advertisers
benefic
ranch
contributions
cheer
##9932
aids
u00f1
implications
luke
terminal
##uccess
excellent
massacre
lon
tumb
##23
##idi
stability
similarly
broadway
comedian
categories
remarkable
invasion
prevalence
backlash
ci
cents
##rin
##vers
##iture
##ecause
##abee
##obi
passport
awkward
mandatory
occasionally
decrease
##vereign
spacecraft
murray
baker
rend
sic
wages
##case
##ben
##bul
newt
clay
contrad
facilit
midter
equally
participation
absent
minds
progressive
casino
publishing
innovation
renewed
confronted
brilliant
ginsburg
dys
kab
nc
nicole
##rane
##orous
sab
trips
notable
sovereign
default
submar
serial
mainstream
##oof
spacey
painful
pickup
newspapers
##guard
motorc
sullivan
lyrics
kany
##iors
##eus
react
##opard
offender
plate
meets
##ounted
emma
##aho
shoulder
stein
poses
juan
excess
distant
treatments
generate
1986
tweeting
689932
lengthy
##eastern
torture
motivated
fleeing
sophisticated
##gie
##like
##70
##itted
alarm
froz
upr
managers
interaction
monica
quake
desert
formally
confusion
handc
morris
##rator
specialist
nonprof
dominated
revealing
crowds
daniels
municip
misdeme
nypd
frozen
bully
cav
rah
##rob
##avery
##erm
##osaur
unacceptable
u201cis
u201cone
disorders
comply
faculty
opponent
mode
promoted
immun
referendum
crimea
espn
educational
demonstration
sponsored
##laimed
incentive
portrait
cm
mm
nights
reed
beating
fried
u201con
##apes
##ardo
pluto
noble
relating
beck
subway
##ontin
gunfire
llc
delivering
requirement
fishing
channels
osama
semi
hanson
extradition
condolences
bm
bik
hend
mice
##rov
##nut
##50
u201cre
spark
intensive
disrupt
donation
instances
slaughter
confirms
impressive
commonly
labour
indicating
##trump
feedback
loaded
deliberately
elaborate
dak
##nell
##pal
##giving
stumb
##illo
brig
passage
violating
euros
argues
storms
teenagers
kenya
reflected
premier
u201cpe
nickn
unnamed
airstrikes
tremendous
spicer
kremlin
venezuel
cinem
dy
fuck
fuk
mash
rup
yuan
##pit
##entions
##ecurity
shaped
##esty
seaf
intend
##ailand
brett
retain
transit
transcript
exploded
##appy
charging
prompt
##afted
urine
pictured
insurg
##6910
navig
lifted
troubled
dreams
pledge
behaviors
instrument
bend
billy
thailand
shield
sue
##andez
resume
inclus
contribute
interactions
strand
donate
underway
contractor
##rett
viewing
hearings
presentation
tracked
rescuers
horse
attracted
dimin
departments
montana
nutrition
schneider
android
shake
##oca
##alling
##endar
outf
compelling
coinc
quarters
respected
camps
uncomfort
angela
loose
unsuccess
726910
lindsey
pipe
plaintiffs
huckabee
kohl
reynolds
cain
cort
jere
##rs
##say
##inel
##aton
reiter
heath
suits
poly
aired
##otta
stealing
humanity
furn
keys
titled
karen
frustrated
eliminate
unnecess
pelosi
fundraising
bachmann
holland
phrase
eb
##26
##fo
##low
##esity
##elp
hispan
u201cat
reluct
myth
simpl
refusing
affects
occurs
mcg
footnote
immune
moh
1970s
garage
hacked
hamilton
queens
spectac
revelations
embrace
nra
woke
##onies
##aro
inmate
ate
chess
u201cst
incar
disabled
scope
fein
undert
infect
detain
##erald
airpl
contractors
barnes
irre
electoral
utter
mistakes
perfectly
savings
charlottesville
stunning
floating
junior
aggrav
aven
bog
hed
padd
##40
reel
##agg
##play
parade
artific
lottery
##uctive
magic
u00e2
grandfather
celebration
fixed
sweat
telec
occasion
boeing
helicopters
nurses
steady
sanctuary
kurdish
kanye
nik
um
##oir
##zai
##enh
inacc
stere
stocks
enrich
interference
induc
root
##uala
smiling
grey
greatly
colleges
penetr
egg
chef
experiencing
ecl
automatically
diverse
juvenile
franchise
pont
sounded
tub
vary
wider
##pec
##bart
thai
inters
##oga
evident
interim
obesity
parish
lasted
ministers
documented
differently
celebrated
consistently
7189
climb
exclusively
stabbed
exhibit
gymn
bishop
handcuff
rip
##fa
unch
##uman
abed
clues
##encer
presents
monster
##ormal
##ovascular
u201cthese
federation
sentiment
creates
closure
bombers
participated
ballistic
tourism
jewel
scotland
900
eager
fing
jar
ko
ku
pale
##pin
##oulos
##itious
##itivity
stages
exemp
sew
adoles
brave
metrop
burial
declass
improper
generous
momentum
79608
demonstrate
athlete
tornado
scholarship
gentle
propaganda
phenomenon
jama
tennis
wings
##ran
##oided
##ament
trent
tray
accum
disgr
##iang
paramed
baron
160
valent
archit
sampl
recovering
collecting
instructions
besides
trademark
isaac
au
bah
dent
dirty
lem
lacy
mild
##mun
##mare
toss
##sters
stir
healing
##thouse
cher
u201cch
butter
gover
gren
aging
compassion
flown
feathers
##grim
subsc
secured
avoided
youngest
hopefully
audit
bombings
creator
meaningful
resistant
pistol
stunned
revelation
patriots
erupted
cardiovascular
nursing
kenneth
##hdad
718998
bould
gps
mend
##eries
##aca
##opoulos
oral
graves
accordance
centuries
boom
edit
barrier
delays
140
farms
stops
euro
stored
reverse
versions
##iece
matched
tablet
achieved
ignore
ivanka
jurors
litigation
transparency
sympath
reckless
u20ac
interrog
##ranean
##78
##isk
hern
overha
blunt
parked
refuse
swadd
21st
entrepr
burgl
earliest
movements
solo
##ported
peterson
hostile
credible
assisted
verizon
1988
examining
briefed
pilgrim
baghdad
displaced
tsun
hazard
lunar
entreprene
lone
por
wet
##erick
##anium
##itute
##terest
##udge
offshore
permitted
relax
attributed
##grad
115
##aukee
wayne
barrel
harper
streaming
holmes
processes
##tenance
erd
1979
influential
principle
thanksgiving
duration
consultant
##keley
unveiled
gibson
declaration
1960s
unconscious
municipal
bert
dang
##waukee
##erver
##inity
##uro
##chez
deferred
spots
u00d
appearances
nightmare
swiss
generations
screens
travelers
destination
advisory
regulators
telesc
anthem
derived
manhunt
mechanism
pittsburgh
uncomfortable
bust
pas
##tains
##dog
##hafi
theor
##elps
chry
abn
shep
plaza
outer
grief
carpet
flames
infamous
supporter
calendar
switzer
proportion
maintenance
districts
audiences
expressing
naval
harmful
sacram
intensity
horm
mant
pir
##rics
##mal
##314
##asm
##thr
asc
fract
chen
chees
offense
contribution
##iley
interstate
asset
attitude
reminder
editors
farmer
firearm
hitler
publ
argent
speakers
1980
ahmed
##holder
prevented
crowded
laughing
columbus
lobby
poisoning
gmt
corker
submarine
dose
fug
honey
liv
pp
tib
##iates
##201
##ken
##hop
##irm
shakes
##osy
orient
overcome
insists
##oola
milwaukee
contrary
adverse
sentinel
irish
programme
performances
mckin
urge
hosting
ahmad
introduce
oscars
powell
powder
u00a9
julian
accuracy
venture
tanks
obligations
fetal
iconic
bridges
whistle
dakota
u201cpeople
cad
jill
mull
pyr
sach
##zh
##76
haul
u201can
butt
brains
contents
flows
affl
snake
shareholders
epic
launching
vanished
ethan
conventional
mandate
absolute
climbing
substantially
nigeria
evolved
lag
pad
rio
##iac
rear
offenders
##arded
recession
phelps
discour
boats
complications
sne
nationally
residential
breakfast
immigrant
alleging
versus
micro
##respons
taboola
berkeley
understands
mathem
enemies
sniper
undersc
grocery
caffeine
misdemeanor
switzerland
cyn
tong
##dling
##ounce
comic
lease
outlet
pean
carn
invalid
19th
##week
##auer
##includ
actively
ideal
##author
surviving
philip
1976
##burn
surfaced
adopt
julie
pedest
lesley
surprisingly
incorrect
muscle
enthusi
tabloid
##ocaust
affleck
695
dal
dancing
foul
jpm
patch
rim
inp
##stock
acid
##otherapy
annually
powered
listing
holocaust
filming
revol
tomb
##hepp
subsection
matches
sudan
mammals
instruments
skeptical
forbes
landscape
arthur
nonprofit
kohlhepp
ais
bc
bent
diaz
gw
lied
##post
##ilateral
stole
prie
##ivia
##umber
u201cvery
bru
incumb
timothy
perception
obstr
lawn
studios
ears
capabilities
geneva
impe
idaho
##avement
passes
pays
sanchez
sandwich
##yrus
bomber
superintend
kimmel
biom
melt
basement
consumed
competing
strategies
rolled
exercises
traits
bonus
migrants
endorsement
##osaurs
gadhafi
emoji
toilet
nba
vik
yates
##gage
##uant
ank
sochi
flaw
nowhere
filmed
issu
sketch
proph
taxi
posing
additionally
figured
separation
absor
bullets
warrants
retailers
surgeon
arrangements
narrative
overhaul
vin
##eh
##ws
theaters
##arak
stating
shan
##okia
countless
terry
breit
missions
testify
gunmen
irr
mck
flores
statute
volcano
penis
determining
repeat
explosions
pursuing
##iciency
accepting
belgian
metropolitan
publisher
fold
hover
ian
u5
##mans
##ali
shi
##osc
chop
##umably
##ieves
doe
aggreg
noaa
assured
lasting
deserves
delta
##lington
ski
steal
stopping
nominations
graduated
reforms
acceptable
716
controlling
fueled
corrections
isolation
enhance
transparent
hydrogen
u2212
tsunami
erdogan
lod
mere
pupp
sang
##km
##96
stahl
unrel
brenn
##ansk
incons
median
110
everyday
insight
charter
universities
##ushima
##keep
celebrating
measurements
pursuant
intentionally
coordin
ghost
spiritual
highlighted
revenge
zhang
exchanges
fukushima
sacramento
superintendent
danny
ig
joked
kend
nokia
##you
##fol
##pot
##ictions
##018
##uma
spears
##abil
##umph
##angel
courthouse
depends
##ups
maintaining
administrators
boycott
holes
texting
##missions
mansion
eagle
endorsed
permits
unlawful
cot
caut
euth
##itures
##isive
##asse
##estone
##opath
bros
u2014includ
manus
forma
probable
meter
entities
costa
labeled
credibility
##iterranean
accessible
honored
hacker
merch
purchases
nominees
wishes
beaten
evacuate
penalties
implemented
satisfied
uganda
pocket
slammed
puerto
notorious
dignity
enterprise
taiwan
breitbart
euthan
bike
cbc
tension
##yon
##06
fright
gram
megan
inflam
publicity
confused
transmission
explor
secondary
convince
midd
geographic
devoted
distribut
mcm
portug
##bean
doubts
silicon
corporal
clicking
jonben
demonstrations
mistaken
termination
belonged
admits
thirds
suburban
pdf
opioid
browser
unnecessary
bic
rib
##kov
##icious
##stage
##uting
chant
offs
mediterranean
shower
respir
provoc
operator
critically
midwest
embry
u201chow
u00e8
credits
##ophys
broadc
verified
approaches
utility
extremists
climbed
divorced
delegation
weighed
crystal
alerted
incarcer
bible
cip
catherine
kaine
mason
nod
osw
puzz
voy
##ctions
##eded
##opes
neph
notably
orbit
spencer
##abe
2019
##elli
grid
meals
monkey
##ointing
fines
clinics
denis
sandra
painted
diplomat
organizers
linda
evaluate
quietly
survivor
lobb
kahn
hanks
discretion
supervisor
rallies
vanc
##erity
inex
##alt
sham
alf
##estr
compounds
component
carlos
##obyl
consulting
roe
whereas
imports
harrison
severely
operational
texts
richards
enforce
races
woody
jailed
naturally
sweeping
temple
emotions
fleet
meantime
magnetic
literature
spectrum
pinterest
carlson
dependent
astronauts
vancou
fargo
kaz
lan
yelp
##losed
##bles
##ulates
unarmed
acres
##ista
brow
presumably
appla
assessed
assuming
##ernick
collective
u0438
banking
practical
tournam
touching
weakness
sequence
memoir
thirty
cuomo
aggravated
jpmorgan
bite
lip
rut
##cs
##58
##enant
##oria
##itudes
##omin
##enter
sty
reactor
heated
sail
##estation
projected
griff
agrees
##irez
bug
donna
##weg
roots
detection
provider
haram
violate
surely
vanity
praying
malaysian
weighing
experimental
reception
inaccur
paramedics
u2014including
aunt
cnbc
laughter
mum
##roc
##oons
##gments
##42
topp
u200
##stitution
aldr
sperm
clause
scored
##asses
likelihood
auton
makeup
server
risen
topics
dealt
hitch
equality
candidacy
parkinson
##beat
##etheless
trusted
##172
wondered
premature
bobby
occasions
resolved
installed
wreckage
awaiting
errors
electrical
retaliation
714
hbo
iq
makers
rage
##93
##icism
whip
##ira
external
##oko
brink
polish
u2014or
preserv
cargo
##inding
##epernick
flour
consensus
mineral
governors
impacts
confessed
casey
glenn
debates
malaria
protections
females
difficulty
separately
u201csome
dinosaur
lawmaker
u201cwith
expertise
ramirez
emerge
pipeline
sponsor
honestly
dramatically
kaepernick
interpre
sergeant
deceased
chernobyl
##islyak
jeremy
##osystem
respiratory
ct
tube
##frey
##kamp
##mitt
##zy
##igent
heir
hasht
manif
carib
betr
warns
postp
barric
swept
sharks
recordings
##shots
treaty
uranium
credential
significance
observer
wrongdo
independently
##154
attendance
prohibited
dragged
concentration
kasich
gordon
ingredients
catastrophic
dolphins
lebanon
brennan
hashtag
bio
cinc
gaz
kislyak
sie
##mail
##48
##enko
##theless
chart
u201cv
##oyd
remembers
##aires
##ratic
moder
mali
350
medications
biology
strategist
struggles
cooking
widow
organs
lesb
unfortunate
disciplinary
mutual
architect
inflamm
bare
dana
vel
##xy
##gom
##lon
##itr
##itting
##itively
##eters
##owitz
shin
u201ck
semin
worn
##awling
dealers
organisation
excuse
nonetheless
cancel
surveys
blocking
maternal
rosa
bonds
aspect
bradley
lindsay
blew
jesse
passwords
deportation
wsj
galaxy
convertible
nazis
boulder
vancouver
berry
cory
kiev
ore
pione
##fare
##enberg
##oline
unre
plug
caring
counting
norway
centered
boo
retreat
anna
delight
nevertheless
maintains
identical
considers
booked
equipped
1978
787
subscribing
manufacturer
gilbert
gabri
phillips
gd
jab
luther
mog
pets
##nels
##loop
##uv
##urd
stump
shorter
##cha
unions
##abouts
lever
arctic
brist
compare
##press
##asha
killers
colors
standoff
collision
historically
distingu
respondents
robust
jeopard
industries
surrog
frankly
logo
aims
attractive
brunke
philippines
thumbn
##children
artificial
bing
bass
cel
dens
kris
mub
rt
tac
##oa
##cel
##eds
##anim
##ili
##ader
##thal
deer
tripp
seals
seasons
dispar
##ryp
blond
##ensions
guin
genius
defensive
##roe
##ospheric
advances
keen
hardy
secretly
furious
labels
awful
educated
competitors
garb
preparation
##losure
u00e9e
scratch
montgom
joyce
brazilian
vesting
antarctic
elephant
doping
kabul
hernandez
montgomery
jung
ric
si
##von
##rio
carrie
##umptions
knee
beth
norweg
slavery
seth
sunni
restated
billboard
modified
##parts
lesson
angle
sells
archives
commentary
designated
##liner
observations
exchanged
sensitivity
blogger
settings
instructed
cartoon
blanket
shouted
natal
genuine
cincinn
barg
jaw
liz
mp
sends
##fers
##arming
stunt
alike
orth
plague
recyc
compos
emily
guit
morph
michele
revised
successor
designer
separat
packages
negotiate
resource
empower
traumatic
buffett
bulk
psi
antibiotics
tillerson
mubarak
dumb
jake
lect
rug
sized
wade
yelling
##net
##pel
##atar
##irmed
shook
conway
enquir
u2014m
##ogether
paras
parall
##eryl
whereabouts
wanting
signatures
supportive
campaigning
opera
fireworks
declare
functions
inspectors
approaching
racing
anthrop
u2014that
therap
territor
conflicts
footballs
improvement
introduction
ecosystem
gregory
stanley
beverly
plaintiff
ud83c
privilege
venezuela
wrongdoing
cincinnati
gri
lined
ral
rico
##list
##inter
##etical
##thetic
chew
unity
upgr
peer
carr
##weight
refers
receives
entity
solely
denial
1000
urls
u0430
1985
corpus
melan
##backs
wondering
abdul
supposedly
cybers
retailer
implementation
clarify
blasted
buffalo
framework
sterling
chrys
jonbenet
caribbean
001
bund
hike
hutch
kan
nj
pomp
wired
##function
##laughter
##mod
##wald
##41
##47
##inos
##ilitation
withhold
##earing
##artz
lex
outd
grain
amber
immin
blown
deciding
flavor
workplace
cape
inser
bread
patt
u0435
chemotherapy
existed
counterparts
neighborhoods
occupied
joshua
tackle
saddened
intimid
stephanie
##iegel
predecessor
dangers
aur
gul
nab
nyc
pine
ses
##auc
##mouth
heather
exceptions
##sein
twist
u2014is
##izer
drum
drown
##ooked
##ockey
undermine
backs
releases
delhi
corrupt
severity
johnny
redd
steam
burke
emailed
petra
landfall
mills
suprem
1984
marriages
casting
u201cbecause
##ommod
matching
68314
precedent
prescribed
statistical
683148
764
bri
cod
kam
pne
pills
##08
##urry
##oday
arbit
admission
peg
accommod
evan
comparing
parad
105
minne
suppress
helpful
steele
hardware
deadl
declining
banning
mccart
davidson
indicted
1987
panama
considerable
hallow
characterized
psychology
troubling
negotiating
abducted
7832
strengthen
intentional
evolutionary
compromised
cockt
hudson
priebus
etc
fb
fern
lanes
mik
rans
wf
wen
wise
##aqu
##err
##eton
##imb
shaking
##opol
chad
triple
exoner
##ourke
spinal
moreover
intake
##qual
assumptions
info
##ecutive
winfrey
commented
urgent
samuel
oval
hammer
avoiding
##ieto
extremist
indianapolis
oxford
assaults
katie
manslaughter
physicians
ellen
fantasy
casualties
ud83d
expenditures
bullying
hispanic
spectacular
minneapolis
783273
3d
bans
cun
cind
fare
mock
wi
##gets
##lif
##bag
##olved
prank
##irical
shirts
##ocated
trains
unr
##ellor
brock
betting
formula
refund
romance
florence
grande
1981
priorities
voiced
digit
languages
##2068
pipes
hoax
sporting
veto
optimistic
recruited
priests
unconstitution
rebuild
bak
gian
homet
hoop
kit
sorts
##fia
##uments
##isely
##ando
##omez
resid
grat
u2014it
drilling
carriers
justify
flip
feud
##icked
deton
postal
weekday
protester
coron
rises
visa
stepping
economics
distracted
ballots
722068
speeds
richardson
dietary
portray
ottawa
cantor
overturned
pediatric
fierce
stranded
infectious
716004
pneum
halloween
bands
bats
fals
ki
lapt
wield
##anks
ing
##ilized
##ecca
##amo
orch
uss
marie
cox
strain
schult
buses
##irect
homeown
playboy
slip
sometime
potter
##empor
deterior
credited
disputed
accidental
panels
disappoint
cooperate
radioactive
tunnels
microb
parliamentary
affecting
belonging
neurons
instruc
sharply
permanently
habitat
restrict
##otype
licensed
coleman
fingers
sampling
ciprian
cf
gau
lakes
mask
##uter
chanc
semit
reset
disability
colin
vienna
burger
technically
landmark
hopkins
volat
choosing
absurd
mattis
regarded
gasoline
routinely
oversee
bailey
fluid
u0442
assaulting
altogether
folk
defeated
psychiatric
antibiotic
##bourne
shadow
theatre
telescope
hometown
cipriani
gomez
nude
##leep
stakes
##acies
reign
##amine
u201cse
leaning
crop
104
remed
subjected
colony
greeted
blacks
developer
injection
cancelled
##lett
financing
intrig
slept
digging
creature
weighted
jefferson
##written
galv
bureauc
laughs
batteries
beside
bronze
withdrawal
contaminated
underwriters
protein
colombia
seventh
airplane
norwegian
bdd
ced
cay
dorn
ditch
gir
gust
pest
pand
wan
##onic
##ener
prisons
heal
u201cbe
seb
abusive
reply
arn
##asted
sob
sober
coins
undermin
backp
demol
attacker
transmitted
175
christine
halted
township
precious
karzai
jumping
7745
##writer
acceptance
narc
glasses
##iciently
emphasized
washed
vessels
rehabilitation
echoed
##iguez
chrysler
imminent
774567
flick
kin
nons
pant
rash
##watch
##ji
##jud
reh
rever
traces
##aka
placing
##ucked
u2014as
##raz
servers
northwestern
threaten
fallon
fallout
responsibilities
churches
physics
loh
##692
corporations
dinosaurs
initiatives
mourning
embarrassing
kenny
columnist
u03b2
hannah
supplementary
rodriguez
intervene
pardon
abnormal
tournament
siege
gore
jaze
lets
mocking
oath
ought
pole
rings
sears
tier
tsa
##pear
##kowski
##zer
##ux
thieves
hein
sha
shaken
##ocument
seas
grim
carp
partial
##ollah
intox
specim
profiles
operators
raids
midst
hunts
closet
specifics
selfie
inspiration
greenland
precisely
emotion
objective
forgotten
bronx
airstrike
constitu
experiments
gifts
excluded
undercover
bennett
reiterated
jewelry
##through
jazeera
aol
cyp
##fish
##wick
stones
bearing
asleep
##usc
altered
u201ccom
butler
leap
bry
##iah
drives
blas
##inking
communist
##aneously
certified
boarding
captivity
divide
misle
inspection
musician
curious
digest
##ascript
merkel
757
athens
##space
achievement
reconcil
eruption
javascript
taxpayers
cohort
philosophy
aston
bened
cure
ling
nike
##eem
##vd
##erie
##reated
heights
##irus
alice
unanim
u201cjust
ammun
scout
defam
directing
annoy
144
swall
operates
breakthrough
rocky
lightning
escorted
melting
budd
punished
tenure
licenses
##criptions
andrews
decreased
reminded
wisdom
gesture
overdose
##hydr
reproductive
adventure
baldwin
assassination
estranged
inflicted
adequate
uprising
governing
##authorized
issuance
dirt
jol
tig
tune
##dled
##eff
##arity
##etics
u2014f
manual
drank
monson
monetary
undergoing
capability
define
reader
185
janet
boyd
melissa
cheating
oversees
ordin
rubble
rodman
u00f3
sponsors
toddler
accompanying
subsidies
portrayed
neglect
rhoden
seafood
feinstein
adolesc
subscrip
garbage
petraeus
##ocumented
ammunition
430
cv
mails
pon
##olia
##acious
abund
spo
contempor
##ubs
canyon
accel
##aches
quinn
##sonian
##wards
formerly
technic
captive
##324
horiz
purported
observatory
influenced
poorly
comparable
broadcasting
vaccines
bitcoins
rifles
tamer
households
embraced
fundraiser
ern172
administered
ern17282
cattle
dough
js
laz
mim
sr
vp
##nan
##wine
##leen
sherman
##pled
##uba
marit
preview
schwar
thresh
subd
locate
##brid
militia
popul
connor
heartbreaking
closures
balloon
1977
##limited
favorable
undocumented
guilt
observation
ensuring
photographed
theresa
revolutionary
obligation
desperately
paintings
prostitution
shouting
aerial
cheese
incumbent
aggregate
cindy
unconstitutional
dorner
batch
dorm
fathers
kob
kuala
pond
yale
##run
##inging
ont
shy
shul
conj
enrol
brick
ampl
u2014c
warri
subpo
instantly
concuss
18th
complaining
raf
damn
declaring
peters
banner
accounted
importantly
encryp
##adesh
smithsonian
rosie
tables
traditionally
prospective
hungry
inevitable
trayvon
695340
thumbnails
enquirer
chancellor
subpoena
ave
bother
bases
grip
hes
ja
loot
lgb
rats
sara
vom
##bish
##565
##utt
shah
##terror
atomic
whoever
arra
crude
phi
noah
append
margar
compr
cares
throat
##ierre
locals
##attled
stark
koreans
messaging
palmer
foreigners
livescience
##drop
crashes
doubled
televised
spray
##trak
gallons
troubles
karl
##ochond
crackdown
illnesses
recommendation
admir
dissent
andrea
muscles
lumpur
midterm
manuscript
guitar
lgbt
cz
fights
sally
tense
vandal
zar
##tm
##nik
##eo
##uates
##81
##asp
##elin
##acles
spaces
britt
amtrak
accuse
emm
relied
##kshire
undergo
teammates
u2018th
historian
##she
geological
effectiveness
##neath
stormed
allegation
expectancy
disappointing
1974
commanders
##122
routes
spreads
platforms
shelters
satisfaction
kristen
mitochond
earnest
##anthrop
antarct
hyperloop
rupert
nephew
cybersecurity
##peare
maritime
cens
dnc
mia
mong
nasty
nieto
oun
sok
##haus
##will
##arians
##omon
##ige
##abs
lean
leaking
marvel
marines
export
assail
flies
underneath
consists
showdown
##airy
colored
##ullah
valued
ordering
chiefs
measles
committees
animated
choi
celebrates
undisc
cardinal
shops
##684
randy
terminated
willingness
ecu
freshman
coordination
wireless
mercy
mercury
dumped
boule
swaddling
manifest
credentials
cask
gaining
##rus
##right
##pept
##val
##atal
##reen
##igma
fraction
##occo
##akh
arson
crypt
gran
upload
u2014to
contempt
##aven
drought
##oven
##ensen
invested
kills
seeger
booth
speculate
135
runway
steep
suggestions
linking
traded
difficulties
ladies
conversion
graduation
clubs
counseling
improvements
chapman
container
consequence
corrected
katy
solidarity
treasure
mentally
indonesian
enrolled
tolerance
passionate
potatoes
mashable
unsuccessful
hedge
sachs
antarctica
730
cafe
loop
mul
pam
rit
ss
vend
##col
##girl
infer
tooth
##reach
##urn
##iman
congreg
unauthorized
##odies
spear
##osta
peers
##ausible
##arged
smoked
insiders
genital
slave
harvest
sworn
##eneg
denying
impressed
malware
awes
hunley
breakdown
stripped
opposing
caes
creatures
##hanna
u00b0
renov
viruses
emotionally
pursuit
layer
laying
chapo
belongs
qaida
accurately
promotion
marshals
institutional
ucla
concealed
flexibility
warehouse
suicidal
clerk
alexandria
mohamed
u00d7
shakespeare
lohud
benedict
2d
lenn
##xit
##nett
##vi
##esp
whales
##step
shoe
enabled
##quer
##urring
relation
monroe
monuments
respects
halft
##aneous
drops
beaches
tougher
monitored
riders
conclude
applying
nuts
battling
switched
deposits
shifts
shifting
enrollment
tasks
nashville
stimul
voluntary
expedition
gymnastics
cec
census
gaw
jin
mick
pile
tiff
##ture
##online
prest
saga
conver
unaware
##odox
acute
energ
incon
cared
blaming
##aternal
obit
consecutive
wherever
defender
probability
simult
produces
listened
christy
protesting
maliki
sooner
cheers
occurring
u00bb
ethical
appealed
sadness
maxim
miracle
unusually
adjustment
lieut
kisspept
eliminated
cardiac
underwear
favour
intersection
halftime
cage
fails
hors
joking
lac
piv
pause
##oos
##long
##lake
##elve
##stop
chim
haiti
unlimited
sealed
resur
intact
invite
oprah
donets
famously
10th
subtle
endured
breeding
directions
groupon
marking
costume
freely
accountability
circles
volks
grandson
ultr
beds
750
724
pursued
u00f6
dimon
u043d
altitude
locker
outrageous
exploit
exhaust
alpha
beneficial
cotton
bristol
tamerlan
sokol
boulevard
aj
hul
mold
rented
yaz
yank
##len
##ares
##itary
heels
converted
frances
habits
weiss
##empl
offenses
uphold
u2014d
##ipse
scand
decent
genetically
swat
economist
cancers
prosecuted
furthermore
reasonably
wrongful
##iaries
appealing
u201cex
miley
##guards
robertson
supplied
archaeological
coordinated
deposition
fantastic
legitim
cockpit
ugly
sympathy
filmmaker
underwent
limbaugh
slideshow
hypothesis
donetsk
doss
dash
pall
rides
ripped
sf
wives
##top
##wagen
##inted
##aman
comcast
worries
disresp
soap
thereafter
drones
carney
mayer
opted
counted
formation
barriers
artif
stef
programming
injuring
texted
hussein
volcan
mounted
##boards
hamm
pregnancies
ignoring
##iferation
##iosity
u0441
emphasis
lavrov
guaranteed
password
fabric
fulfill
insurgents
714565
764692
sebast
kisspeptin
mish
tul
tah
zones
##nia
##yers
##lined
##omous
##ioned
##urance
##andering
abrupt
sheats
clapper
resumed
crist
soy
compiled
interactive
knock
backyard
##ugs
impacted
contracted
12th
patents
13th
simm
skrip
allege
mornings
devil
boards
initiated
turnout
650
grandchildren
verge
##oids
samar
respective
1970
undated
shipw
aliens
scalise
laughed
holidays
reinfor
innovative
yellowstone
tyler
reunited
bernardino
jurisdiction
induced
unrelated
coordinator
787018
sesame
schultz
jsoc
awesome
volkswagen
burr
boko
cried
kass
lately
voc
yan
##nick
##part
inqu
whites
##lements
prone
##ching
spike
hass
plates
broker
upheld
##pless
##ffe
dispr
attribut
##prints
investing
##itty
barred
talented
cream
diver
singular
staffer
globally
hunger
##rington
squee
contributor
wooden
shallow
tripoli
accusation
hypoth
essay
prospects
procedural
quarterback
enjoying
aggression
embarrassed
mahm
megyn
legendary
collaboration
wheelch
printed
bubble
disgusting
tattoo
inclusion
eclipse
peanut
griffin
u200b
ai
cum
dairy
vague
##non
##hot
##bec
##idy
wholes
##chen
u201cal
seated
usage
newman
adap
bride
incomp
disreg
defects
##ysis
cancell
ceos
##borough
##cripts
aggressively
lauren
accomplished
correctional
kathleen
hollande
impeachment
inaccurate
caf
dk
duch
duff
giz
heck
kc
nag
pitt
wals
##di
##py
##hons
##uously
thunder
##stairs
##olly
reald
##ationally
hailed
orph
spur
##aba
reson
twelve
appreh
exports
guided
##aux
pressing
believing
glac
menu
lesser
waiver
450
minded
madrid
microw
diplomacy
mortgage
evaluated
rayhons
##ieval
patriot
lava
loyalty
drunken
beverage
strangers
arrangement
prolong
contamination
##pecified
bertol
biomass
757154
dual
hag
hog
kyl
lans
sections
##rent
##ros
##nt
##fc
##gart
##atical
inject
inhab
##igious
suite
##ifice
exempt
abstr
heroes
brush
timber
scans
statewide
interrupted
prefect
workforce
undergrad
publications
barcel
walters
snoop
mcgr
intelligent
francois
silly
committing
1972
owed
substances
gradually
shoppers
u00b1
abduction
amendments
luis
eaten
qualify
atmospheric
translation
recruiting
pockets
##otypes
negligence
cruelty
dishon
ninth
unhappy
reconstruction
sustainable
reluctant
lobbying
360
cerv
cgi
hr
kand
lions
lance
pi
ridge
sina
tina
u01
##vo
beings
##igen
##americ
shaw
##osity
##chat
##unc
bryan
allison
conting
intercep
##licit
monte
straw
olds
airbus
planets
boone
efficient
array
arranged
serb
northeastern
metres
lessons
christi
1982
##etti
predator
##hammad
heaven
curb
wildstein
u06
behavioral
bowie
campuses
##onaldtrump
u201cnow
functional
outraged
##borne
encountered
abandon
kirk
intentions
reservoir
lovely
burglary
contemporary
realdonaldtrump
bos
hilar
ios
mell
nak
vick
wend
##atient
##icting
##elt
stap
##utical
alarming
convey
##opic
chains
weed
unear
exec
newark
willow
croat
##izable
##aceutical
interst
assumption
preference
coat
indef
##manuel
consulate
warfare
20s
humil
possess
u2018the
restored
untr
freeze
denounced
##ecker
petty
eyew
broadly
1973
chemistry
madsen
unsafe
worthy
u09
u00a7
coaches
scholar
punched
cautioned
voluntarily
nicholas
fugitive
guinness
disappointment
ritual
630
aub
dive
hw
hilton
ousted
##ean
##fr
##hard
##orr
stair
##asters
##ostic
##riage
contag
interc
flower
schiz
##ologically
issuing
behead
skill
syrians
gunshots
burg
dealer
organic
globes
sidewalk
jacket
obsessed
supermark
lohan
merit
merced
liberals
memorable
cooperating
fastest
accuses
albany
collections
fraternities
epidemi
pharmaceutical
inflation
reddit
pneumonia
misleading
tigers
subscription
lover
tide
wary
##rea
##ads
##tering
##ulin
##ocese
wears
bystand
acre
##ellar
plag
intends
perf
relent
relieved
elon
medals
descent
continuous
delivers
exploration
sexist
170
murkowski
##attering
marched
christina
copper
risky
physi
dispos
mounting
curve
ambitious
ordeal
introducing
gardner
frederick
grassley
barton
gossip
henderson
mogul
blasio
barcelona
888
bain
cites
honda
mouse
tx
##pat
##86
##861
##49
inequ
anat
##asive
pricing
##usch
congo
fres
##arted
gro
canon
intimate
disabilities
##ounters
scattered
quad
consulted
buyer
##pring
founding
deser
specify
slog
slipped
goodby
creep
restrain
streep
historians
stockp
mcn
failures
ideology
hunters
jeans
chairs
1975
focuses
##hani
rangers
adjustments
registrant
##iasm
overwhelmed
assertion
succeeded
fascinating
rhodes
vitamin
skeletons
sacrifice
shiite
provocative
natalie
gauge
threshold
schizoph
dade
dsc
dwar
jup
moss
nts
nair
oj
##rad
##sons
##ski
##ement
##ye
##lr
tol
##omatic
reeva
forfe
##oped
chun
chester
tracy
##umin
spitzer
arlington
crushed
doi
allied
emmanuel
interact
reli
flesh
1968
11th
insights
##ahar
##oots
colbert
filib
slot
refusal
careers
suscept
militias
messenger
threatens
executions
wallace
portions
verbal
goldberg
inspire
buddy
curiosity
##offs
purchasing
titles
tribal
muhammad
filling
cookies
villages
##205
ashes
cathed
applies
tanning
marshall
bangl
##archy
astronomers
lubitz
klein
abedin
ransom
dossier
dscf
cer
gays
nus
pc
poured
rental
##far
##hist
##mat
##otal
##eca
##urbs
##oler
##ceph
u201cwhile
spik
spends
worship
outc
invitation
deck
attends
1945
paraly
medieval
##oints
forming
insult
concord
estates
socialist
reaches
encounters
1983
disputes
philanthrop
vicious
unspecified
liberia
circumc
surveyed
manufactured
##believ
jacqu
firefighter
inquiries
exceptional
rampage
dictator
interpretation
bereaved
aisle
lieutenant
walsh
999
dup
fitness
gol
nathan
pairs
##with
##wind
##leas
##olo
comet
##occ
notifications
abuses
spell
spiel
##uding
##avi
anytime
attitudes
backup
seniors
breyer
joel
yorker
metab
starred
convinc
placement
classmates
juice
confirming
freezing
denmark
homem
origins
neglig
eyed
observe
primaries
births
melbourne
owens
##addy
u05
darkness
u201cwhy
fixing
hyde
berkshire
7704
concludes
outlined
hungary
imprisoned
whitney
##ulsion
enhanced
forbid
admitting
lapd
vegetables
enthusiasm
minimal
tuition
correlation
taxpayer
motorcycle
parallel
reconciliation
margaret
ntsb
cathedral
fusion
giff
raz
##d3
##sm
##59
##otes
sta
alto
unint
plural
reserves
graff
u2014he
expose
##ensively
indoor
107
mini
##ribly
129
edited
happiness
harmed
affection
##erger
valuation
costly
distraction
limiting
responds
travis
financially
hotels
screw
launches
projections
magazines
veterin
demonstrates
categor
miscar
pharmacy
pulse
convenience
dividends
diesel
diane
clayton
furniture
broadcaster
cecil
unearth
schizophren
770436
cough
codes
glee
hil
hir
junk
lamp
lamb
mg
paus
sank
yelled
##now
##look
##loe
##zman
##waters
##46
##57
##eny
##urbed
notification
##okers
enact
adher
plac
outsp
martha
##ovy
fluct
belly
downs
refr
holdings
measuring
loses
circus
completion
franco
answering
disappr
raping
advisor
lacked
veterinary
picks
terrifying
establishing
bailout
unpop
rhy
predictions
temporal
functioning
venue
chaotic
snapchat
ingraham
sergey
catalog
elephants
arsenal
homosexuality
seizure
reelection
tongue
##terrorism
mahmoud
caves
gork
gsl
##tic
##ders
##hin
##uity
##uitt
##eson
onset
saints
chased
##ulent
exagger
acosta
enacted
sheer
sheets
gox
grove
grieving
##ogy
##ogl
drowned
##aching
thrilled
downing
insuff
##ahan
endanger
155
nationalist
headphones
caliber
sharon
collusion
toggle
jackpot
consuming
packaging
bodily
hybrid
layers
cables
694
stuffed
kicking
capita
comparisons
forthcoming
colonel
shifted
transformed
dismant
pearson
plunged
dynamic
orthodox
falsely
gawker
724340
disrespect
volcanic
hott
lough
roth
tenn
wines
##rit
##rod
##ebr
##fk
##hill
##zo
##ilize
##ecr
##igl
##check
trim
##una
clo
meyers
manuel
intoler
disrup
carey
couric
warmb
demographic
speculated
retwe
filings
coral
metoo
operatives
hardest
mccorm
birming
rebell
balls
surrender
reflection
##onnie
slowed
chapel
terminate
leslie
sequel
u0440
assembled
marcus
mechanical
u03c
dominant
cordell
pigs
skepticism
insisting
revenues
tablets
eagles
facilitate
shepher
argentina
explorer
drowning
supremac
backpack
undisclosed
warmbier
birmingham
bib
bits
cyrus
sided
wiped
##ei
##kell
##zel
reacted
shannon
chol
traced
tripl
##abad
craw
accent
drain
carell
blowing
1903
108
smashed
##othe
surpass
insect
insane
proving
brexit
efficiency
annex
patel
patience
slogan
##broken
farming
starr
##306
clearance
##strom
candy
urg
joins
roommate
austria
##6069
environments
paula
bales
misunder
horizon
##udeau
persistent
substitute
counterterrorism
corresponding
outbreaks
deliberate
bucket
mitig
evolving
fundament
pornography
hikers
ceasefire
tumor
algerian
adjacent
descend
prophet
intriguing
bryant
casket
sinai
awe
fitz
gum
gaming
kang
lens
oc
omar
rapp
somm
til
tant
yon
##power
##52
inability
##ouds
##itutes
pruitt
sake
tres
unle
##ainted
leo
adul
clue
bra
mann
##ailing
drafted
indirect
remar
specified
128
associations
edt
barn
extinct
swath
viable
launder
clearing
watches
processed
circulated
traders
criticizing
intrud
merr
brandon
challenger
acquire
renowned
punishments
logistics
mortar
##ymph
belongings
cracks
electronics
hayes
tarn
mohammad
bishops
havana
reopened
sacrific
triumph
nickname
tossed
broward
jungle
ralph
defamation
sebastian
jupiter
dental
lur
masc
mtv
pike
rant
rational
tends
uh
viv
##dam
##uum
##icia
shattered
##uling
unse
unav
##unting
haskell
##rians
clash
resil
proxy
pew
##ouses
##acey
eminem
decides
strat
eli
knowingly
##ussy
defl
slaves
16th
oppress
salon
christians
##afting
prosecute
robbed
agreeing
suffers
##boro
assisting
##ophob
##ugging
prepares
imagery
proceeding
athletic
fitting
deployment
breathe
mansour
blankets
salvador
filmmakers
meteorologist
licensing
unfolded
u00f1a
immunity
lesbian
deadliest
scandals
d04
dixon
dzh
hint
istan
mocked
nh
pbs
tyr
taped
##rative
##even
##gue
##makers
##uer
##jad
##qq
##olics
shelling
trudeau
spree
spying
spelling
offset
brac
brag
u2014t
##izations
##ignment
##iative
addict
deported
121
slim
132
runoff
exploring
streams
u0096
moms
specialists
baseline
representation
##getown
verification
maduro
rapids
greenhouse
draws
paperwork
dining
lifting
purple
louisville
rubber
u201cyes
olivia
746069
variables
lucrative
cracked
empathy
implementing
publishers
disclosures
migration
eligibility
kirst
u2014was
riverside
consciousness
vertical
algeria
assignment
liberties
authenticity
jpg
capsule
adversely
friedman
offspring
leverage
laptop
loughner
dzhok
istanbul
bout
daw
doses
daca
eug
eph
ful
hated
kor
lid
lith
lak
mistr
nanny
##daughter
##drew
##sky
##icz
##lem
##iments
alib
nebr
##ateur
##uda
cleric
wors
cran
disin
evangel
##elyne
blessing
decomp
secular
192
112
minn
provinc
122
127
retrie
raided
snapped
thoughtful
portfol
variation
modeling
hurting
floods
floodwaters
connecting
minorities
poised
u201cwas
rainbow
catholics
depressed
1950s
alternate
delegate
ventil
hatred
pleasant
pleasure
elevated
overwhelmingly
smuggling
surrogate
galveston
brittany
wheelchair
orphan
abstract
unpopular
hm
lact
soup
sizes
wounding
waving
##bach
##isphere
u21
##iler
heb
withdrew
unbeliev
u201ctr
seac
##sex
spite
leaf
##usters
disqual
##qua
sci
mario
commons
##ovoked
##olls
1964
strick
strains
elvis
infring
schl
117
thriller
depicted
coli
patric
slain
nightcl
visitor
debbie
excer
civic
palt
originated
generating
georgetown
replacing
designs
participant
cheek
cheaper
garnett
networking
thankful
trooper
##355
sanction
oceans
imagined
coul
smartphones
outlaw
signaled
tariffs
correctly
sticking
anticipate
foley
tactic
hemisphere
appropriately
persuade
entrepreneur
middleton
incarcerated
withholding
huntsman
kassig
dwarf
convincing
nebraska
brib
dab
fec
fond
fury
fiance
htm
nitr
pix
peng
poo
pension
patern
vern
##vic
##witz
##initely
##anov
##icable
##ilization
staged
bex
withheld
##illery
chasing
chlor
nepal
##mentioned
##atee
##ulative
acet
u201cany
drake
carc
bloc
blessed
##grounds
parental
##ributes
factions
137
goodwill
passports
glor
##geries
winston
watchdog
parkland
robb
trek
envoy
favored
surrend
bulls
acquitted
telom
displays
speeding
sadly
stabbing
catching
beverages
ultra
paramount
seizures
dysfunction
ncaa
kendall
interpreted
arnold
attributable
microwave
bangladesh
trespass
bacon
cj
diving
eis
kap
lymph
wond
##rina
##43
##inery
##edes
##elor
##eta
##acp
rejection
bez
chin
weaver
##oding
##semin
abusing
spam
reps
##about
outages
u2014an
##uben
##ounty
prejud
obtaining
guerr
suburbs
breasts
shoulders
##iox
continent
barron
maid
wales
pleading
palo
circulating
deepest
islamists
clever
firmly
tribes
##break
negotiated
diagnostic
u00fc
vulnerabilities
##ogenic
freddie
randomly
recipient
earthquakes
sergei
inaugural
vigilant
unprovoked
cassidy
hannity
reversed
lungs
sincer
accelerated
fucking
promptly
outdoor
cocktail
adolescents
eyewitness
goodbye
giffords
aka
fits
gem
pf
pics
rook
tipped
vag
##aution
##gins
##orith
ineff
##enthal
##stick
##olar
reef
forc
##terior
atop
frat
##opl
##essa
degr
u201cafter
##emic
arc
ariel
##rik
perkins
ours
coin
102
founders
regrets
defiant
conduc
maer
glam
glimp
u2018d
judd
resting
solving
activated
certification
liu
liable
u201chis
##goers
boring
breakup
availability
rocked
branded
quarant
definitive
cornell
coffin
fatalities
prohibit
escalation
hemisp
galaxies
reopen
mosquito
molecular
declassification
simultaneously
outspoken
provincial
glimpse
fow
fah
gos
nol
oy
tire
ufo
##vance
##hem
##bank
##anmar
tomm
touted
whop
atroc
chal
chaff
deaf
unin
spouse
plausible
clouds
u2014not
mane
##ianc
blames
becker
flav
quartz
1967
donnell
famed
usda
format
genome
idol
healthier
internationally
charitable
refuses
swap
possibilities
angelyne
policing
steph
uncomm
archbish
consume
u201cdo
sweep
acknowledges
destroying
assessments
dui
synthetic
hawk
correspondence
affiliates
cooling
mechanisms
masked
embarrassment
remarkably
algorith
discharge
796081
euthanasia
populist
skripal
hassan
duchess
shepherd
fogle
gerald
kyle
lovers
lingu
##mble
##uette
##bid
##but
##bull
inad
##iltr
##entice
reim
reilly
pren
shipped
framed
coma
suz
notify
##ifa
u201coh
allergy
timely
nood
##avel
flush
1965
myanmar
meddling
conscience
111
surgeries
discount
apost
morrison
sexy
restoration
proclaimed
interviewing
steen
distribute
declines
freel
malicious
travelling
url
pageant
statues
commitments
opposes
cultiv
slee
lacks
lacking
alcoholic
precaution
measurement
photographers
acknowledging
detailing
##baum
exposing
archaeologist
##omplete
naacp
iceland
fetus
caucuses
sightings
exploited
levine
rabbit
relying
culpr
culmin
retrieve
fidel
ingredient
##ipedia
sinking
bereavement
ebay
vincent
oswald
nonsense
730861
prefecture
nairobi
spielberg
bexar
maerov
uncommon
archbishop
914
akin
cd
gel
hoff
kham
ler
luk
mered
naming
rourke
sway
wit
xdr
##poon
##gard
##lock
inh
anam
##icap
##etric
##urt
##lean
stalled
##lys
frog
chilling
dehydr
spies
spare
spider
levin
clips
grapp
doj
eva
##elyn
##lical
bland
defect
ende
locally
handing
eddie
happily
sunset
162
##onte
17th
judged
240
salaries
solic
waist
##beit
selfies
tomato
slew
curse
armored
insurers
senseless
##writing
attraction
jacksonville
extract
fitted
u201ctoday
weighs
matthews
satisfy
698237
heightened
mh17
borrowing
libertarian
discharged
condemnation
handcuffed
hazardous
portugal
monkeys
autonomous
outcry
homemade
chaffetz
meredith
binding
diana
erec
gotta
kop
lul
nan
niel
rous
##din
##hift
##mi
##wings
thw
##edel
##ouch
##mental
##ouncing
trio
exh
##ema
brav
groom
##inejad
disastr
disruption
##itement
monitors
blasts
##ovich
##ishes
subpar
157
handler
extends
advise
##parents
distinction
##ippers
boarded
sexuality
divisions
makeshift
fearing
biologist
purse
bottled
analyze
wildly
lowered
danish
rolls
recommends
scrap
wilder
##anche
faithful
gardens
microsc
cartel
battled
kurt
tortured
brutality
recipe
tapes
fragile
rouhani
millennials
wrestling
ahmadinejad
kazakh
nakam
supermarket
mercedes
graffiti
unearthed
u21d3
bezos
230
804
dude
kos
pes
pse
rode
vall
vibr
wow
##iott
##points
##hoff
##ongh
ink
##alous
##itative
##aders
chile
##iva
##unted
u201clet
leather
##aste
crashing
contender
recons
peru
commem
##ensed
attachment
slowing
refere
14th
propri
artillery
215
winn
mainland
identifies
solved
candles
grows
mcl
certainty
camb
murdering
varied
lloyd
verb
predators
criticize
racially
faa
logan
karlie
aiming
terrified
arguably
spirits
savage
novelist
ruin
translate
exhibition
fingerprint
mammal
steadily
thoroughly
skeleton
napa
recruitment
caitlyn
cheney
mckinnon
##responsible
peggy
tiffany
timberlake
inequality
schizophrenia
hottest
cope
kon
lanc
mps
mumb
owe
##pool
##inis
##edict
##arium
##alia
##urer
##thes
alp
constand
unm
u201cman
##embr
hadley
mega
recounted
mari
buoy
expelled
feather
prey
securing
##obs
backers
deserved
americas
##itters
governance
airways
terrain
confusing
breed
contracting
protects
joh
patton
condoms
##enei
u2018we
realistic
suspend
snakes
enters
salah
solomon
copenh
economists
stays
keystone
captures
honors
blockb
curry
trainer
shipments
hyd
quarterly
occupation
contested
katrina
ventures
eliminating
forecasts
698238
reinforce
tonya
dragging
asserted
prostitutes
psychiatrist
invasive
unpredict
seeds
genuinely
tumblr
recycling
separatists
pompeo
instructor
horses
artifacts
shipwreck
disprop
kandahar
slogans
portfolio
khamenei
copenhagen
2nd
ace
bast
danc
gms
hond
hath
pg
pund
panda
vw
##dain
##sk
##eep
##pd
##had
##zes
##wc
##bold
##atri
##orf
##elong
stu
stall
reaff
shir
shov
withers
##opathy
##mented
u201care
##ourt
herbert
envel
adri
recorder
disasters
scare
interfer
bugs
##ovan
newsweek
114
minors
smiles
disconn
authorization
statesman
sung
mediaite
affirm
receip
module
michel
haley
malala
banfield
travels
professors
u0432
predomin
positioned
scottish
moses
##regular
regulated
rivera
eyebr
reductions
duo
1950
dismissal
ceremonies
calculate
gangs
lynn
harassed
dispatched
withdrawn
branches
mentions
explanations
linear
tampering
bachelor
##ummings
adaptation
scrambling
valentine
dentist
orientation
##modo
volatile
ordinance
##colm
disregard
gizmodo
bertolucci
cervical
fresno
filibuster
seacrest
envelope
1st
bunk
ces
cummings
gaug
hockey
kram
lips
moin
pecker
vand
##ridge
##2d
##kk
##wall
##arios
topped
##icem
##otter
stint
##olith
shit
trophy
unst
clergy
crush
upward
##berman
cannes
appet
marital
bless
flaws
##ensible
1966
##iator
109
u00c
genoc
nearest
charts
corrob
##redited
operative
engines
devin
malcolm
westchester
mccull
requesting
directive
guarded
silk
brewer
hallway
##hea
destructive
occurrence
550
sprawling
tribe
acquaint
egyptair
villagers
u201ceven
antonin
udf
bonuses
worrying
satellites
liquor
escalated
cousins
neutrality
hijack
incorporation
distinctive
obstacles
methane
feminist
recreational
sewer
whistlebl
pedestrians
inconsistent
##keeper
##opathic
bicycle
postponed
gratitude
mitochondrial
samarit
susceptible
nusra
rhyth
pseud
bilateral
clement
dire
eleg
fianc
katherine
lah
lighter
nud
rust
sark
u4
##ao
##ses
##sch
##fax
##mc
##orus
##isco
##omi
ston
##usa
confer
orb
brent
cro
upton
##bermann
compelled
composition
mons
courier
boasts
authored
marker
calories
convoy
aviv
socially
##naire
salman
geese
organizing
##lessness
israelis
##itches
austen
##recy
auditory
lighting
pulls
cellphones
louise
considerably
u062
titan
suitable
accusers
falcon
rogue
objections
predicts
outright
baton
interventions
loading
marshal
appreciation
dominance
disagreed
disturbance
agricultural
acquisitions
##bourg
fidget
fragments
interfere
dividend
favors
mlb
impairment
outfit
exemption
shanann
semitic
nightclub
wonders
sincerely
disastrous
disproportion
aster
fcc
gosp
ix
kg
mig
ner
pact
rus
##cat
##cation
##li
##icating
##ionage
##stated
##igator
wasted
haj
##abling
bres
##ikh
manages
##tedly
blair
commands
strongh
##raught
schw
u0080
guine
accordingly
pressures
##aha
##azed
impart
nationals
souza
transcripts
134
calf
skate
redacted
laf
comeback
irresponsible
shotgun
limbs
presenting
keyboard
webb
respectful
inspiring
stationed
competitor
legislators
peacefully
contentious
##world
cooked
eleven
abdel
u201cwell
quebec
planted
scenarios
u00a3
surgical
rhode
sequester
fashioned
frustrating
lobato
abbas
sirte
deposit
colonial
anxious
constitute
hiking
boots
yielded
explicitly
hughes
interrogation
ppis
incorrectly
input
cautious
obituary
legitimacy
hagel
plagued
fundamentally
patricia
hondur
curs
dere
kinder
rd
sect
vog
##sd
##gio
##maker
##zb
##53
##orph
##olent
##amucci
neander
##ocy
tractor
##unct
##iston
repay
##gev
appalling
scul
##oller
##ensual
schock
116
warmer
insults
genre
colo
retained
slated
swamp
propose
artic
shootout
##enne
identities
plead
freeway
questionnaire
denuclear
immense
labeling
discoveries
halfway
##umble
moons
superher
competent
u201cbl
safeguard
psychologist
workshop
##araj
freedoms
terrific
constructed
olbermann
##daq
shelves
unpaid
##boarding
exclusion
integrated
vulnerability
venice
concentrations
dodge
tolerate
plunge
curtis
jurisdictions
sovereignty
796083
chanting
alfred
density
mccartney
hooper
orchestr
intoxicated
appendix
steenkamp
witherspoon
ain
cater
cute
ding
dome
ft
gan
hicks
kings
ost
vine
yang
##lough
##kirts
##jack
tha
##erb
##eday
##oust
##isbury
##ayer
sticks
##aden
##ammar
shine
unim
unite
leone
enables
willis
crust
incest
relies
blaze
assert
secrecy
underwood
yours
milestone
confid
confisc
contrace
tales
extending
advising
##atti
u2018you
debuted
salisbury
potent
questionable
technological
erin
murderer
motors
rebecca
problematic
grandparents
indications
fairfax
balanced
castle
germanwings
inspect
inspections
##ommun
photography
jumps
welcoming
attendees
nasdaq
ignor
motorists
sacred
stretched
scaramucci
icy
hello
tunisian
mentor
kristina
outskirts
fossils
nikki
accumulated
disgrace
flawed
merchand
preservation
giants
wanna
ontario
ecuador
hypothetical
incompet
prolonged
eugene
moines
guinea
bf
fen
fiber
gaps
mak
pst
pouring
rack
vint
wig
wished
##laws
##56
##inally
##enza
beers
shak
##agne
u201ccon
arpa
goop
clown
grill
griev
amn
amort
##anson
recount
##quist
presumed
##tory
##assed
kne
knives
assure
commod
##olling
remot
guzman
##atched
summar
15th
slaying
explored
advancing
bigot
u2018m
conventions
diverted
violates
furlough
distraught
performers
electorate
eventual
ideological
negatively
circulation
spacex
##lusive
favorably
persky
boxer
##worthy
paired
dunham
raymond
cycl
interpol
recipients
escalating
poisoned
diluted
alterations
output
supervisors
incorporated
overturn
mosquit
imperial
stumbled
jamaica
inflammatory
horizons
vomiting
gorka
rookie
cows
daddy
gq
gator
hos
nord
sot
sul
tender
von
##rine
##bb
##inh
##esco
##imated
segreg
##arta
offline
offended
plight
grains
dove
imaging
dissemin
##ogie
##ogens
##awi
scrib
drill
relate
monk
##achi
decorated
1963
wrist
underest
airspace
harold
conceded
220
geek
geophys
positively
singh
holt
##incts
imported
awak
accessed
##eptive
biased
avery
averaged
cheat
priorit
commissioned
##henge
utilities
societ
counterpr
vacuum
randall
magnet
neuros
albums
kilometres
horrified
masks
boundaries
uniforms
ambulances
##antha
saddam
vertebr
fertility
wolves
dianne
pilgrims
gabriel
hutchinson
gosling
arpaio
015
balth
baff
bae
cs
dunk
diox
eps
fent
fats
fancy
gown
kits
kapp
lure
maz
pt
riv
rope
woo
##aque
##face
##zi
##erable
##eslam
##itate
##elman
##ayette
onstage
reactors
shear
##andra
bypass
u201cme
spont
leigh
##asting
##rix
bro
cries
##berger
incap
conti
phd
carb
themed
schm
downgr
airasia
124
turmo
legion
edu
sunlight
30s
swast
##insky
raj
snl
engulf
classmate
booking
shareholder
freeman
specialized
##ogram
apprentice
trader
loch
punct
mattress
rapists
offerings
colorful
beyon
u201cdon
bowles
microph
stonehenge
abdeslam
u201cwill
implied
derail
reduces
ranged
##1965
embedded
##ships
forgive
698236
elliott
bosses
radaronline
preferences
mysteries
settlements
rouge
fortunately
marginal
u25ba
alphabet
navigate
frightening
grammy
composite
carpenter
schwarz
rebellion
paltrow
gospel
dioxide
turmoil
734
cpr
ktv
liam
pec
pie
riley
sights
wrec
##wo
##51
##ingham
anom
heidi
shelf
##usions
aligned
chill
##eart
leuk
newtown
plains
##gee
upside
agu
u2014for
##quet
blake
justified
indec
schem
deme
teresa
imposing
milan
turbul
documentation
issa
charities
swenson
southeastern
laund
irving
valle
geoff
injust
##iffe
heartbroken
lineup
jealous
##lining
illicit
##holm
##screen
remainder
degener
shutting
surround
u064
precision
hurricanes
##restrial
actresses
conflicting
rainfall
reflecting
breastfeed
mourn
reminds
pumping
highlighting
breaches
gaap
unfairly
strictly
gorilla
soda
allergies
inevit
brigade
detainees
utterly
hormone
rutgers
czech
prestigious
hilarious
laundering
pengu
hathaway
dip
dense
hi
hier
heter
lia
lining
mapping
pup
pesh
rounded
sd
sop
vt
ya
zyn
##cam
##found
##gone
##ho
##mind
##bir
thc
##onal
##orously
##inge
inhib
priced
##esta
chib
suk
orrin
abol
herb
newport
##anto
goat
proxim
crops
grape
amph
amuse
u2014one
imf
##inement
emmy
invented
flan
1961
dems
colum
governmental
schoolgirl
corrid
149
humble
payroll
geo
angered
dealings
execute
shortage
impressions
rulings
legalization
camel
enclosure
revive
superb
escort
espionage
wrongly
practically
communicating
norman
counterfe
##brell
791965
hypoc
poet
implants
tsu
nickel
kissing
consultation
consultants
quoting
motivation
huffpost
equivalents
someday
inherited
nestle
rudy
sincere
margins
bourbon
lonely
rendered
baroni
sneak
homeowners
constituents
##ierrez
yazidi
simmons
circumcision
resilience
maneu
nakamoto
genocide
mosquitoes
zynga
5th
dut
dicap
fount
ike
kee
vow
vamp
zimb
##esley
tours
fores
##lyph
shorts
##usk
hail
unified
unequ
unreal
u201cob
u201cmost
##bern
marl
##orman
mayors
wrap
113
endure
203
readiness
handles
refrain
u2018h
walt
diary
irregular
searchers
drugged
##afa
disturbed
denise
economies
kindness
270
losers
figuring
##autions
fairness
dispers
1971
checkout
godd
psychedel
creditors
precautions
gallon
lifelong
paths
negotiation
demonstrating
encourages
complexity
penny
implicated
counselor
dupl
##24000
suspicions
alternatives
fifty
nutri
wikipedia
landsl
corey
vetting
chestnut
symbolic
scanning
tissues
toyota
unexpectedly
salvation
cosmic
excavation
fictional
masters
molecules
enthusiastic
aldrich
therapist
wielding
wholesale
intercepted
negligent
insufficient
mumbai
unpredictable
dicaprio
cake
gina
hod
kra
oz
oaks
qatar
rains
rushing
slick
tord
tires
ze
zach
##ras
##cm
##fly
##mund
##moon
##ui
##onim
ingest
##itating
##icits
stacy
stagger
regress
##adi
chi
chips
trap
unsc
bylaws
u201cbr
sep
seize
##abwe
ador
admissions
##rique
amc
amateur
u2014though
pepper
scrip
scouts
compuls
##icking
howell
medics
infiltr
womb
longstanding
airliner
deficits
endless
lego
transf
extensively
judy
aval
billed
##cribe
marching
humane
##afts
##ippa
hotline
nominating
auditor
completing
samantha
8094
##burse
recognizes
undoub
seasonal
roswell
bowman
##friends
apologizing
proceeded
parenting
splash
predicting
departed
fraudulent
correspondents
qualities
dresses
promotes
wheels
chickens
disorderly
emphasize
brutally
sophom
semester
tactical
subsidiary
announcements
gamble
allergic
ancestors
tubes
entrepreneurs
pyram
mistakenly
territorial
cyprus
cvs
serbia
tommy
zimbabwe
tordil
apt
gases
lugg
lakers
nost
pour
soll
siber
wax
##gal
##zen
thread
##atics
##alg
##isible
##icides
##ecd
##ecito
sting
isil
shack
shia
alnd
##ods
##ifiable
##emn
ars
##ripp
cloth
clara
outreach
grasp
twisted
incurred
intel
disl
disgu
prescriptions
perv
##soever
intermed
expired
##ondo
##ango
wrench
119
##proof
deprec
insects
posters
enduring
apes
playbook
filter
patron
takeover
##ometric
barah
sunny
delicate
refres
careg
prevents
skies
greet
judging
systemic
procure
harding
covert
excitement
malt
commenting
discovering
domaine
divisive
celebrations
unfavor
analyt
advertisements
preparations
counterpart
blogs
patrons
housed
attendant
imagination
693
royalty
bandw
containers
laser
occupational
literary
suppliers
supervision
unexpl
dickinson
fingerprints
intensified
optimism
exceeded
afterwards
excellence
fiery
intervened
kayla
adequately
heathrow
umbrell
barrels
embryos
sailors
delighted
1903a
dzhokhar
ephron
evangelical
telomere
inadvert
809401
cc
cans
gerry
hd
mi
nad
pors
paternal
tally
tents
tended
vault
##ais
##kind
##hat
##jay
stairs
##acial
##amy
hew
##imeter
##thood
aclu
placent
resisted
incidence
pee
scam
drif
whatsoever
##kson
obese
objected
##athing
##adequ
##issance
118
autumn
insens
confined
talc
correa
184
markers
##otti
maur
farrow
diarr
sonoma
petro
mccl
individually
boris
satirical
balloons
undec
drawings
mailed
cooperative
torso
screenplay
consisted
synd
lucie
rowling
pedro
montreal
grabbing
neighbour
windsor
ferr
translated
##doors
antibodies
structural
exploitation
gutierrez
podesta
outpouring
shadows
##rahim
hindu
cobain
fractured
ankle
barricades
booze
overseeing
##32432
croatia
subparagraph
luggage
sollecito
4th
dull
hints
lend
##iak
##piece
thorn
##alc
##alay
##icity
##otine
##urpr
stiff
##owan
isi
hef
shawn
##osion
fry
unrespons
##ectomy
segments
spilled
##astically
plots
clad
grin
upstairs
##iph
drudge
overtime
190
themes
##oye
elena
writ
remn
guides
demi
##erty
meme
confession
fined
##roar
retention
charism
138
severed
maher
##books
diocese
announces
##atorial
solitary
activism
mcgin
improv
275
magistr
scream
revoked
moist
reasoning
granddaughter
lightly
letterman
biography
misled
voicem
analyzing
pushes
##health
bullied
u201cwho
abdullah
driveway
u201cmay
honoring
unpleas
outlook
evaluating
fifteen
1944
clarence
elimination
forgot
finishing
fishermen
bruno
predictable
u2014with
wyoming
leonard
kercher
perpetrators
bergd
pediatrics
obscure
bahrain
##lifted
technician
ounce
congregation
jinping
adapted
##cephaly
veterinarian
hemispheric
kazakhstan
remotely
832432
bore
bison
jagu
lax
nile
nause
rag
rect
ripp
sulf
uter
##gling
##inable
##anyl
##ilis
depl
notices
##iffer
##ourse
spurred
##uds
enabling
newest
plumm
brend
crus
uproar
u2014i
incub
incomplete
disbel
##ailable
overc
expire
1900
##obile
currents
lawful
##arez
##arean
belle
mines
endow
readily
slap
handout
condom
productions
greene
u2018c
populated
saturn
damon
entertaining
robots
screamed
audi
iranians
mosul
ambitions
hammond
##ascar
victories
u00b7
logs
ashton
factories
calculations
u201clook
tamir
sophie
u201cgood
buckingham
huh
cowboy
altercation
homelessness
podium
recruits
unwanted
reassure
catastrophe
garnered
methyl
congratulations
recreation
enrichment
arbitr
portrayal
demolition
ojeda
kirsten
surrendered
kramer
amnesty
kappa
amusement
sophomore
barahona
unpleasant
bounty
dread
fs
font
hs
hollow
klan
lays
mb
s1
udd
vind
zip
##rir
##dock
##vine
##hart
##enstein
##oui
##elberg
##lees
##aco
##advant
beau
beards
beacon
##imeters
##chool
albeit
chanted
##ivable
exile
abilities
usher
arise
plum
outgoing
grades
u2014p
##answ
peps
intang
disrupted
##awk
scoot
emir
knocking
decor
##graves
myers
consensual
doctr
miners
minus
##fty
publicist
confinement
154
explet
refined
metric
##entional
campaigned
skilled
staring
tops
involunt
239
mustached
stockholder
performs
##ograms
maggie
discusses
screened
jeep
u00e7
huskins
escaping
80s
cultures
crosses
unsett
advises
owning
productive
productivity
##merged
cookie
##109
defining
harmon
deriv
evacuations
ranges
scales
fluids
integration
duran
clarified
coordinate
cycling
ruined
surgeons
tambor
achievements
tendency
fisheries
spinners
hugely
stretching
awaited
snipers
inventory
pearl
suicides
descended
statistically
tattoos
unchanged
gdp
arraigned
abruptly
disposal
html
wilderness
predominantly
undoubtedly
unresponsive
dong
jak
kun
ry
rays
void
wo
wip
wool
yen
##table
##roots
##page
##kers
##hed
##hell
##mph
##wing
inadequ
anecd
##itial
##asma
##stant
##olk
ala
deir
trove
unborn
spat
sheep
gogh
gru
allot
u2014are
manz
scor
##ibe
reliance
indemn
parody
remorse
bets
terribly
submerged
##ologic
needle
skating
redist
collar
sniff
visibility
popped
steering
bury
fuller
treats
hostility
##uffed
honour
expectation
crowley
misch
separating
budgets
musicians
shutter
observes
rosenthal
u201cdid
princeton
sounding
proposition
computing
logic
battlefield
cleanup
advocating
papad
cornyn
attracting
macd
traject
athletics
arabic
u00a32
champagne
scarlett
698235
prohibition
elliot
symbols
floors
rigorous
illustration
rosenstein
phrases
pierce
retrosp
inherent
tangible
protocols
exhausted
##lassified
replica
pioneer
jeopardy
flickr
petersburg
uploaded
cafeter
undergraduate
reimburse
appetite
honduras
chibok
bil
buss
busted
fog
gand
gret
jos
lis
pell
rocco
tainted
vod
##fw
##itus
##isman
##otion
reacts
##vering
##ocod
##eard
unb
u201cgr
abe
abram
##002
##0001
u2014al
##plus
sofia
overr
overhead
##raham
downed
airing
##azing
worlds
proves
johan
slay
relevance
edwin
##aturity
concessions
calibr
realizing
hospice
214
pais
organize
260
labs
latino
personalities
sufficiently
kimber
379
##notes
fatigue
mindset
checkpoint
pretend
developmental
prayed
bidding
extremism
soror
u00a31
gala
extracted
weakened
volunteered
durham
subscribers
infrared
tightly
apartments
besie
abbey
entitlement
maharaj
tricky
ayat
barrage
illustrated
privileged
pierre
proliferation
quantity
championships
aquarium
u00edgue
scrambled
profoundly
diminished
enriched
varying
sympathetic
pedestrian
puzzle
paradise
giraffe
narcot
##razole
abnormalities
concussion
ultras
tahrir
apprehended
fowler
laundry
proximity
columns
porsche
u00edguez
cite
hence
jog
kins
lud
lama
moll
ni
rol
slic
yoga
##db
##pable
##gles
##uish
##atisf
##orah
##otle
stigma
sauce
ches
neather
trending
unansw
##icef
##antis
outdoors
willie
grues
ammar
twc
incomes
##ogyn
presley
scoop
monolog
quir
mayo
helen
##ulture
courses
regards
detr
surreal
discontin
retiring
continually
internally
metaph
listings
burton
stockholm
##forward
freak
octop
erad
labrie
commentator
embattled
travelled
animation
responsive
generosity
futures
##umbling
superstar
multim
contributors
inspected
fatality
pretending
persecut
precip
missionary
flagged
u2014they
ashamed
exercised
anonymously
oceanic
assessing
mixture
rowland
dedication
rumor
stretches
plotting
bolster
mutations
sparking
anticipation
whitley
appointments
forensics
riots
dynasty
liquidity
ronaldo
conceal
shells
elevator
hijacked
disagreement
##ebra
purely
proteins
algae
u2014has
ibm
dynamics
pilgrimage
tibet
microcephaly
veloc
blonde
parasite
rehears
specimen
enrollees
u00b0c
stimulus
interstitial
fulton
unbelievable
tomatoes
blockbuster
fentanyl
bergdahl
intangible
ayatollah
bates
dm
hick
kost
kph
pippa
rnc
watt
witch
##card
##lich
##bone
##ilizing
##elow
##eto
onboard
stub
prizes
shields
##cht
##chem
alv
align
conner
##ocate
##ivar
##ivision
unicef
seism
abraham
repairs
arous
plos
cros
##asso
blat
commissions
obl
indians
betty
guad
defor
subc
discounts
imperson
finn
informing
informal
barring
139
farther
alley
u2018wh
payne
meng
##formation
artwork
visibly
irony
##shed
arresting
antide
salaz
smallest
cement
trev
trades
##comp
institutes
prediction
snowfall
curf
rapist
commissioners
alexis
sensation
##track
touchdown
graduating
gallup
accuser
premise
cooker
##3833
abdomen
casinos
##glasses
variable
automated
savvy
toxicology
restruct
reunion
minimize
discrep
dowd
estrada
nunes
ibrahim
steinle
bci
aldrin
inserted
accommodate
astonishing
warrior
##enegger
metabol
clooney
chlorine
superhero
avalanche
umbrella
narcotics
neatherlin
unanswered
gruesome
baham
dare
ioc
jang
lush
pab
pines
tying
tapped
yrs
##rocal
##ci
##yad
##fts
##bird
##omer
forty
##chan
alarmed
chast
chained
neat
u201cameric
sev
abus
enrique
goers
##ichi
amster
##ipher
appell
overfl
monks
blues
##athed
medically
underage
buys
1155
rochester
apa
finances
instinct
setback
yorkers
sexism
teammate
johnston
u2018f
receiver
collects
##shaw
debated
organisms
##anners
mcatee
sanford
austerity
nominate
similarities
dominate
chooses
educate
crowe
misogyn
cheered
intrusion
communicated
##heit
gods
surfaces
liberation
memorabil
##marked
teaches
##wright
counselors
derailed
collectively
1952
sequencing
calculation
u201clike
embeds
ghom
interval
shrink
bait
loyalists
mourdock
lamar
stemming
kirby
nicotine
bombshell
exceeds
flexible
interface
caitlan
leno
impaired
midterms
sabot
insurgency
pontiff
paleont
livest
meltdown
distributing
toppled
melanoma
inserting
fernando
wfaa
inhabit
restraint
refriger
intruder
alibaba
linguistic
monsanto
impartial
merchandise
antidepress
memorabilia
330
cp
hust
hipp
kling
kathy
lup
lured
lds
nodes
wires
yul
yong
##ti
##kar
##hap
##mn
##bane
thy
thief
##atz
##onomic
##eno
aniston
##isans
##aser
##ecks
##utory
##owers
beir
heist
##illary
##ulu
unins
##ellers
brawl
crest
##ikov
peop
manila
reclaim
##quest
perceptions
margraves
caret
thanking
blows
##ublica
paral
airlifted
defenses
publicized
colour
playoff
slower
slager
##ometer
goodman
148
passive
propublica
humbold
avid
laure
viewer
congresswoman
shortages
pubmed
ledger
bader
epip
reboot
choir
enforcing
martial
medicines
emerges
destabil
egreg
corpse
chairwoman
independents
horowitz
##eshi
creators
lowering
troopers
##marks
793833
cleaned
villa
u201cwould
royalties
collector
neurological
battered
praising
pledges
advantages
lockdown
vaccination
floated
outsider
jihadist
incentives
otto
excluding
chanel
emojis
reversal
appropriations
fortunate
sodium
chipotle
bikini
queensland
mathematical
obstruction
applauded
betrayed
lecture
territories
zarate
staunch
miscarriage
balthus
remnants
papadopoulos
besieged
humboldt
3rd
737
9th
aided
cud
dale
dmit
fib
jal
kre
laced
lauer
merger
piss
tik
vivid
wald
waved
xinh
zaw
##cy
##fman
##kinson
##bf
theod
inland
toe
##ecret
reince
reese
rewritten
pry
##igo
conception
##ereo
##opal
chorus
##ulse
##ulously
trunk
unatt
exor
u201cdr
spiegel
newcom
goose
##ucle
allocated
u2014at
##ignant
##ryn
emper
##ype
1962
counters
##group
induce
backdrop
thrust
thrones
beta
rover
roast
2000s
smear
smiled
airs
courtney
##minster
barrett
##brook
##ospace
marketed
sword
huma
systematic
stealth
bests
listens
interestingly
stepfather
##tenberg
##into
personalized
revis
illum
accessory
celebs
curator
determines
greenwich
unsurpr
characteristic
navigation
punishable
thermal
coupled
straightforward
resisting
substantive
qualifying
condemning
shroud
swimmer
prohibits
ferment
heroic
consolid
nicol
tyson
narrowly
partnerships
gestational
##john
leonardo
quantities
inventor
attractiveness
ethnicity
cohorts
obstetric
fortunes
rejecting
colombian
bmw
nicknamed
dyke
cortex
shepard
viktor
puppy
voyager
lanza
gazette
vandalism
indefinitely
6304
694306
retrieved
hebdo
nielsen
referee
verbally
##olithic
mccullough
sculpt
gatorade
schwarzenegger
staggering
endowment
amsterdam
ghomeshi
xinhua
7th
bam
bites
biod
dame
ebert
guth
hogan
lily
miy
ng
nih
rude
sx
sis
sasha
tore
vap
wiz
##ng
##cul
##corn
##lib
##hong
##bands
##jah
##edo
##ilder
##ady
##irst
alm
trian
weaker
unhar
u201cget
reput
plasma
claire
contempl
##quis
presby
marin
intercept
overth
justification
invisible
decisive
##erving
##inke
##rau
103
regain
demise
defines
discarded
2030
arrog
123
159
happier
barber
charm
1337
calder
gloves
payer
profiling
watertown
judgments
salute
builds
civilization
specialty
mccoy
waits
turnbull
##esterol
groundwater
screams
motives
obsession
expressions
williamson
conditioning
practicing
squir
cheering
digits
hamid
dolls
hurts
recalling
bullock
49ers
compensate
reno
berm
mandated
feeds
cathy
variations
integral
embassies
rumored
wheat
profitable
forgiveness
delaying
databases
transformation
dodo
bipolar
overdoses
privileges
unwilling
chaney
courageous
philosoph
alberta
wolff
fasd
avenatti
handcuffs
hormones
inflammation
chewing
exonerated
microbes
remedy
##ubscribe
comprised
assailants
cancellation
endangerment
supremacist
prenatal
hoffman
udf2d
injustice
diarrhea
curfew
beirut
unharmed
298
925
bac
dock
ferry
iuc
lil
nug
oven
papp
ramb
##try
##rano
##aic
##aul
##eon
##bd
##879
##jar
##enport
##arus
ana
onc
##oly
beard
sho
##usp
dept
tran
trails
##ifully
leases
usc
afore
crushing
dole
doomed
thereby
##ibu
blend
knees
##orship
rooted
autoc
downpl
investigates
conform
apocal
idf
breached
202
arrow
##renheit
##omething
133
payable
225
gunpoint
##cribed
entries
deborah
injected
costumes
davenport
funn
nonp
sandberg
accountant
lander
volumes
looming
browns
forwarded
ladder
halluc
recognizing
sensors
sprint
shipment
ratios
850
achieving
pacs
ricky
aspir
accepts
u043c
funerals
osaka
1947
bells
mastermind
physicist
dubai
discrimin
appreciated
hazards
pelvic
scrutin
taaffe
pharmac
demonstrator
gestures
##people
nashua
kalina
whisky
coincidence
improperly
portugues
voyage
preserving
distinguish
bargain
aurora
u00f3n
abundance
pivotal
paralyzed
cholesterol
sommel
unavailable
freelance
734205
disbelief
emperor
presbyter
bitch
cues
cai
dried
dai
gyn
hull
hank
hague
hinder
lashed
sut
tuc
tau
vas
woes
xbox
##1f
##pi
##lets
##bin
##orge
##oux
##ilani
##urg
staging
bek
fron
seab
aber
##orton
spart
sparks
cram
mead
meyer
u2014on
u2014all
##ansson
phthal
composed
caravan
blade
inviting
flop
premed
##nings
straws
schuette
reminis
roose
gubern
generic
subt
u201cthose
charming
136
behave
glen
glory
walton
artistic
protested
##apeut
camille
urges
referencing
badge
frontier
multipl
satire
iraqis
seriousness
safeguards
garrett
benefited
420
persist
owes
applicants
caroline
regulate
##missible
##oshi
controllers
swiftly
freshmen
khz
supplier
durst
ude
altru
naomi
kaiser
dublin
accompany
repealing
reciprocal
pumps
gilmore
podcast
restraining
unemployed
ravens
tasked
confidentiality
borrowed
overlook
doty
ancestor
accomplishments
mcgowan
carnival
betray
monteith
##hardt
creepy
vernon
noodles
culprit
degeneres
unequiv
unfavorable
deforestation
triangle
iucn
aforementioned
portuguese
gubernatorial
avert
bode
cir
cull
cern
cps
dum
dart
fior
fitch
hare
hinted
kt
nail
ntc
niece
piano
rotten
tut
tread
vogue
##iago
##nas
##nity
##mler
##bu
##9684
##anity
##itives
##idis
##urge
##olulu
rees
##imi
alumn
atkins
##ocial
troy
trapp
##umar
##aby
leah
##antically
##riz
clashed
agon
##bery
u2014if
##iko
##places
perth
perce
sox
carroll
##isha
##yph
maya
indul
parach
##mani
thrive
desired
downward
memph
discomfort
turpin
slash
continuously
authoritarian
##brand
simulations
147
propelled
##ctv
reds
##perform
raqq
steer
##shine
burd
##atories
##inctions
distances
uncont
u201chas
austrian
grounded
##iscopal
episcopal
##ographical
antiqu
criticised
maternity
ovarian
hacks
cardinals
surfing
rosem
graduates
flagship
u201cmore
harmless
u201cfrom
olive
saleh
deprived
sickness
rangel
affiliation
spectral
pyth
archaeology
battal
prominence
scarborough
kurds
munn
munich
cups
spinner
concentrated
ltd
rihanna
nigerian
sediment
gadgets
tolerated
aerospace
hubble
printing
manipulation
rallied
botched
unfolding
disruptive
specimens
lennon
##steps
wendy
nitrogen
fahrenheit
receipt
eyebrows
unstable
brendan
manziel
vodka
6304355
aa
bard
cale
d0
fis
hagg
jfk
koch
mama
meryl
nucle
ouster
pens
ports
yeast
##ross
##new
##ption
##ju
##aney
##ionne
rejects
##adan
##chang
##chron
##illon
neural
sums
unjust
##umbs
aretha
u201cby
sein
##istically
leilani
twitch
meghan
u2014so
##pler
contend
contention
peril
dragon
drills
##iances
blizz
##ovirus
##erville
dayton
daylight
strained
indigen
paran
elle
everest
##weed
u00ae
208
##undy
slump
slurs
edgar
##atural
transfers
131
30am
startup
startling
swir
##affer
lett
chrom
skew
viii
recorders
u2018t
174
boyle
potus
latimes
advertised
domest
crises
sherri
##cepts
penned
considerations
borne
##999
piled
bowers
oversaw
engineered
u00e9s
trailers
##ambia
construct
777
consisting
dreamed
sorrow
turkeys
u201cext
ufff
dunes
tanner
supervised
pools
vested
feroc
embracing
spinning
railway
asserting
psychiatry
ravitch
catalonia
underwriting
excavations
toilets
endorsing
nuns
unsuccessfully
sewage
paso
oswalt
minerals
intimidation
lingering
unanimous
unanimously
accelerate
shulgin
encrypted
reliability
urgency
lactose
forcibly
flavors
suzanne
reconsider
pundits
derek
confiscated
vintage
inevitably
ikea
landslide
doctrine
expletive
inadequate
uninsured
theodore
unsurprising
tucson
memphis
indigenous
70s
baked
cripp
dos
hump
jazz
kicks
mating
murs
mumm
nos
pals
ranger
sas
zur
##fold
##lave
##beck
##oni
##onut
##arb
##isations
##idth
##enth
styl
bean
beans
hepat
##irable
shatt
wast
##estra
frenz
chu
choking
dej
suh
##andered
exting
##ums
u201cne
orte
arose
##icht
crafted
gravit
twent
alligator
##ongo
contends
canter
intest
##ffer
disadvant
##awning
perp
monter
##eyer
coel
quas
teet
strapped
backstage
throne
throws
guant
warhead
##velt
defiance
152
slope
sunshine
videot
1800
prevail
mafia
167
163
164
esteem
hourly
redeem
212
clearer
gunned
steuben
keepers
antifa
245
argo
sandoval
waller
landf
bloodshed
##605
emergence
bankrupt
honolulu
##rooms
##official
songwriter
libr
brando
santiago
premises
mentioning
methodology
rodham
apologies
ecst
lengths
luckily
motorist
ivanov
dunn
vigorously
honesty
ferrell
dominican
horrifying
caucas
guarantees
dickerson
hooked
ironically
subsidiaries
axel
constitutes
forecasters
errone
catalan
kerr
portraits
benchmark
u00edaz
mugabe
stalking
abedi
pirates
revolt
gwyn
vikings
gdm
##runner
dishonest
chunks
mitigate
sanctioned
rousse
johansson
samaritan
conferences
miguel
bandwidth
inadvertently
bahamas
thyroid
ortega
012
ausch
bounce
gies
hens
lago
mri
ns
ot
pussy
rider
ti
vander
yi
##due
##dles
##cf
##cony
##fires
##vested
##master
##inas
##inqu
##orating
##itens
##idad
##elight
ono
##stown
##stead
##acerb
reich
##iri
shen
shred
shane
##thia
sailing
congest
conceived
chunk
choked
neo
##agus
trench
hait
exacerb
seam
seaw
sped
enr
arising
claud
dislike
##oglyph
##aways
presump
scathing
decree
##reeks
mays
daytime
strive
addicted
supplements
submission
centr
2021
filters
158
slice
continental
harness
transmit
skirt
realm
restitution
datas
210
allowance
angels
christensen
sonar
mcgu
unclassified
landl
loser
robbie
##govern
supra
feld
cellular
fairy
fearful
balcony
##burger
checkpoints
unsolved
schedules
concerts
speedy
therapeut
prosperity
corners
albu
enjoys
rickman
spectacle
instruction
ghonim
rupt
cyberatt
##walks
bulletin
burnt
pulitzer
depths
sibling
vegetable
bumper
u201ceveryone
corpses
fertil
gorge
opioids
clerks
predecessors
namely
longev
inclusive
lemon
ankara
lodged
u00e8s
architecture
distinguished
detonated
bureaucracy
pesticide
heinous
swallowed
looting
manifesto
untrue
bystanders
relentless
forbidden
algorithm
rhythm
denuclearization
engulfed
breastfeeding
fountain
macdonald
cafeteria
paisley
appellate
11559684
sxsw
roosevelt
gwyneth
auschwitz
longevity
1155968404
6th
739
bild
casc
dud
eats
gid
gue
jed
jails
lum
nhs
og
rc
wahl
yak
zoom
##ruff
##dwell
##sec
##cor
##gerald
##hole
##jan
anes
##alit
##ilm
##lease
stip
rey
##adder
##think
alumin
##opia
##atement
truce
hasan
##ghans
ariana
cluster
resent
grams
contenders
pepp
##avin
overly
##acht
blvd
##actic
elton
##othermal
backward
insulting
impulse
persona
arrivals
##rene
##ysh
explode
182
188
189
researching
metrics
caldwell
lateral
swan
testament
##redit
allev
greitens
u2018oh
rests
restoring
224
diab
diets
violin
popping
##atorium
##anni
liar
malibu
initiation
u201chigh
hostess
groundbreaking
angelina
##116
u0434
fellows
##committ
fema
telegram
practiced
combine
miserable
wooded
undet
armor
navar
pathway
proposing
torres
adopting
casts
methodist
tonnes
matrau
variability
detecting
dimensions
lucan
u043b
contests
sequences
devastation
1948
1949
darren
hampton
baum
patriotic
renewable
coward
clinicians
levy
enlisted
thicke
hansen
sidelines
barracks
extradited
u2265
cosmetic
stampede
##enzo
dwind
gosselin
cheerle
paddled
declassified
relaxed
##folk
incarceration
mummy
cunning
ponder
##querque
bunker
sarkar
hajj
stronghold
foresee
psychedelic
procurement
insensitive
zawah
pappas
caihong
raqqa
mursi
hepatitis
steubenville
9news
berman
cms
dvd
jae
nond
nerves
omin
sectors
syph
ufe
wre
wink
##iq
##nor
##eur
thigh
##onium
anah
##ouched
##isch
##olph
##acas
##iga
heed
##chain
alison
u2019r
##illers
comr
##ivation
exited
abide
plaqu
polite
theirs
contacting
soaring
##avers
complement
overweight
earners
earns
##argas
belarus
smar
surged
pressured
weekends
boasted
morally
morley
headache
187
feds
feder
greed
u2018no
171
clint
2500
snub
modi
mommy
saturated
performer
distressed
immort
erosion
latitude
billionaires
encomp
enforced
dogg
designation
deliveries
disperse
looph
combining
ambition
boxing
unsure
##heed
bombard
u201csp
observing
influx
rosetta
settling
grader
suitcase
museums
essence
olsen
honorary
strengthening
automaker
molly
lockheed
##rehensible
##actory
naj
hoover
boosting
bolt
disagrees
hazing
pitched
axis
prolific
inherit
newborns
excavated
premiums
telecommun
penetrating
screenshot
dalai
arbitrary
homeowner
warriors
mongolia
vendor
stricken
atrocities
stuart
bigotry
microphone
pyramid
johannes
sorority
restructuring
pablo
egregious
rousseff
albuquerque
aereo
bauer
diction
erect
gou
gle
iphones
lame
niro
pony
vox
yu
##dings
##names
##cot
##pas
##pre
##las
##kal
##matic
##worm
##wives
##inarily
##ouf
##isbane
stagn
##olta
prud
##amos
shor
als
fran
##oprazole
chur
chloe
##agogue
traction
##ivities
u201cle
spared
offence
adrian
##herent
worsh
bras
brok
bracing
yous
grac
amusing
upstate
u2014even
compress
carrey
##ibo
##ibles
commence
commuters
flurry
##eys
tequ
##obe
schro
showtime
##ertaint
cola
patty
slnd
slovy
sergio
transp
corona
30th
142
gloria
takata
afflu
sitcom
collided
amongst
##coon
salad
messy
secretive
romero
sanaa
parkway
uncertaint
financed
awake
superstorm
martyn
##ognito
exams
combust
woodland
##esha
merry
ensuing
scheduling
jewell
vacant
hyatt
therm
encouragement
poem
ashore
wide0001
erickson
sickened
roundup
dads
ambassad
ivory
dressing
towers
transitional
clarity
coordinating
proudly
virtue
tunisians
hawaiian
stems
punching
coca
hugged
riyad
prostitute
restrained
souls
diameter
desktop
chatting
##starter
gordo
##enzie
millennium
rahman
cinema
instrumental
diminish
bruises
hoverboards
##manship
admiral
pamela
kylie
intercontin
spiked
proprietary
whistleblower
nudity
corridor
regression
693122
moisture
sulfur
slayings
ultrasound
monologue
peoples
dejesus
slovyansk
uncertainties
ctv
dizz
fou
fach
faded
humph
ion
kens
kane
keller
koz
rattled
sids
vargas
xl
yuk
##cely
##001
##mers
##inces
##arazz
##inglass
##alup
##ilon
##enting
##elm
##urances
onlook
ree
forem
forge
shk
shap
shapes
##esting
##opy
nex
tric
##akis
##akov
##unes
u201cof
##istical
afghans
adhere
##herty
branson
brisbane
crocod
incognito
canv
recounts
acclaimed
evade
scra
##sole
stray
##issant
infow
smokers
detrim
confess
idlib
finest
directs
126
1500
slop
vegan
sunglasses
harford
headaches
##otte
calt
swelling
173
violently
##ennial
popcorn
valerie
seeming
hears
costing
280
eramo
banana
magical
easing
professionally
lowe
revived
despair
replies
##comb
finalized
halls
ambig
unlock
influenza
selma
machar
darker
academics
soundtrack
tuned
trailing
torped
battleground
advocated
disappearing
organizer
##2432
concluding
sickles
restriction
fluke
departing
deductions
grabs
promotional
altar
splitting
shrinking
dreamers
colonies
endorsements
dumping
transplants
triggering
preceding
gifted
reproduction
adventures
phillip
persuaded
fuels
stereotype
gentleman
mathematic
stumpf
celest
jolie
exhaustion
##orrh
razor
fitzgerald
trespassing
vibrant
cambod
hydro
elegant
kindergart
swastika
vallejo
counterfeit
goddard
wrenching
writings
magistrate
battalion
presumptive
syphilis
fachep
foremost
702
8th
deng
eh
ebit
hb
mes
pains
render
sings
sands
tat
wesley
##cus
##count
##felt
##mall
##bri
##oufl
##idable
##stra
forrest
prod
isinglass
##irs
shab
##chin
concepts
console
frig
comets
unfor
notre
spa
sphin
hash
newton
progn
poles
incur
peaks
phon
##ipov
appalled
scur
marion
carne
invoked
##eye
cobal
quo
quint
##iators
indo
infur
backgrounds
##eka
rooney
miniat
formidable
genetics
norfolk
idiot
instability
151
slipping
simone
simoff
##rats
suspending
streak
taxable
blackwell
midway
angles
kidding
radi
40s
supern
motel
richest
directives
##320
u201cbig
##scale
woodward
creativity
thomson
mayoral
mobility
roller
selective
trustee
controversies
grady
regulator
remembering
punishing
definitions
##audited
toughest
paparazz
implies
##reli
mixing
tayy
strengths
scaled
khal
occupants
dismissing
restricting
ringing
jenny
u043a
calculating
1943
clarification
mathews
traumat
rewarding
switching
ellis
loudly
exhibits
germans
pizz
assertions
rabbi
medalist
##olitical
outpatient
championed
natasha
validity
dictators
##repres
dopamine
u25a
rahm
bogus
telecom
disgraced
pirate
carnage
inconsist
brosnan
mockingbird
purportedly
encryption
mcgraw
staircase
unintended
mccormack
descendants
unleashed
metaphor
obstetricians
overthrow
discriminatory
presbyterian
blizzard
shattuck
tequila
ambassadors
sphinx
cobalt
010
aaa
bitten
cb
cnet
dix
fibr
hates
kink
lacey
mature
ratt
sv
vang
##yll
##onial
##enem
##esident
##arp
##asa
##icular
stack
##osomes
congen
chp
cherry
chua
neeson
##ocating
troj
##andro
unesco
unaudited
##akable
herz
##endor
brass
outline
canal
accr
##ignific
knot
decep
191
likewise
newsroom
elk
donovan
registry
subp
##iversity
u201cthen
156
authorize
edges
weddings
141
calvin
169
mush
223
powerpoint
debating
midday
midtown
deval
activate
damning
criminally
connolly
legalized
radius
embar
camoufl
screws
epile
##recogn
##1191
succession
bankers
paink
stormy
loos
entirety
surprises
blockchain
punitive
positioning
unload
repeating
granting
791191
scroll
papini
arabian
detector
strengthened
exposures
coffins
pinpoint
promotions
katz
warranted
ruins
shrine
hayden
displaying
installation
tasting
recipes
thirteen
eruptions
strangled
tuber
clifford
declares
notoriously
ernest
rebuke
obstacle
u00e1n
hinds
foolish
##aggio
inducing
stirred
cynthia
absorbed
lodge
upgrade
annoying
u2014from
lazy
inconven
maximize
contagious
exaggerated
##oglio
pooh
804879
ktvu
nostalg
caregivers
arbitration
emirates
trajectory
bermuda
spartan
shkreli
tayyip
365
877
dsm
fax
kess
kod
mets
nd
pend
poul
rows
raging
tad
tir
tass
tep
upp
ump
udc
wwe
waking
##rock
##naires
##0f
##vara
##gence
##made
##zok
##bard
inhal
whisp
shades
##term
##estorm
frames
##illas
neill
##ulator
##oct
haig
##oda
##ifier
u201cim
##ecting
##emore
spoof
##outa
sheikh
brat
brah
residency
sayoc
u2014we
##anski
phony
##awar
apples
##avia
competed
carver
##ibal
##inda
monopol
firestorm
expulsion
assurance
quiz
##oya
##tings
undergone
schul
00000
imply
homeopathic
##unders
retro
joey
annie
paterson
probing
sund
corros
runions
glitter
u2018b
paypal
realised
watchers
snack
irvine
openness
murky
##arkiv
mustafa
##keeping
heartbeat
heartfelt
408
travolta
easter
simpsons
portable
europeans
hunted
lowell
revival
statutory
##ueling
##quez
guarding
balancing
eastwood
philae
livingston
melted
320
punk
recognised
undo
commandos
touches
u201cdis
overshad
diploma
##armac
constrain
layouts
oliv
limitation
terminally
rallying
1958
1959
kharkiv
weaken
darwin
cycles
hungarian
bolton
bolivia
footh
deposited
exhibited
graphics
migrant
grassroots
mariah
u2014were
wolfe
hiker
hikes
unveiling
wynn
u03b24
prescribing
parameters
omn
resemble
helmet
rahim
u201conce
undertaken
grenades
oriented
underscored
absorb
mckay
ribs
grizz
tierney
dougherty
enrollee
kcna
golfer
yonhap
acetate
nolan
amortization
geoffrey
peshawar
schoolgirls
nutrients
klinghoff
dmitry
seinfeld
aluminum
intercontinental
tubercul
501
aes
ail
b12
crib
eid
erik
fences
irene
kgo
kkk
lol
litter
muss
nig
nets
rasm
sous
tipping
tysh
vans
vaugh
wt
##dad
##daily
##fight
##lag
##kat
##hou
##money
thumbs
##inite
##anamo
##aroo
inund
tok
##itud
##ombs
##idt
##ayor
##uri
##stood
rewr
reacting
beats
heating
##tert
##chy
frapp
acoust
leh
##allo
envelop
offending
armani
##endez
##omey
cla
claus
resh
resusc
amo
reconna
recurring
preschool
carved
monarch
quipped
strings
indisc
##itional
medina
##raoui
##reatment
betel
highways
depot
depicting
airborne
posti
subcommitt
colts
instincts
reth
retribution
##eeks
documenting
slur
exploding
##hips
143
esa
esoph
greer
213
##coni
validated
administrations
sixty
##afee
texans
u00e3
##uffle
traditions
##119
banker
##liners
destined
criticisms
panicked
heavier
##asca
ensued
nova
sprayed
hyster
hygi
exercising
ramadan
springfield
spanning
lasts
doubtfire
cracking
qualifications
compares
pye
batista
clarke
haters
eldest
abandoning
emphasizing
guessing
dominique
kristin
##ahuasca
extraordinarily
enhancing
withdrawing
skeptics
evolve
somalia
outpost
sinjar
tackled
rosenberg
dishes
yemeni
unconv
javier
posterior
overlooked
honeymoon
broadcasts
hitchens
separatist
cedar
concussions
censorship
lansoprazole
staples
888109
hilary
indirectly
guerrero
ineffective
bfg
flanked
placenta
undecided
voicemail
octopus
velocity
salazar
##ecretary
exorc
tranqu
premeditated
fiorina
ufffds
therapeutic
guevara
onlookers
infowars
carnegie
tuberculosis
reconnaissance
bonnie
cache
ef
ez
ejected
huss
jas
jaden
rite
sq
sigh
u8
wong
##dt
##arin
token
##itous
##iculous
##eco
##etus
##url
##leum
##ols
##amins
sax
friction
chand
chants
chapp
chatter
ort
##ghai
usgs
ard
##ells
ade
plastics
clam
clog
yearly
outwe
crane
amassed
dood
allwine
##plan
##encio
accredited
##awei
marj
intermitt
blu
assurances
deceptive
flake
preterm
secession
attach
##oyer
parr
##ocker
schett
betsy
desantis
##ahi
discern
summoned
##although
finland
finals
205
slab
barker
##bricht
181
swam
testifying
161
glow
walnut
177
255
217
marchionne
mustang
holed
limo
malone
legalize
petitions
mccotter
labe
initiate
basin
borough
advertiser
felon
felonies
domains
bombed
accessing
celeb
indicator
behaved
destinations
dispens
webster
analysed
handsome
##burst
rapes
shuttle
unsubscribe
insurgent
carolyn
transporting
defenders
u201cclear
pathogens
diagnose
constructive
implant
742432
environmentalists
hateful
integrate
dimaggio
pedoph
broadcasters
odor
pinned
rankings
novels
mouths
installment
boosted
cannon
mutually
disneyland
cryst
obligated
##deen
dialysis
upsetting
lamented
reminding
concentrate
rigged
exceptionally
casualty
amput
vietnames
ayahuasca
ravaged
jihadists
salvage
fragment
interfax
diamonds
correlated
andersen
guru
whiskey
grenell
porch
mantle
shanghai
##assee
bicyc
morphine
patterson
gusts
subpoenaed
genitals
thunderstorm
mascul
excerpt
prejudice
quarantine
whopping
erected
u4e
lafayette
orchestrated
unimag
neuroscience
dunkin
lochte
zachary
depreciation
guantanamo
wahlberg
ebitda
tyshawn
outweigh
schettino
vietnamese
aq
biting
cctv
fiss
iod
naut
pahl
rr
tin
taw
tup
u7
vass
xx
##eim
##pv
##vn
##eners
##anas
##ouk
##itations
##asaki
##omas
##omys
##ilation
##otive
##urst
##leased
hezb
shade
shaping
alaw
alps
fries
fruits
##oping
deuter
haired
weary
##earney
byr
u201csc
spouses
butch
plut
plaque
grind
upt
doherty
peac
##iper
evelyn
soared
carly
carla
interrup
relates
himalay
knit
invaded
flare
indie
elites
wrapping
##weather
sche
schiller
thru
roch
##iewicz
##hnikov
##amai
memes
airbag
deform
substr
provocation
provinces
wellness
turb
moratorium
misses
refinery
markle
goodness
percentages
vii
southwestern
laos
powerball
visc
mighty
steak
burgers
blackmail
injunction
organisations
specializes
marketwatch
mccon
##lamation
closes
encyc
bloodied
bushes
successes
assistants
capturing
emergencies
visitation
loeh
combinations
misuse
325
cheated
amounted
preventable
ulbricht
coastline
merits
observational
spraying
micropl
ruben
begged
rodney
beatles
ecb
kidnapp
u00a35
planetary
rhino
coaching
afforded
jointly
deduct
commercials
##blue
darrell
deploying
ghouta
sucked
bacterial
698234
patrols
tallah
andreas
masse
gambler
dilem
fantas
huawei
scanned
stripes
jacobson
traffickers
neglected
insistence
loretta
classrooms
havoc
renting
resembles
lebanese
undertake
peanuts
frightened
embryo
applaud
rugby
bundy
rebuilding
buddhist
arraignment
reinforced
mcgrath
aubrey
hwang
physiological
stockpile
worsened
lerner
dehydration
disconnected
titanic
asteroid
spontaneous
schemes
pervasive
unexplained
hewitt
fontaine
involuntary
kimberly
kostel
sabotage
anaheim
riyadh
scurvy
amoore
labeouf
loehmann
cue
cyr
dhs
ek
elic
ecc
eternal
goth
hose
henson
kom
lsd
ming
mates
nir
puff
piers
pasc
qaddafi
rift
wm
yos
##rical
##si
##ck
##vette
##kaya
##inan
##arth
##idine
##econd
stellar
##olin
prow
##lyot
itunes
shores
withstand
##opr
neon
##ulum
tricks
##andowski
exempl
acne
u201cover
u201cinc
abst
abiding
rept
repress
ense
engr
goof
claw
brack
outburst
amyl
##ipeg
##izers
marina
likened
expiration
invention
flame
floyd
coo
mayes
##obin
addicts
u20132
infid
##ilyn
thriving
##itte
guild
smelled
servant
milton
config
provoked
booming
retaining
filip
slams
complied
swearing
glance
crem
billing
taxation
critique
##tegr
antis
243
singers
executing
copying
masses
295
##ipper
marketers
portman
winding
forcefully
succumb
##umbled
captives
indicative
designers
sherpas
eighteen
60s
##lux
norms
ullyot
419
precinct
thankfully
socio
##mez
mailing
jonas
u201ccan
logged
abdom
karpel
attendants
u201cnew
comedians
olson
mirac
magnotta
magnolia
##afta
brooke
1957
##1909
barbie
cartels
forests
dissatisf
satisfying
vests
ronan
downloaded
mercer
tearing
buttons
outsiders
sidd
##slist
shameful
perpetrator
bunn
stamps
tumult
groceries
scramble
alexandra
irrele
exemptions
tornadoes
grenade
mckinley
rugged
mccarty
kiir
undermining
narciss
cryptoc
vendors
renovation
yanuk
injections
contingent
bystander
remarked
merritt
oyster
acquaintance
stoneman
cursed
neanderthal
indecent
kraj
jaguar
pepsi
redistributed
perceive
fischer
feldman
deception
subcommittee
tallahassee
0x
510
bind
foe
faux
hats
hagan
jub
kov
lys
lively
lighth
mch
mecca
nah
panc
reneg
tid
tate
uf
vil
vain
wiley
wicked
zte
##rera
##dn
##clusive
##firmed
##hm
##betts
##jour
##inates
##enburg
##escent
##orie
##around
static
isab
hefty
##ithner
##estones
chau
unacc
unthink
##ifi
u201cper
orn
seizing
##season
##emia
hastert
repris
newfound
##anton
arming
adolf
u2014l
u2014be
inclined
contended
##ubb
peripher
marble
compost
compartment
overhe
partying
relieve
monis
becky
decried
##ovanni
##oyo
##activity
schiff
##ugged
warpl
defund
handwritten
##ometimes
146
passages
keg
realities
172
avatar
menendez
258
visas
##park
safest
geithner
50s
##oxide
candl
limous
funnel
homicides
100k
forehead
commentators
statutes
vehement
tvs
understandable
citation
biot
dangerously
greenberg
advisors
ensures
sensational
regulating
sweater
##onymous
hype
constitutionally
u0092t
papyrus
wishing
magnific
kickstarter
astrophys
containment
circumstance
spirited
adjusting
triggers
christianity
suck
vastly
reprints
wiret
float
snapshot
##roads
exploiting
scanner
hugs
hartford
tagged
slamming
craigslist
vertebra
hoodie
millennial
marrying
hobby
astronomical
dolphin
benny
namib
simpler
avenues
nikol
poros
tibbetts
discourse
cynical
lesbians
unrav
residue
assailant
favourite
palliative
squeeze
cancellations
hogweed
vickers
contagion
mcnally
adherence
disrespectful
surpassed
paterno
winnipeg
sectarian
demeanor
petroleum
nausea
3791909
livestock
squirrel
haggard
immortal
telecommunications
brokered
trojan
##itudinal
pahlavi
cryptocurr
301
90s
benson
cott
dh
durb
damai
fus
ips
jc
jockey
juba
lena
lashes
liang
pag
pavement
sock
sender
tice
tuck
vald
##tes
##rise
##vc
##hu
##zinger
##uki
##bra
thefts
##inational
##atable
##atra
##esis
##orical
##economic
##urally
##station
stacked
##acanth
prag
prays
shining
saves
##illard
##essen
dea
##anders
##andum
##ivial
unaff
unrecogn
##akia
exterior
##emite
##abl
##apnel
adhd
outlines
allah
recess
recapt
##quan
sof
##avic
scent
marr
marlon
##kselberg
flock
flipped
##ollen
##prin
removes
descriptions
downfall
regim
regained
insured
camping
2025
##ixed
##ioid
##photo
slapped
diff
edmund
barre
vein
vekselberg
sunk
concession
extinctions
runners
countryside
esqu
gloss
skipped
payout
paycheck
##asonable
placebo
antagon
develops
journ
freezer
costco
##emption
##annel
freestyle
310
connects
273
forefront
approving
erase
wallet
mcclus
totals
u201chave
forceful
##biqu
lowry
multinational
deepwater
traveler
primetime
cleans
curves
spotify
##heus
branding
##hany
##agnetic
u201cdoes
##brecht
hye
logistical
screenings
mirra
synagogue
##guided
canadians
evaluations
lewandowski
1941
molestation
batht
lieberman
neighbouring
supplying
tragedies
youths
bono
disciplined
698232
prohibiting
rewards
dubious
accomplice
inquirer
gamblers
taping
##theim
rabbits
jihadi
gammy
undersecretary
prevalent
moody
mudsl
cobb
nutritional
stereotypes
adolescent
swaddled
theoretically
argentine
intimidate
bakery
restrictive
undermined
abundant
mimic
intercourse
##iglar
intolerance
disruptions
gelhaus
lancaster
u201cmany
dancer
ignorance
commodity
baez
hefner
ripple
caretaker
biodiversity
downplayed
reminiscent
caleb
coelacanth
haitian
undetected
cunningham
combustible
torpedo
##brien
indoors
paparazzi
camouflage
klinghoffer
hezbollah
kostelnick
amyloid
abdominal
mccluskey
465
499
bb
bending
dul
epp
fist
gast
giver
ji
kj
kern
laps
mund
moles
pinc
rond
raced
rams
rawl
racked
sard
soma
tester
tapping
ubiqu
vows
vagu
wb
yields
zen
ziglar
##rous
##des
##doc
##yans
##foot
##lies
##zinski
##upt
##eras
##inent
##onder
##enos
ants
##itas
oft
##ashnikov
u2122
stats
##oliferation
fork
##igible
sheryl
dewine
hairc
##ainable
u201cabs
sey
##aptor
plaster
clan
outlining
crater
crawling
inciner
cane
timed
recoll
carmen
partisans
prehist
obey
currencies
strzok
elbow
showers
showcase
remake
##ugia
ministr
depicts
defra
defends
##fulness
posture
busiest
colonna
finale
209
retreated
153
slender
slashed
##ometry
morocco
delicious
harming
harrow
botha
compliment
sexes
bigelow
proponents
u2018what
realization
redef
laud
229
histories
populous
geun
geoglyph
50th
cnnmoney
footprint
deterrent
waived
basil
bored
u00e4
roadside
husbands
revision
revoke
periodically
##ynd
envision
despicable
louder
fatty
digs
vicinity
hamburg
notebook
undes
bidder
##ungy
trustworthy
baggage
cubic
renee
beautifully
begging
berk
u201cmr
sarc
u00fcl
collectors
deprivation
emeritus
chronicles
objectives
symptom
spiral
##blog
signaling
##7722
wealthiest
scientifically
barbec
shrapnel
taller
venues
lambert
dependence
toxicity
deliberations
calmly
pronoun
pharmacies
rotating
liquidation
forums
lapierre
pillow
##funding
exclude
convenient
disagreements
kalashnikov
vitamins
kidneys
overlap
caitlin
assignments
kathryn
rendition
bikes
outfits
airplanes
underscore
underscores
skiing
u2014may
bribery
kinect
technicians
energetic
stefan
burgundy
u05d
fluctuations
disapprove
adulthood
rationale
addictive
mistress
infringement
kaplan
##lyssa
endeav
thwarted
russo
incompetent
schmidt
beyonce
wrecked
duplicate
compulsive
charismatic
mcginty
indemnification
yulia
pissed
nicolas
dartmouth
alumni
gorgeous
alleviate
u2019rourke
inconsistencies
spartanburg
frappucc
pyeong
irrelevant
journals
530
845
bucks
cess
fd
fatt
giles
greeks
jace
jind
jeter
kw
kell
kagan
lenses
nr
vib
wart
yun
yog
zig
##tw
##yah
##film
##gg
##kok
##bil
##bilt
##je
anita
touring
##alam
##isable
##icter
##eley
whipped
reeling
##adol
##owell
bea
beads
##aments
u2019brien
conan
frost
neb
##ocally
dew
suited
hassel
arby
brod
brushed
##geant
polanski
crafts
gramm
##berries
manchin
reconn
##quin
##assing
drastically
##iants
##urrent
emission
relay
commits
flashing
1930
##oban
##iatory
stricter
elis
##inkle
medi
##prom
beforehand
defied
finches
slid
##aughlin
nightly
##otto
meta
storyt
swipe
sket
affirmed
u2018g
u2018l
convict
watergate
streamed
25th
lauded
shoots
burk
debts
23rd
boycot
organised
denouncing
processor
equation
westminster
279
erick
mccr
basal
hopeless
treason
355
broadwell
##balls
destiny
disposition
mexic
melton
curtain
unlocked
drinkers
##henko
packs
hurry
##until
subset
influences
rollout
bids
##ieties
memorandum
tribun
countered
vacated
bloggers
u201ccons
u00e9r
proposes
scrub
picasso
sadr
##writers
climbers
khou
symptomatic
u043f
contestants
##namara
pledging
gregg
intervals
tarant
disciplines
venge
randomized
echoes
obliged
accomplices
motivations
whitaker
escalate
lavish
##oenas
echoing
preceded
wyden
electroc
validation
huddled
certificates
u201cunf
bergen
arsenic
disgusted
congratulated
penetrated
theoretical
discourage
kendrick
autonomy
upgraded
brien
volatility
horizont
emmys
bosch
tolst
reliably
##occup
retweeted
mccormick
##ophobic
orphanage
bribes
conducts
reaffirmed
confidant
societies
turbulence
penguin
u201cobv
shutterstock
blatant
nonpartisan
aberdeen
frenzy
mcguire
foreseeable
johannesburg
kindergarten
##ignificant
subpoenas
constraints
bathtub
jindal
830
cider
coded
dv
damp
dpr
daring
egan
fy
gat
gors
hut
hama
kony
lust
lase
lenders
maus
noun
rory
raff
roster
tion
tull
tides
tucker
tidal
wille
zav
##vet
##volent
##hp
##human
##uh
##orient
##itant
##icates
##ictory
##ilight
whal
wholly
onsl
##stones
stain
reiss
forged
pric
##imps
##oso
saul
frantic
cheng
trapping
trivial
hailing
wei
##unity
exiting
exotic
orbits
abet
##isting
spine
##arte
repet
##allah
##ustomed
brom
brighter
crot
cramp
crunch
peaked
timet
accustomed
phishing
disdain
scars
scoring
##rystal
blanch
decap
fliers
##aterrestrial
lawson
typh
wraps
consular
helpless
thrill
caputo
suppose
smash
##airie
servants
##azer
finch
finley
206
protr
needing
efficiently
turf
faction
serena
condo
internship
303
metre
metast
swear
sussex
essex
possessed
divert
collateral
snag
modify
classics
interviewer
steward
paige
##text
##echtheim
salem
sixteen
messed
protestors
laredo
procession
crimson
mcelm
facto
canceling
arche
ideals
updating
generator
sidewalks
focal
treacher
roadbl
statistic
llp
indicators
biases
practition
misguided
snowstorm
madness
favorites
nbc10
##flight
councilman
substit
cardboard
diner
acquiring
blueprint
villain
diagnoses
baylor
papal
u201cplease
697722
extraterrestrial
khalid
##icopa
u0443
admiration
yellen
kurnia
literal
plotted
defeating
rewarded
##walt
tastes
discriminate
vetrano
cruiser
foam
pumped
transformers
riess
faulty
hartley
dustin
kardashians
janeiro
snipes
unveil
illustrates
rosenwald
lori
tango
reservations
covenant
swinging
mugshot
astronomer
paddling
valentino
puppet
##angelo
gabrielle
lexington
cocktails
caesarean
cumulative
duffy
paused
biblical
crawled
misunderstanding
feces
mclaughlin
shovel
affirmative
maneuver
keefe
improvised
mischief
antidepressants
gynec
parachute
vanderbilt
dudley
detrimental
unconventional
hussain
unthinkable
prehistoric
mcelmurry
kurniawan
alyssa
cary
dazz
fisa
foye
hoot
jars
jorge
kitt
kier
loun
lending
luf
lomb
mers
munch
qur
rials
tory
vowing
wau
##tles
##uber
##iners
##atus
##atible
##oro
##anian
ancon
##omayor
##ido
##ilia
##ecoming
stif
##ados
wasting
alicia
atrial
##illi
chatt
neolithic
dee
##agra
trag
hauled
##igham
##andi
unman
unofficial
bye
aca
u201cacc
##emaker
spoon
hastings
##oka
##arde
bravery
brokers
grisly
u2014n
u2014pr
u2014you
##encia
perks
perimeter
scant
thereof
drafting
maricopa
##iba
##ovo
##ensional
##ensibly
##ypse
attributes
1933
countdown
indisp
eliot
##amph
donuts
showc
backwards
##uges
##ericycle
belize
guam
smashing
demille
insulin
discounted
boil
##media
filtered
numer
greets
251
artef
blackberry
stoppers
opener
singles
holtz
##annah
290
improb
freep
distract
footed
footing
homs
malfunction
lineage
windsh
##igroup
##swick
motes
superst
dogged
breweries
misin
##maid
##askill
wildfires
recognise
425
iceberg
characterization
psychologists
alcoholism
493
540
trusts
reflective
pathologist
recommending
logical
u201cnever
sargeant
miranda
terminating
duval
krug
shelby
kilograms
##blance
spectr
cooler
1940s
obamas
wheeler
toxin
scarce
u2014because
##monary
translates
decreasing
cowork
brunswick
tavern
dodd
u2014will
awaits
gillum
illustrate
gabe
receptor
prescribe
dismember
manipulated
ruthless
solemn
mosques
inflict
coveted
fulfilling
dwight
u2014have
resemblance
absentee
##robe
bmi
mcgill
inputs
discretionary
inexpl
brinkley
seminole
##presso
recycled
empowerment
lexi
##lifting
unrwa
residual
pediatrician
revered
u2018this
ounces
spearhead
yankees
beheading
pharmaceuticals
chesterman
dismantle
adultery
decomposition
excerp
outlawed
eisenh
vaginal
endeavor
shirley
contracept
sotomayor
heterosexual
##birth
siberian
intermediate
unsettling
paralysis
sculpture
unequivocally
enraged
inheritance
congenital
dilemma
limousine
harrowing
lasee
398
432
bakers
bung
dugg
ezz
fost
gp
geller
iw
jk
jugg
kara
lime
mous
mutation
mesa
poking
pembr
roc
s7
sig
sizable
tarr
tapper
tucked
vr
vc
waged
wipe
##rail
##iency
##sville
##ea
##psy
##lace
##loor
##hail
##word
##300
##eron
##orates
ante
u2015
##entin
##elect
##store
stash
stericycle
##adam
prairie
##amil
##amble
isle
sauc
chore
chep
chores
##agos
truman
unreg
##unts
u201cout
leakers
##003
##uddin
##iek
adele
##endiary
clocks
brigham
crap
u2014by
peek
canine
manass
manned
##awned
perugia
##avis
scav
scouring
drift
mares
deced
flung
flechtheim
coy
mayhem
objection
strass
elias
lawler
donnel
u20131
foundations
remembr
rooft
mint
guate
depict
##ussen
warwick
defected
discredit
##ashi
provoke
summons
idi
u201cthank
retains
joaqu
continuation
nationality
setup
186
researched
metall
166
##affes
kepler
starving
realizes
walr
standpoint
256
risked
##parable
engel
koreas
blackout
debun
singled
u2019reilly
leveled
copied
kinda
hearted
heartland
radford
sawyer
generators
##yrock
storied
felipe
dailymail
rebek
superman
superfic
quicker
breakout
totaled
martian
challengers
painter
fairfield
fairmont
conditioner
citigroup
panetta
##hammer
mindful
garfield
madag
dozier
unfit
340
greenwald
##heim
hurdles
seasoned
catac
cataly
u0e
roses
machinery
acquitt
ethi
7906
fleming
cleaner
willy
rodents
u201cface
ramifications
standardized
##ochs
1953
aspiring
lucy
ipa
ivy
harassing
##banks
jordanian
brianna
barbar
marcia
disclosing
laurie
installations
tighten
compromising
vetted
dominic
##osterone
andreessen
bangkok
railing
provisional
ironic
nigerians
ugand
rotation
anchorage
meteorite
quantitative
bumped
unconfirmed
java
hijacking
confronting
u201ceverything
##intendo
fuqua
disgust
hypotheses
smoothly
seventeen
contradict
seafloor
mcgrier
spectacles
irrevers
compassionate
livelihood
ppi
sentinelese
buttocks
benton
gwinn
styles
moderator
inconclusive
yankee
squeezed
contingency
microscope
##orphic
segregation
baffled
derailment
amphib
gerrym
uterus
woogie
gandolf
abrams
guadalup
altruism
betrayal
centrif
dataset
federally
sousa
hygiene
unimaginable
ensemble
gorsuch
guadalupe
462
865
aiding
bong
binary
cly
cush
dd
dess
dach
gcs
kare
nate
ostr
oste
rin
ronnie
utc
xm
zion
zet
##xi
##rac
##rated
##rors
##door
##cock
##cro
##fin
##pent
##pipe
##vae
##bas
##bings
##inburgh
##inidad
##eder
##orthy
##aren
ans
##elly
##elets
stag
##veen
beaver
##igs
alec
fraught
##illation
##ivist
unilateral
notting
noticing
semen
##ourished
spun
repatri
reprehensible
##apar
##ieffer
##oku
##ardi
##river
##riuk
plume
clippers
brze
proactive
willough
crowned
ames
upbeat
allocation
u2014she
##derman
incendiary
##ublished
manic
##oger
##ogical
drastic
marqu
caric
##ileen
expands
assists
assumes
invision
flaming
prefers
cohn
##oba
##obody
##oined
docs
belaf
autograph
housewives
camped
2022
specially
takeoff
slut
eds
edinburgh
veered
##anke
##vedo
##otters
testosterone
skaters
skyrock
esty
greens
redemption
menace
raft
proclaim
girlfriends
##echt
devo
238
anguish
policemen
bodyguard
excel
##forth
massage
denials
mcnamara
erratic
prosecutions
travers
murderers
frontrunner
encamp
circular
moammar
##ophen
primitive
examines
doubling
capitalize
tomball
versa
browne
combative
##exual
322
panthers
decidedly
wildfire
subjective
u201cde
faults
religions
##824
u201ccont
doctoral
mistreatment
kellyanne
consistency
papa
dreaming
attractions
ridden
strait
sync
hawkins
morton
1956
khloe
commercially
neuron
neurode
##gaard
luca
sequo
##gener
1940
molested
mallory
katriuk
towed
stabbings
frustrations
publishes
##utcher
juror
foreclosure
laurent
installing
tightening
##iqui
cannons
reinstated
hanna
listeners
germ
hugo
portraying
brussow
axios
sinister
polarizing
submitting
expenditure
acceleration
accomplishment
contradictory
motorcyc
reluctance
middles
unreleased
bargaining
sobri
spoil
subdued
subdivision
conjunction
bothered
sokolich
inquest
jacques
kangaroo
lulz
thwart
bravo
acevedo
disproportionate
stubborn
fronts
ominous
smarter
kinkade
##endorff
epilepsy
ailments
rasmussen
acoustic
tupac
byrne
plutonium
siddiqui
krajnc
unaccounted
vehemently
u201cabsol
u00fclen
elisabeth
ancona
eisenhower
chepiga
rebekah
790667
brzezinski
560
aly
bree
banners
cors
cuff
capped
dn
dime
duct
dungy
ee
eure
ego
fn
foes
gently
gored
gavin
hires
heller
kot
kad
lair
lager
liters
mam
nails
nintendo
pounding
rica
sald
vets
wj
yor
##du
##oit
##fig
##faced
##gow
##log
##hows
##mia
##edia
##ori
inel
##ouffe
##icably
##idian
##etamine
##urable
whitt
stitches
##adino
beam
wass
sage
framing
##uliar
defer
trinidad
##ivated
##uns
##odo
u201cwhere
u201cfl
oracle
##ectives
reperc
##abi
leve
herd
afm
goins
plouffe
bragg
resorts
polk
crafting
grieve
grimm
grazing
u2014like
##ubstant
disinter
scold
relocated
monrov
monsters
blument
bladder
commute
precheck
coer
coag
covey
firsthand
stroll
elaine
myri
wrath
consc
consort
##wayne
demograph
insec
insecurity
geneal
centimeters
impuls
boiled
##roffe
sliding
handwriting
editions
barcl
sunrise
corvette
##eworthy
##anking
markings
complicate
##982
afflic
sentiments
possessions
waterbed
redes
hospitalization
cameo
##shoot
sourcing
analog
fullest
denounce
economically
mcbr
freight
319
homage
marketable
causal
responsibly
waivers
u201chere
u201chey
hostilities
britney
varies
variants
totaling
multic
##ortunately
philly
satoshi
chev
purport
woodroffe
ovation
ambush
persian
##risy
fortress
470
brandt
##345
sensible
commanding
kenyan
tributes
egyptians
renamed
renoir
definitively
rubin
beginnings
u201cfirst
implicit
mirrors
luh
terminals
honorable
erica
sheldon
springer
tsai
1954
dimension
unknowns
##ickson
skyd
sharpton
##immers
conspiring
hoek
reproduce
##cliffe
finishes
silverman
tipton
stressing
fetuses
jerk
sirens
mourners
##utsche
stemmed
engagements
mahler
mammoth
bathrooms
transferring
rampant
oddly
elevation
pillar
philippine
gentili
pdt
incorporate
administering
helmets
mackenzie
liverpool
bourdain
nichols
##atonin
penetrate
jarring
governed
folded
styled
iqbal
postpone
barricade
moderates
dealership
celib
outdated
drummer
coronary
rafael
epidemiology
enactment
triplets
##otheby
##ophobia
koran
nerd
prioritize
vertebrate
disguised
neighbourhood
calibrated
detractors
persecution
trevor
abusers
hallucin
uncontroll
tannerite
perplex
dictionary
reeves
cambodia
traumatized
rewrite
yosemite
cryptocurrency
rondini
wartime
tragically
unmanned
manassas
strassman
donnelly
willoughby
repercuss
blumenthal
401
5m
bj
belling
ducks
faint
geys
ia
jem
jade
kv
kau
lent
lester
mowing
oust
pins
poker
sack
sotheby
tpp
tara
umb
xvi
yik
yosh
zomb
##aue
##dl
##oise
##oza
##eous
##pen
##pins
##lift
##aniel
##inged
topping
##itic
##itano
##idity
##entry
##ecked
##ayune
##etry
whim
whirl
stool
##oway
bef
shouts
##thans
atms
##esters
##illac
##illions
chats
neal
##essional
##ocino
tract
traps
haus
unwa
##ako
exits
u201cop
u201ctrump
##isty
spelled
##abaya
##acker
offend
offences
arter
artery
##endra
##riber
ammon
##iker
contributes
manually
intric
pert
scour
scaff
carm
##ianna
##asey
blink
commend
commuter
##ishment
##athom
##grow
para
parveen
elusive
lawless
sylv
##ugn
autistic
autobi
knowles
guiding
surabaya
planter
postings
impover
imposes
protagon
playground
playstation
handy
edged
morales
##bron
severance
teamed
gloom
proportions
viagra
179
redistr
219
rae
iris
particle
steered
employs
antip
janice
victimized
angie
##forest
colleen
journalistic
distrust
limp
homecoming
archdi
easiest
u201chad
coupon
u00e0
felix
revamp
mogh
audition
medicinal
apparel
allegiance
pena
clem
baltic
##etermin
estimating
brewed
melatonin
rescind
inspir
panhand
heaviest
australians
witnessing
##boat
shuttered
persisted
note7
chicks
necessity
langley
crowdfunding
seldom
overseen
muammar
franken
sweeth
poorer
poorest
negotiators
computed
bobb
width
picayune
hairs
derog
rainforest
cerebr
kilaue
u201ctwo
automobile
consequently
bradshaw
preparedness
deduction
escapees
conclusive
noticeable
brazen
maple
ventura
locking
admired
vaccinated
cartoons
forestry
kissed
dissident
resolving
reprieve
tightened
mechanics
bolst
adamant
sophia
brightness
fetched
u201cgiven
selecting
stringent
gmo
sighting
railroad
altering
ample
indictments
await
gillard
hemorrh
gamers
convened
fiu
cosmetics
u201ceverybody
reversing
handguns
mateo
klug
accelerating
theatrical
motorcade
caval
cavity
cinematic
hispanics
stereo
jarvis
mendocino
jeopardize
richer
kanwal
deteriorated
semitism
kobach
inferior
##especially
stefani
mellon
misunderstood
oppression
ventilator
stephenson
interfering
ostensibly
incapable
liaison
hypocrisy
vampire
u201cmaybe
jakarta
discontinued
seismic
seventy
pryor
nugget
redskins
unsurprisingly
libraries
axelrod
739116
martynenko
kgoal
fantasies
namibia
durbin
mudslide
epps
pyeongchang
timetable
kittens
madagascar
sobriety
monrovia
impoverished
kilauea
395
502
bav
bamb
cumber
ej
eul
eeg
jes
jod
krup
nl
nm
node
sow
sans
sully
uv
vending
wandering
yawning
##tra
##roy
##dal
##iently
##oated
##nis
##fs
##fried
##zal
##bly
##esi
##arized
inline
inception
toes
##alach
##icacy
##rep
##ilst
##ilus
##ayen
##stad
##start
stature
beet
##imon
##this
alon
alde
franks
fringe
##ocl
##aga
##earted
##ivol
unification
##akr
u201cgo
ores
##orting
repurch
##apenem
adren
##endo
plowed
outbound
crook
crick
amen
##awks
presiding
peruv
perdue
##avier
overh
overview
relear
relayed
exponent
##ovir
tebow
##gro
##issan
##wealth
highs
mina
guill
downstairs
smwh
surn
termed
presse
submissions
boos
##oductive
locator
slipp
handbag
handmade
differs
harbour
extortion
30pm
swollen
susie
mae
maure
glut
greeting
178
ava
menoyo
strewn
227
systematically
devout
policeman
generals
sonia
sonny
larson
congressmen
marketplaces
peta
babys
magma
embod
portal
robbers
murderous
britton
trey
roadway
superiors
accessories
customized
##enchant
golds
goldie
islamabad
capitalism
biopic
u201cbad
woodruff
amazed
briefings
libor
##opriately
gatherings
440
influencing
settlers
mupp
fills
pathways
tuna
villavic
optional
poignant
bayes
queue
oligar
derrick
planting
introduces
skinny
manufacture
ecology
bernanke
ignited
detectors
fueling
##394
weakening
##iciencies
praises
hanged
weaponry
bello
sustaining
catches
leadsom
nydaily
isolate
sticker
mechanic
jetblue
warmth
hanover
stressful
liners
sedan
experimenter
exceeding
##panz
permitting
vegetarian
fascinated
tailed
tailored
endangering
bubbles
tumors
reservation
omaha
latinos
smuggled
monumental
adversaries
rendering
cinemat
paleo
enthusiast
u22120
suppression
sobbing
panties
buddies
shulkin
glacier
staple
tarnowski
1920s
apostle
dancers
##ourtney
u0627
disproportionately
kneeling
hosni
auditorium
cowboys
gretchen
roland
crosby
vapor
reputations
##urgeon
nucleus
paranoid
anesthes
##cusable
ortiz
substrate
warplanes
magnificent
ministries
basilica
yogurt
mexicans
u201cobviously
lufthans
windshield
misinformation
pembroke
gwinnett
gerrymandering
gandolfini
consortium
mcbride
luhansk
smwht
villavicencio
nydailynews
lufthansa
332
361
biles
bisk
cin
dl
dine
dared
dwell
dahl
ew
fading
gail
hig
jast
kud
lp
linger
mn
meck
nina
poop
pnas
ras
rath
razi
siz
tarmac
vinson
wandered
xia
##rase
##iol
##oan
##yden
##loo
##wire
##waves
##bill
##bear
##base
thaw
##atan
##ativity
toured
##asion
##idious
##iderman
onetime
forster
beare
iter
alum
alask
atoms
triang
haunted
##ivik
unhealth
unmarked
##odden
##orean
u201cind
leased
arbel
outing
grig
grapes
ame
upwards
dob
dooms
u2014of
u2014just
img
imbal
##oused
recuse
disorient
##ipras
nook
presided
marvin
marburg
##ibus
ems
interacting
invites
attribute
193
curric
strokes
##manus
myspace
infested
throng
captors
##pta
guang
regimes
insin
centrist
##unda
pataki
handlers
nationalists
edison
informant
barret
simulated
##ewater
maver
espresso
skym
waterfront
##cester
menstr
billings
228
diy
risking
raul
shooters
hospitality
untreated
classical
##teenth
burbank
antenna
devote
232
solicit
secretaries
bodyguards
kidman
stepmother
larvae
285
mckee
improves
262
malik
staffing
405
policymakers
##arsity
badger
enclave
##working
periodic
audrey
behaving
aha
examinations
silva
castan
garland
maddy
410
darkest
originating
trainers
displace
negotiator
torch
u201cyour
u201cnobody
8501
controller
kidnap
tsipras
extrapol
lindquist
hangs
diversion
slightest
mcdowell
mountainous
towering
neighbours
assemble
nyse
necklace
translator
mentality
decreases
thirst
desperation
mourns
carlie
##aminophen
structured
inappropriately
predictive
rotondo
warden
scotus
collaborative
perspectives
reunite
unwitting
gibbs
inherently
supplemental
harshly
skulls
regretted
printer
manipulate
naples
horns
algiers
feminism
bergoglio
wrestler
imperative
enterprises
jpac
stumble
briggs
parishion
cadillac
##zhou
mathematics
alfie
weaknesses
heiress
binge
disparity
gulen
farewell
caylee
demolished
schwarber
looted
hulk
nagasaki
humiliation
screwed
disrupting
braun
lurking
bracelets
acetaminophen
carcin
solicitor
skateboard
articulate
contraception
nordstrom
carbapenem
retrospect
multimillion
inhabitants
guthrie
dolezal
sommelier
ferocious
humpback
landfill
claudia
prognosis
u00e3o
poroshenko
##doctor
frappuccino
tribunal
improbable
excerpts
nottingham
sequoia
ineligible
coerced
barclays
repercussions
redistricting
derogatory
adrenal
skymall
701
920
a320
bounced
cbo
dst
dink
dines
ea
eerie
hugging
hpv
joker
lut
lows
mace
mau
nast
pb
puls
rq
rails
varsity
wc
wob
wii
yar
yam
yust
zinke
##xia
##aith
##aele
##eagu
##vell
##gled
##lot
##hall
##mag
##wear
##uy
##bee
##orad
anterior
toaster
touting
##isy
##isel
##asher
##elad
##otr
##leigh
stout
##adena
shamp
sah
atv
frail
frantically
chech
comics
##ulus
##agh
tril
trot
hab
hailey
weights
##andy
##ivirus
unru
notifying
u201cph
u201cint
orc
aback
spiders
spawned
leopard
herring
##heres
brophy
bramble
resides
criss
crescent
upscale
twilight
agence
##pling
peas
mango
evap
##aceous
soaked
carj
careless
##ilee
overreach
expel
##ovic
##ensity
attain
196
##anging
##ampo
##lude
scha
beleagu
roaring
desirable
evenly
downt
longitudinal
lookout
##azy
impending
boogie
breivik
204
millionaire
locks
annot
patten
##weeney
##itsch
delinqu
harlem
photoshop
nightmar
fourteen
##989
glas
glowing
u2018y
u2018w
u2018it
realise
176
rajoy
gunn
##shit
socks
hardc
pastors
242
debit
235
##041
holcomb
mcgee
mcmanus
kindle
312
315
heartbreak
legality
approves
commonwealth
commenters
roberson
generates
staten
customary
u0433
espino
divine
##ijah
balan
biometric
seekers
loom
separates
averages
madd
preventive
##955
##flower
packaged
armour
abc7
480
vanilla
senses
precurs
graders
ethic
ethos
ethyl
u201ccertain
login
adoptive
blooms
wilk
licence
rods
cornel
implanted
dermat
##riminal
willingly
willingham
bernstein
u201ctoo
savannah
rowe
festivities
lewd
empath
1946
resigning
rumours
towel
batman
admire
barbour
mastercard
lobster
newlyw
##iquely
cannibal
anchorman
discriminated
lavo
colonists
innovations
boundary
punches
huang
ayala
outsour
somber
authentication
##ibrand
tags
extradite
u201cprob
beltway
royals
bunny
trademarks
unheard
sustainability
alberto
slideshows
smuggle
congratulate
replicate
fiercely
exchanging
unlawfully
beneficiaries
tumbled
undertaking
sampled
subscriber
pasadena
fracture
mullen
mckenna
##oscient
cautions
euthanized
topple
bingham
mpaa
mikhail
exoneration
laptops
annoyed
mitochondria
toothp
renovations
stimuli
chimpanz
u00f6r
mishand
##patrick
##withstanding
coughing
urgently
pixar
paternity
degrading
chalk
inhuman
gauges
hijacker
shaky
awakens
epsilon
downgraded
anomaly
marlins
maurit
##ifferent
plummeted
overcrow
wiping
epipen
cpsc
d032
worshippers
wide00012
kensington
claude
elicited
infidel
candlelight
regimen
##amiliar
acquittal
demographics
umbil
unwavering
peruvian
raziq
sizemore
espinoza
402
602
ailing
bian
baking
beng
cels
dau
dudes
ely
fade
ginger
guts
jop
kourtney
lec
nk
ness
nance
null
nissan
pestic
sore
sweeney
taps
tilt
tighter
waff
ying
zusch
zeta
##tures
##ieth
##sb
##eel
##cd
##yre
##ymm
##fred
##houses
##making
##breed
##90s
##jury
##inting
inaction
angr
##itkamp
##icus
##ilot
##oton
##oting
##urious
##urized
sto
stare
##utter
foraging
##igently
hems
heitkamp
asymm
##osome
##chuk
saus
aloud
conve
chave
chilly
tram
trolls
##umane
##ortex
##arten
##ustered
usb
##anti
ari
clis
bray
crooked
doom
doyle
u2014about
incrim
##ipiac
perris
##aval
##assium
draped
maroon
comptr
caracas
##rying
emit
emerson
buenos
knicks
flatt
feas
quentin
parano
elm
elijah
u20134
infused
##raf
schre
surging
insert
insulted
aires
nora
courtyard
probes
slots
serna
##aturated
putnam
runaway
sharia
u2018p
southbound
restart
clinically
218
clears
snar
##parall
##show
devos
clintons
solynd
coping
yeti
mcga
impress
265
largay
immers
landown
commenter
407
u201cher
##beh
suffolk
jeze
encelad
moz
rebuffed
variance
volt
crisp
grandma
broadband
benevolent
understandably
samson
silently
squar
misrepres
rescuing
materially
intrusive
competitions
chemist
hallie
unfl
unfamiliar
greenville
packing
libyans
modeled
worded
utilized
guyger
##untled
psycho
psychosis
sensor
spreadshe
gradual
##674
muir
u201ccr
cooke
connector
screengr
abductions
580
weld
apologizes
nonex
waitress
u201cpart
ridley
rogen
depress
hawes
rhinos
ivana
spectators
astronomy
lieu
contractual
dispatchers
vigorous
jammed
swims
resolutions
##spot
u03bc
reinstate
sweeteners
quotas
u201cgod
escalator
lamont
##gregor
germs
banging
pigment
tanker
lyndon
##crunch
cannabin
gillibrand
tagging
inflated
dictated
ernst
skeletal
tangled
nuanced
u201cnothing
juveniles
masturb
interracial
asth
upright
u201creally
slaughtered
premiered
##estyles
navigational
sweatsh
evidently
kuwa
mendoza
baghdadi
abnorm
lobbyist
tabloids
bruised
merchants
inexper
##zyk
heirs
unreasonable
pattinson
wenner
scouting
quinnipiac
leaned
yanked
conveyed
beheaded
deserted
forfeiture
metabolic
supremacists
annexation
sacrifices
bragging
worsening
glorious
microscopic
corroborate
acquaintances
peculiar
jealousy
scripts
hammonds
mollie
refrigerator
revisit
overlooking
ktla
swirling
stylist
wastewater
extingu
teething
resentment
commencement
affluent
humphries
frigid
infuriated
accrued
poultry
tokens
marjory
vertebrae
immortalized
vaguely
tarantino
onslaught
duggar
superficial
u201cabsolutely
eureka
cerebral
beleaguered
celsius
joplin
pesticides
zuschlag
chavez
solyndra
jezebel
enceladus
011
411
535
635
bounds
eater
fx
fend
fms
gn
gland
hq
kol
ketch
mk
mital
merg
nell
ola
penc
pork
penchant
ria
tian
vista
wada
wander
yacht
zas
##xed
##tu
##a8
##aism
##vue
##lain
##lio
##mith
##mala
##zn
##bm
##jillo
##atism
##edown
##orth
##orable
##aru
##arious
##icothe
##entric
onoda
##story
reapp
prok
bev
hee
congl
fraz
fragr
##opioid
nept
troll
##earns
uneas
noteworthy
notwithstanding
u201cad
u201cunder
u201cjohn
seym
##see
abidine
##emakers
sporad
leices
ploy
clich
closs
braced
brunt
outward
sayre
groped
upi
contra
manor
manit
intuit
recap
disav
evid
evie
appalach
marx
compel
##indler
overrun
blended
inval
flowed
quakes
indy
u2013201
schatz
bethany
highland
rohing
##hne
gupta
##vernay
downstream
insanity
companions
airbn
defective
defections
deficiency
plano
boz
summers
##ieri
207
needles
locating
handsh
##ometheus
moreno
concede
30k
##white
##atte
methan
prevailed
prevailing
swimmers
mao
glue
glitch
propel
crev
wali
waterboarding
jude
judaism
avian
irbil
pops
##tees
sourced
burials
pastry
241
debacle
buildup
boyette
potassium
pointless
romaine
distracting
317
limbo
fung
mccaskill
ideation
embold
bashing
awry
groundwork
##655
multip
martyr
guardians
divul
balances
tomah
educators
melomys
mattrick
380
u0c
okla
titus
muk
lifes
lifestyles
520
##685
##ufe
tempered
screenwriter
progressed
arguello
welcomes
##339
attracts
u201cperson
trait
rainy
ramos
meaningless
duvernay
007
truthful
##anooga
evacue
mileage
climber
rhonda
u201ctake
doubtful
##guy
hangover
lesions
bleak
odessa
##cheduled
teddy
wheeled
stabilized
stabilize
jamal
novelty
blasting
naive
ruiz
shrunk
watershed
fisherman
u201cgreat
patriarch
vigilante
optimal
levi
roofs
dumpster
jacobs
##ilitating
dusty
robberies
steadfast
sinatra
sidibe
lorenzo
tuare
cassandra
notoriety
reassuring
optical
muddy
fulfilled
undercut
obscene
fools
astounding
whisper
nicholson
steinh
furnish
disgruntled
sneakers
enthusiasts
harambe
mockery
remedies
seaside
granite
caesar
caesars
hammered
glaciers
wendi
execs
relentlessly
carcasses
vagina
glamour
whopper
dehydrated
adriana
orbiting
underestimated
dulles
##chemical
discrepancy
misogyny
newcomer
burdens
gravitational
monterey
ecstasy
miniature
kessler
inundated
crystals
alawite
microplastics
prowess
tumultuous
ubiquitous
vengeance
dprk
chattanooga
joaquin
encampment
lagerfeld
scaffold
slippery
##ydenko
curriculum
lavoie
angrily
mcgahn
mitalipov
leicester
airbnb
399
415
769
988
939
bum
bier
cis
cme
dap
eaves
fc
fons
fisk
gt
gale
hess
kail
mou
mok
mald
nec
nafta
pensions
qra
rov
sz
sos
sque
tt
tails
vile
wich
xavier
zine
##dele
##fair
##pes
##gre
##hh
##bt
##erra
theo
thes
##aracter
toast
topless
##itimate
##icist
##omics
##rems
##iland
##elage
##utable
rej
preston
beit
isot
##irk
shun
shaft
shaffer
##thals
sap
##estown
fraternal
degrad
deangelo
##agher
haugh
unic
uneth
##odus
exodus
u201calthough
reprim
##allen
##ieu
plumb
clive
clinging
worsen
brides
##iae
outset
##ucous
meade
u2014more
phases
nobles
##ogene
prescott
soot
scuba
mara
marilyn
##urrence
emitted
monet
buch
blm
bloss
blanc
flirt
coch
coaster
attribution
##actively
wrig
consul
schieffer
beltr
capy
depiction
reggie
warc
warships
demo
demp
##ahon
##roiled
prototype
##ornis
millionaires
##antsev
sera
morse
talents
wedge
##brina
harb
transgress
northbound
corb
304
309
complicit
sexting
skype
propensity
257
taxed
blacked
hardship
keeper
socialism
##annister
davydenko
specialization
26th
nonopioid
prosecuting
embroiled
hotter
supers
conservatism
angelo
circled
moe
presenter
crimean
constable
msf
msu
375
flyers
predatory
verse
misery
333
mountaine
garza
mosaic
recognizable
424
##997
hurled
selena
##679
##642
##625
70th
u2014this
hypers
hypert
houser
casually
581
prosperous
derided
chapeco
skinned
registering
unpublished
scaling
techcrunch
gangster
lyon
nutter
bathing
rumer
trujillo
batali
vigils
nyt
toxins
litig
elders
disclaim
tammy
kilometer
anticipating
baj
whitson
toddlers
retirees
bulld
coconut
expansive
prosth
pornographic
cuyah
cognition
hooded
confeder
dismay
schneiderman
fertilization
landscapes
ninety
feminine
##hlman
ancestral
salmonella
coincided
scholarships
gentlemen
fractures
sacha
bruising
obstructing
ribbon
lobbied
kazantsev
hitchh
densely
taco
nabbed
coding
paradox
fernandez
deterioration
cedro
undermines
intoxication
jaime
francesco
sfgate
anatomy
philanthropic
categorically
insecticide
merrill
grappling
vallum
unmist
rusty
disgraceful
underestimate
vertebrates
incapac
chillicothe
abolish
adorable
dickinsonia
derivative
arousal
funniest
aspirations
python
daytona
lettuce
erroneous
fellowship
ufe0f
najib
shapiro
intermittent
vassallo
encyclical
##journal
peripheral
barbecue
storytelling
u201cunfortunately
horizontal
guatemala
ugandan
belafonte
wasserman
myriad
archdiocese
sweetheart
bobbitt
glasgow
comptroller
screengrab
neptune
seymour
rohingya
wichita
degradation
cuyahoga
2c
512
634
812
bord
bick
bsa
cinder
ein
etern
eileen
ferv
fuzz
gile
jb
kett
lig
lous
lana
lopes
nau
natives
rife
vx
vortex
yufe
##ruc
##aels
##nie
##car
##pc
##pic
##vation
##via
##kg
##kh
##mor
##meyer
##bot
##3c
thien
##eri
##inelli
##edience
##esda
##anna
##arbon
anadol
##isure
andr
##iden
onion
stitch
stamos
prometheus
isps
shank
shaming
ascent
##osl
alas
atf
conrad
##opo
##opian
##opolitan
##mentilli
##andre
##ivate
une
unres
exon
u201cab
u201cqu
sementilli
##ourd
##ourage
hast
enlight
newer
##ellin
##osti
plur
clutch
worms
resett
##ichael
##uca
crum
crab
grilled
##ageal
u2014j
peach
phy
perjury
scoff
drench
monoxide
blister
invaders
coerc
query
1902
##grown
elba
evergl
1033
backbone
##arges
roar
##ussia
smyr
terrestrial
busch
confided
provoking
boon
apar
##ursed
nearing
annapolis
slov
morality
morgen
##bringing
harley
305
refiner
##rata
##uper
calorie
stared
starvation
menlo
billboards
modifications
classify
##cox
employing
programmes
geop
234
organism
excuses
halting
candle
282
mcgregor
distractions
ruler
palij
267
heartburn
nonstop
radcliffe
reviewers
referral
##iscover
rebound
volley
audits
multivar
strips
marty
primates
378
selfish
melvin
legislatures
benz
u201csometimes
u2019donnell
vanessa
mobil
sprink
salesman
##821
##breakers
u201cwhether
##622
##105
acknowledgment
u2014there
patrolling
taboo
progressives
exercisable
destroys
comedic
u201cpre
##454
bonding
##glia
eaton
676
1951
neuroscient
##ohio
nicky
volunteering
u201clove
mcdon
empirical
advancement
##ozy
tanya
jayme
dissip
icu
hoard
anchors
anchored
fetch
motivate
siri
foil
horrors
cardiologist
dilution
exploits
muscular
rigid
pitches
bedrooms
tycoon
daunting
strangely
conservationists
wisn
jeanette
ridicule
u2014some
suvs
rosenbaum
niche
sheds
shedding
fascination
dividing
intimidated
suicid
adjour
tracey
imperfect
browsing
caffeinated
bursts
stalem
cherne
stumbling
diminishing
chefs
accumulation
aux
distributor
brinkman
bethesda
therapies
kamala
refunds
u201ccompl
swallow
resurfaced
yazidis
##lenburg
croatian
stairwell
philanthropist
jacqueline
dismantling
tyrann
lymphoma
soliciting
commemorate
marietta
cesar
neanderthals
ignorant
grievances
hierarchy
##iphate
bellevue
spatial
ludic
tibetan
philosophical
oncology
apocalypse
daiichi
domestically
mummified
videotaped
zawahri
kozinski
pizzas
dictatorship
monopoly
rethink
visceral
##arthur
filipino
mchugh
fuselage
mundane
raffaele
treacherous
metallic
barbaric
gcsb
purporting
inspirational
##oclastic
mecklenburg
hemsworth
paranoia
##remski
unethical
hypersexual
everglades
smyrna
a1
bh
biss
bashed
cen
cpl
cog
cages
coke
dots
dae
dickson
fey
fencing
fonda
gerv
hives
iz
kemp
kesha
klux
lass
lott
liner
mv
moo
mante
maturity
nhl
nws
ply
pave
pomer
sill
sinal
wagon
yarm
##rg
##rens
##dick
##ienced
##number
##sies
##cases
##gary
##lair
##hurst
##mus
##mill
##wer
##jun
thur
##atross
##aret
##aretz
ingen
toled
##isse
##016
##ompt
##ente
##elcome
##otected
##ayo
whilst
stoked
##utive
##olt
##olcano
##aday
##adata
##adorean
beek
##osph
##change
##chio
ald
atp
chet
##ulatory
##agua
haaretz
wept
unmas
notch
##ifference
u201crem
aborted
spate
repaid
lea
leaker
leisure
##005
herpes
goog
broom
brisk
polished
craving
upended
agony
u2014where
##ikes
disarm
eviction
scors
marissa
overstated
himmler
decimated
##aterally
coasts
1938
workout
stras
mylan
syrac
##weet
conserve
schi
##produc
backer
downhill
longoria
defectors
milne
milano
##etsky
##orne
neared
filtering
legends
lifeguard
souven
bark
barri
barbs
barking
##bright
reflex
##attr
complains
startled
swarm
sharif
takedown
possessing
profiled
businessmen
254
situated
receivable
snacks
entang
entren
greatness
geom
juarez
##044
##byn
lara
custod
mcch
malley
sanit
sanitation
judgement
mccabe
turnover
##neau
borch
bloodst
moch
rebutt
varieties
moviegoers
deepening
pollock
pollster
espy
egeland
doubted
foxnews
##ylent
##ylance
##ethyl
combating
combines
respecting
5000
ladue
##614
##619
pricey
spotting
benign
##953
##881
bombarded
catap
vanish
u0b
commanded
bowen
tribeca
textbook
learns
lifeless
u201ccl
##624
speedway
mistreated
raters
welch
cougar
sarcast
albatross
854
bonded
sorted
moonlight
seatbel
050
synthes
establishes
politicized
palestine
automakers
##cowitch
knowledgeable
dimensional
ceremonial
hangar
lescowitch
functionality
durable
u044c
comforted
baty
admon
bella
clarion
icons
stresses
brightest
sirius
gmail
transforming
gilad
asserts
dolan
bachman
tremors
collaborator
somers
##olitics
conceive
tackling
u2014says
chatted
thinner
luxem
vegetation
filmmaking
taser
bridget
bunce
khanna
stamped
havill
u2032
stimulation
manipulating
friendships
feminists
sumwalt
resembled
curtail
replicated
artificially
exempted
stirring
sympathies
pyroclastic
patches
flawless
volcanoes
coordinates
cautiously
puzzled
inexcusable
prematurely
pioneering
plugged
tacit
scratching
ricardo
anthropogenic
ecosystems
cunn
instructors
galvan
bureaucratic
bureaucrats
pandemic
digestive
adolescence
hesitation
dissenting
ecuadorean
infert
dupont
##ovych
intolerant
crawford
tantal
dawson
ventilation
coulter
bribe
algorithms
sleeve
inhumane
frogs
vineyard
rackete
societal
beyonc
turbulent
penguins
unrealistic
scooters
quirky
obliv
metabolism
neatly
fermentation
bamako
phthalates
caucasus
seawater
crocodiles
cbp
hindsight
vaughan
clauses
rochelle
yanukovych
haircut
geoglyphs
1930s
sketches
dazzling
tarrant
remembrance
irreversible
dessert
fnirs
celibacy
jastremski
unhealthy
imbalance
parishioners
toothpaste
umbilical
schreiber
zaslow
eavesdrop
fonseca
dempsey
gilead
anadolu
sinaloa
scorsese
syracuse
460
660
610
717
820
bals
cns
db
daly
dashed
elicit
fated
ftc
gy
gb
gosh
hager
jov
jens
jaws
kek
koval
lach
litt
mats
muzz
napol
nascar
norton
pud
pav
rw
rik
raged
tink
tetr
vance
wien
wifi
zool
zoe
zambia
##xon
##taking
##aise
##oqu
##eight
##fields
##vable
##gang
##kis
##kus
##koff
##hots
##mons
##jam
##inum
##enia
##anha
##015
u2605
##idan
##requ
##etal
##urous
##staking
stained
##acons
reimb
forear
##adden
ismail
##imals
shoved
shrew
##termin
##chins
##christ
conley
##optery
chills
cheryl
weir
##andest
##iveth
uniquely
##ifiers
exer
u201creg
ornel
seah
##istine
butte
leia
herders
##ighting
usern
afar
aden
##ardt
cliffs
clandest
worm
bricks
amir
imam
incurs
reclusive
##iza
noises
##awled
pertaining
##avage
complying
cara
carriage
likeness
interjection
relocate
invitations
decency
##orsch
stramp
indifference
eluded
medellin
everett
sykes
##rax
desecr
mined
##amaz
genev
genotypes
defector
norad
servic
mrsa
providence
boast
playful
##odynam
joanne
annan
patsy
##aughey
missp
rightly
whitehead
harpo
harvested
headcount
swirl
communion
sharaa
humbled
##resist
2201
##eleine
dipped
216
raisman
snipp
modification
taxis
##strum
##coat
burge
orderly
michaels
231
marchers
muster
differentiate
distorted
distanced
fatherhood
imprompt
footsteps
archivist
radel
emblem
lineback
camden
##beats
milligr
frontal
mole
veron
spaceflight
constell
painstaking
expressly
dispose
paulo
bien
biomed
lois
walkway
brewers
melquan
rescues
606
##ulemon
snowy
garrison
##375
mosby
unfounded
##hei
repeats
bedford
fielding
existential
##992
##996
characterize
u201csince
hurried
hurdle
util
piles
kelsey
bullshit
##121
copyrights
liberian
##meh
u201cdef
jewels
bowling
clicked
faul
vacations
compensated
flagging
mujah
torrent
essays
laboratories
wilcox
wwii
partnered
518
##amba
mandates
##336
##oshima
u201cfox
u00f4
implication
magnate
truths
roseanne
675
mortg
extrav
climax
scalp
##397
u201cshould
corrects
motorized
contestant
##blatt
844
saudis
gainesville
entertainer
jamestown
supervolcano
matheny
icke
forgery
downloads
dominion
u201cgone
blowers
##garia
emptied
diligently
bulgaria
hubert
tearful
nurt
intensely
##theid
pronounce
deems
flashlight
fateful
scotts
somerville
unprotected
philippe
fascism
meteorological
shady
canton
discreet
convene
fabulous
plunging
abbottabad
omran
adjud
reconstruct
##tzis
sicily
sparkle
navigating
eclips
isaacs
lobbyists
inpatient
incumbents
mcmahon
seminary
empowered
anthropologists
microbial
heinrich
hesitant
fulfillment
resonance
rituals
deseret
forfeited
##cephal
disapproval
ocampo
intruders
boutique
quarantined
lululemon
croissant
furloughed
segregated
downgrade
poetry
analytics
mcclure
plummer
scooter
discrepancies
u201camerica
paleontologist
unattended
giesbrecht
peppers
navarro
comrades
bombardment
herzog
tranquil
compostela
typhoon
kieran
inexplicably
dachau
geyser
arteries
sylvia
protagonist
doomsday
precursor
evacuees
lousy
apartheid
suicidality
batygin
luxembourg
ornelas
genevieve
impromptu
032
388
801
cote
cured
dell
della
ewan
flic
gly
gerson
ks
korn
kutcher
lange
nt
nguy
omitted
pumm
rounding
rca
sip
tand
umar
wp
wim
wick
woe
yep
yulin
za
zak
zonal
##daw
##dorf
##naught
##eah
##cw
##yd
##pont
##gd
##gated
##gates
##hound
##zyn
##brew
##360
##jor
##atran
##esch
##arc
##arf
anarch
toomey
u201a
##ream
##eles
##etan
##urp
onscreen
##leys
stony
##olam
reza
pratt
##igated
##amic
##image
shum
asphy
##chap
saunders
almond
alright
u2019con
conject
frivol
##opa
deed
tripped
haunt
hails
haunting
weber
weprin
##anded
exxon
u201cen
u201cstr
seps
##istoc
spook
leasing
##rium
clusters
broth
projection
outage
outnumber
groping
mez
u2014ex
mankind
manfred
phant
disab
disob
nojay
##ogo
presumption
appra
soylent
##avy
##avity
scape
##toria
drc
emil
overload
blades
##epfer
##ishly
##ensely
feast
coined
qui
1935
getaway
##obarb
indign
parsons
##management
meditation
u00eda
belts
belmar
guessed
downside
smokes
genus
terrell
postseason
servings
endoc
endemic
confessions
confounding
boiling
boasting
##roach
playoffs
speculating
locom
patented
patagon
readings
slugg
believers
morale
morbid
whitehouse
deleting
183
markus
metadata
complication
fares
farrell
leftist
humility
##ontr
greco
u2018a
##303
211
raucous
snatched
irwin
##conn
valencia
burberry
burlington
249
debilitating
salen
geologist
marches
christoph
certify
denzel
292
mcgar
palau
homo
maln
nonc
respondent
erased
bananas
windy
##beans
nomura
britons
frontman
u00eb
##uffled
jackets
moat
obsessive
supermod
audible
mattered
surveying
painfully
##knecht
##eteries
melody
##ieces
sheriffs
madeleine
favorability
woodstock
amazingly
ulta
hamill
bedside
ensured
strategists
innate
u0bc
oils
u201cdeep
bowed
bowmar
fauc
##645
lifts
pathology
pathological
purpos
##623
definite
torr
microbi
bobbi
950
fishes
tabs
u201cmake
apologise
plantation
ramse
rogan
mirna
beatings
ignite
winnings
roseburg
danielson
innocuous
narendra
rowley
columbine
mcdaniel
noticeably
u0447
molesting
darling
##eldorf
complainant
pentobarb
hatfield
dissol
litany
profitability
698233
unnatural
buffer
foia
embraces
bulletproof
gerard
renewal
huntington
cocoa
inaugur
pods
dodgers
##ilitary
##street
uniformed
succeeding
##ariates
infantry
ridiculed
hollins
steroids
pillars
cemeteries
hubbard
cosmopolitan
havens
rudolph
stimulate
expedited
bitterly
persuasive
tenth
covariates
phenomenal
u2014had
obscured
leniency
molecule
smells
u201conly
cherished
telescopes
lagarde
obstruct
hovering
hoverboard
u22121
gridlock
griffith
toppling
flourish
lecturer
anthropologist
intimidating
u201cbeing
spoiler
prestige
exhaustive
upholding
soybeans
lansing
serbian
reservoirs
##farious
##leasure
tripled
mitigating
sacrificed
bragged
strickland
dysfunctional
forcible
uninhab
stephens
culmination
kopetsky
feathered
hydra
disconnect
pseudonym
schwartz
grievance
counterproductive
anomal
surroundings
zeit
scripted
siberia
incubart
anecdotal
consolidation
wizard
arrogance
caldera
rambling
leahy
rosemont
skewed
hensley
congestion
cyberattacks
2500000
schroepfer
scrapped
mathematician
fibrillation
unloaded
tadp
envelopes
indiscrim
jasmine
doodnaught
cottage
duluth
##aparelli
middlesex
lulzsec
guillain
maureen
oligarch
downturn
chimpanzees
squarely
asthma
daphne
haughton
thienpont
refineries
gervais
schiaparelli
wiener
strampel
nguyen
sepsis
patagonia
pentobarbital
517
615
930
bate
cn
ds
ehr
fuse
fiveth
geld
hof
hrs
jody
kub
kearney
lapse
macy
moor
naugh
omb
ping
pings
paved
rale
rene
riff
td
tanc
tbi
ull
vat
vish
zel
##ximate
##rals
##romp
##racies
##oze
##york
##0d
##vish
##vaney
##laz
##merg
##members
##uil
##uaries
##bler
##80s
thwa
##enary
##anza
##arts
anast
##isance
##omish
##stice
##staff
##oled
reentry
pradesh
beware
ish
##immer
shalit
alamed
fridge
chub
chung
nefarious
deact
deutsche
##agle
trous
unden
##umi
u201cam
u201capp
##ourtzis
spit
splin
##allero
herc
useless
afc
aryan
adel
##endously
##ardia
##riot
planc
reside
upbringing
dover
twists
allred
mek
mehlman
u2014no
##iked
recoup
presume
appoin
##ava
scattering
compounded
carmel
##ibur
##umps
knuck
expon
expires
decay
flap
flier
mayan
lawfully
lawns
mediation
wrists
underdog
remington
##iewski
desires
deserving
##itto
##ribe
demons
genoa
airfield
defection
defying
subtr
implying
imposition
impasse
impunity
apu
homework
effig
efficacy
##undai
takeaways
edible
barney
veiled
explores
nighttime
passers
caliphate
swings
swung
swarmed
farook
leth
campaigner
campaigners
gluc
skirm
waterfall
rested
snoh
taxon
##pared
couns
valve
suga
entice
antid
janner
248
geographical
237
smalls
solstice
##045
excruc
youngstown
freeing
denom
##announced
299
connie
palpable
paladino
266
malian
malawi
petrol
immensely
landmarks
labelled
hillside
radically
emblaz
##apsed
robotic
##itchie
birther
hopping
ceglia
motions
##112
supercomp
audited
grandpa
paints
cellar
celebratory
fairbanks
displeasure
predisp
balart
louds
misstate
misrata
intrins
horribly
legislator
snowboard
##612
##ramar
##954
428
##888
bedb
packets
surrounds
##steen
merrick
475
ensl
uttered
novo
447
sensing
bowel
cooperated
happytime
renmin
editorials
pathetic
temperament
cookbook
trailed
logging
imaginary
rodgers
papacy
591
olga
caballero
organizational
depressing
mortem
freshwater
amidst
aspx
asperger
consequential
glassdoor
motorb
autopilot
montage
comparative
durango
oslo
vulgar
comfortably
lyric
breathtaking
belliger
clarifying
vaccinations
conspic
consumerist
kisses
supervising
mansfield
forgiven
treasurer
tasted
chaunc
alerting
reciproc
confrontations
telepromp
entrances
gerber
yeon
nicely
railed
withdrawals
comprehend
forgetting
fundraisers
graveyard
megna
experimenting
gadget
tremendously
ramped
##loat
gigantic
u2014section
luxurious
overdue
nicholls
##izzo
minimally
perpetrated
behaviours
##organization
underwriter
mirrored
##rolet
polarized
intimacy
ninete
mlk
methamph
##irtyeight
descending
sumatran
resembling
fooled
dorothy
adversary
facilitated
##nutrition
dystop
cortical
polygraph
ebov
mohawk
utterances
trenton
chopped
##keepers
##upski
merchant
interpreter
therapists
gripping
upgrades
melanie
suppressed
wfp
swallowing
u2018that
mulvaney
mickey
mickelson
tulane
humiliated
anatom
stockpiles
veterinarians
pauses
bracam
lithium
disqualified
coulson
glamorous
precautionary
corroborated
lahore
safeguarding
summarizes
cyclone
marginalized
aguilar
##birds
fsis
u00e7ois
kinsman
overflow
impartiality
krebs
bekah
##umaran
crippling
zurich
twentieth
disadvantage
1800s
transpired
nostalgia
bratton
olivier
u03b242
musselman
u201cclearly
ekstrum
eccentric
pagourtzis
contraceptive
moussa
catacombs
saldanha
chevrolet
oreskes
bayesian
biskupski
dinesh
attainment
nightmares
u201cprobably
infidelity
##paralleled
conglom
frazier
hypertension
stalemate
napolitano
linebacker
mortgages
frivolous
ramseys
fivethirtyeight
raleigh
planck
appointees
snohomish
emblazoned
chauncy
teleprompter
002
495
464
565
bock
ck
cada
dag
eun
fod
gior
henn
ie
iu
jensen
kou
ket
kant
kamp
kinski
kfc
lill
mba
nia
oland
oops
pint
rer
rost
ricks
ripping
ritchie
sb
sigma
tare
vucci
zor
##rador
##dna
##ienne
##yy
##gast
##good
##lj
##lene
##loban
##kley
##haw
##may
##wt
##jas
##qs
##qing
thugs
##enb
##inges
ines
##itism
##isal
##asper
##icion
##omena
##aye
##stands
stig
stard
stacey
##older
##olocation
prized
##igel
##igault
heap
##thor
asiana
asgard
##chu
sabrina
alma
frisco
chow
comf
deen
tron
##tshire
haird
unab
uneven
u201cins
u201cwork
u201coff
##ectal
abby
##emann
repell
lebron
##allam
##apo
##outed
afloat
arises
##riel
platt
yearbook
resounding
resorted
willful
polled
crad
amused
uphe
##plate
##uble
peele
manigault
receptive
phoned
disable
##avirus
drained
liking
interruption
relocation
blitzer
invo
invade
[...]
